#version: 0.2
à ¤
Ġ à¤
à ¥
Ġ Ġ
à¤ ¾
à¥ ĩ
à¤ °
à¥ į
Ġà¤ ķ
à¤ ¿
à¥ Ģ
ĠĠ ĠĠ
à¤ Ĥ
à¤ ¨
Ġ t
i n
e r
Ġ a
à¤ ¤
à¥ ĭ
à¤ ķ
h e
o n
à¤ ¯
à¤ ¸
Ġà¤ ¸
r e
à¤ ²
Ġà¤ ¹
Ġt he
a t
o r
à¤ ¹
à¤ ®
e n
Ġà¤ ®
a n
s t
Ġà¤ ª
à¥ Ī
a l
e d
a r
à¥ ģ
Ġ o
à¤ µ
i t
e s
i s
Ġ w
Ġ s
Ġ f
ĠĠ Ġ
Ġ c
à¥ ¤
à¤ ¦
Ġ in
à¤ ª
à¥ĩ à¤Ĥ
n d
Ġo f
i on
i c
à¤ Ĺ
Ġ p
in g
Ġ b
Ġà¤ ¨
Ġà¤ ¬
Ġà¤ ľ
ĠĠĠĠ ĠĠĠ
l e
r o
a s
à¤ Ł
à¤ ľ
Ġà¤ µ
Ġa nd
Ġà¤ ħ
Ġà¤ ¦
u r
Ġ d
Ġà¤ °
Ġà¤ ²
Ġ m
à¥ĭ à¤Ĥ
Ġ (
i l
à¥ Ĥ
Ġt o
e l
Ġ S
a m
e t
en t
à¤ ¶
Ġ 1
Ġ re
à¤ ¡
Ġ C
c t
Ġ h
à¤ ¬
à¤ ı
Ġ A
o u
Ġ n
Ġ T
t h
o l
o m
Ġà¤ ¤
Ġà¤ ī
Ġà¤ Ĩ
à¤ ļ
Ġà¤ķ à¤°
Ġà¤ Ĺ
à¤ §
ĠĠĠĠ ĠĠĠĠ
Ġà¤ Ń
a d
à¤ ·
Ġ l
Ġà¤ ĩ
Ġ M
Ġà¤ Ķ
Ġà¤Ķ à¤°
c h
c e
i d
à¤ ¥
Ġ 2
à¤ ¼
Ġ =
er s
i g
at ion
Ġ e
Ġ B
Ġà¤ª à¤°
i v
Ġà¤ ¯
Ġt h
Ġ P
à¥Ī à¤Ĥ
r a
i f
i m
u n
u s
à¤ £
u t
i st
à¥Ī à¥¤
u l
Ġ I
Ġà¤ ı
à¤ Ī
Ġà¤ ¶
Ġf or
o t
i r
Ġ H
à¤ ĸ
Ġà¤ ļ
Ġw as
Ġ R
à¤ Ń
Ġ g
Ġ is
e m
ĠĠĠĠ ĠĠĠĠĠĠĠ
Ġ on
Ġà¤ĩ à¤¸
a y
Ġ st
a g
Ġ $
Ġ D
Ġ "
l y
o w
o d
Ġ F
s e
Ġ L
Ġ1 9
Ġa s
Ġ2 0
t er
Ġ N
u m
it h
Ġ {
Ġà¤ ¥
an d
à¤¾ à¤Ĥ
Ġ G
Ġb e
at e
Ġ W
u e
o p
a c
Ġ v
ur n
o c
) ;
ĠT he
Ġà¤° à¤¹
p e
Ġ E
Ġw ith
Ġà¤ı à¤ķ
à¤ «
Ġa l
ro m
a b
r i
Ġb y
e w
à¥Ģ à¤Ĥ
â Ģ
Ġc on
re s
am e
Ġ J
v er
Ġw h
e f
Ġà¤ «
Ġà¤ ĸ
Ġ '
Ġa t
u b
p t
à¤ķ à¤°
à¥ Į
o s
' s
à¤ª à¤¨
Ġ à¥¤
à¤¾ à¥¤
Ġa n
u p
ct ion
al l
t urn
a in
Ġ O
Ġà¤¸ à¤®
n t
Ġà¤ī à¤¨
ar t
à¤° à¤¤
Ġf rom
ĉ ĉ
er e
it y
es s
Ġà¤¨ à¤¹
Ġ }
i an
i es
a v
or t
Ġp ro
Ġ he
a p
Ġth at
b er
- >
Ġc om
Ġd e
k e
à¤ ĩ
Ġ K
i a
âĢ ĵ
en d
Ġà¤¯ à¤¹
Ġ U
0 0
il l
Ġ if
e x
o re
e st
à¥ ī
m ent
Ġ it
o g
Ġà¤ķà¤° à¤¨
à¤° à¤ķ
Ġs e
ĠS t
( )
i p
ar d
à¥Īà¤Ĥ à¥¤
ig h
u d
1 9
r an
Ġà¤ī à¤¸
Ġ or
Ġà¤ Ł
Ġà¤ķ à¤¹
Ġà¤ħ à¤ªà¤¨
à¤¿ à¤Ĥ
ĠĠĠĠĠĠĠĠ ĠĠĠĠĠĠĠ
Ġe x
à¤ Ľ
à¥ ĥ
Ġp l
a st
o v
at h
g e
q u
Ġà¤Ĺ à¤¯
at ed
l d
o ur
ar y
ag e
Ġà¤ħ à¤¨
el f
g et
Ġ -
as s
in e
ic h
c l
Ġà¤ ¡
iv e
u g
Ġre turn
i al
ul t
e ct
p l
Ġh is
) ,
T he
Ġc h
is h
or d
c on
Ġ r
k s
an t
ĠI n
Ġ20 1
à¤ ł
Ġ V
i le
Ġ |
u st
à¤¾ ,
on g
à¤ķ à¤¤
i re
m er
ĠC h
Ġa re
en c
Ġà¤ª à¤¹
u re
r y
u nd
à¤ Ĩ
i z
a k
Ġ :
th er
Ġà¤µ à¤¹
Ġ 3
( $
o st
el l
ion s
er r
a re
p er
Ġa r
à¥Ī ,
u c
th is
e ar
igh t
Ġn ot
ig n
à¥Ģ à¥¤
à¤µ à¤°
ac k
I n
à¤¤ à¤°
r ing
à¤¯ à¤ķ
Ġ20 0
Ġà¤ħ à¤§
f f
p ort
Ġ| |
ub l
s o
Ġà¤ ĺ
Ġ le
r it
in t
Ġà¤¬ à¤¨
or m
ou nt
Ġà¤² à¤Ĺ
Ġà¤® à¤¹
ic al
à¤ľ à¤¨
ic e
im e
Ġw ere
Ġà¤ķà¤° à¤¤
Ġà¤Ĩ à¤ª
à¤ ĵ
Ġs h
Ġre s
Ġ y
er v
Ġà¤ §
o k
à¤ ģ
Ġc l
Ġwh ich
Ġn ew
Ġcom p
or y
on e
r ic
ou t
2 0
Ġà¤¸ à¤ķà¤¤
a ch
à¤° à¤£
e c
S t
at a
ab le
ĠU n
Ġal so
Ġ un
à¤ ¢
à¤¼ à¤¾
p h
ĠH e
Ġcon t
Ġ us
Ġ1 8
ir st
in d
Ġin t
Ġà¤īà¤¨ à¤ķ
à¥ĩ à¥¤
Ġà¤¹ à¤®
or k
e p
a ce
à¥Ī .
as e
à¤Ł à¤°
à¤¶ à¤¨
y pe
/ /
Ġ k
Ġpl ay
od e
Ġà¤ Ľ
à¤° à¤®
il d
à¤¸ à¤°
an g
i e
id e
ter n
Ġ à¥
o b
ou s
he d
E x
Ġs elf
it ion
ation s
Ġ 4
ĠĠĠĠĠĠĠĠ ĠĠĠĠĠĠĠĠ
en s
av e
ubl ic
" "
i b
) .
ex t
ĠT h
Ġh as
ow n
Ġà¤¤ à¤ķ
ĠĠĠĠ Ġ
à¤° à¤¦
Ġth is
t e
Ġa d
enc es
Ġ ro
an ce
Ġà¤ĩà¤¸ à¤ķ
r u
Ġ j
Ġ 5
Ġ âĢĵ
) )
à¤° à¤¹
in al
ation al
en ce
al ue
à¤Ĺ à¤°
Ġa p
Ġ Y
Ġf irst
o ol
à¤ª à¤°
ou nd
un ction
Ġh ad
) :
m an
am p
at es
Ġà¤ªà¤¹ à¤²
ĠI t
a il
om e
n g
à¥Ģ ,
Ġ err
res s
ul l
e g
ef er
Ġà¤ Ĳ
is s
f ter
l and
à¤ ĥ
re e
or n
ke y
or s
- -
j ect
re turn
i el
f orm
à¤¹ à¤°
ce pt
a ct
Ġ .
Ġà¤ĩ à¤¨
ent s
à¤² à¤¨
at er
l ow
c c
à¤¯ à¤®
he n
Ġt e
Ġà¤µ à¤°
à¤¯ à¤°
mer ic
" ,
Ġà¤ī à¤ª
Ġà¤īà¤¸ à¤ķ
on t
w o
R efer
Ġà¤Ĺ à¤Ī
e v
p ro
l l
ĠA r
Ġp art
' ,
q ue
Ġwh o
Ġ !
( '
Refer ences
it e
ra y
à¤ ħ
e y
ol d
e b
Ġ 0
a w
ro w
iel d
o ver
it ed
cl ud
Ġ19 9
Ġs c
n ame
à¤¼ à¥Ģ
ou ld
à¤µ à¤¨
em ber
Ġit s
Ġthe ir
Ġb o
à¤² à¤¤
op le
Ġ *
Ġà¤ķ à¤®
il m
oc k
s s
Ġa b
ri b
f er
Ġà¤Ĳ à¤¸
à¤ Ŀ
Ġ" ""
Ġh er
à¤¤ à¤¨
l es
Ġon e
Ġb ut
u al
ar am
ic t
Ġà¤¬ à¤¤
ar k
Ġ el
à¤ ī
Ġ &
iv ers
à¤° à¤¸
Ġ 6
meric an
s h
ĠN ew
Ġp er
Ġà¤¸ à¤¬
Ġ im
i ed
i o
p on
Ġo ut
Ġre c
en g
Ġh ave
Ġ ra
ug h
à¤® à¤¨
à¤¬ à¤°
Ġ #
( );
l o
e ople
d ef
am es
Ġ= =
pe c
Ġy ear
Ġa g
Ġà¤¬ à¤¹
p r
ing s
c k
ad e
Ġ +
à¤° à¤µ
en er
à¥ģ à¤Ĥ
( "
ar g
er y
à¤¾ à¤ģ
b all
le ct
[ '
Ġp re
ran s
Ġm an
e e
s elf
Ġ up
i x
Ġf unction
Ġd es
à¥ĩ ,
Ġcom m
w ard
er n
o ot
t s
Ġà¤ľ à¤¬
Ġin clud
ĠĠĠĠĠĠĠĠ ĠĠĠĠĠĠĠĠĠĠĠ
s et
' ]
at t
as ed
ur ing
Ġbe c
Ġt wo
c he
Ġà¤¸ à¤°à¤ķ
à¤¼ à¥ĩ
Ġà¤ī à¤¤
ic s
et h
à¤ ŀ
om m
Ġd is
Ġ )
à¤¨ à¤ķ
n e
Ġ //
à¤¸ à¤®
Ġal l
à¥Īà¤Ĥ ,
v el
Ġc ol
à¤¯ à¤¤
ro up
Ġ [
à¤¾ .
ch ool
Ġà¤¸à¤® à¤¯
Ġà¤ħ à¤Ń
Ġbe en
Ġà¤ħ à¤²
Ġà¤Ĩ à¤°
p ut
f t
o y
Ġe v
at ch
ist s
Ġ 7
ĠM ar
w e
a ke
Ġà¤¸ à¤¹
t t
à¤® à¤²
ĠA l
o int
o se
re n
er t
Ġà¤ª à¤¤
re d
Ġà¤ľ à¤¨
an n
Ġà¤ħ à¤¬
u ch
Ġà¤° à¤ĸ
c ess
Ġ19 8
Ġa fter
g h
à¤¸ à¤ķ
à¤ļ à¤¨
Ġà¤Ĩà¤ª à¤ķ
Ġf ilm
as on
a x
Ġs erv
Ġt ime
1 8
Ġof f
Ġà¤Ĺ à¤ı
el y
. .
s on
Ġl in
à¤ ĺ
Ġà¤Ĩ à¤¯
Ġt r
f ig
à¤Ł à¤¨
Ġat t
Ġà¤® à¤¨
Ġà¤¸ à¤Ń
Ġo ver
un c
a h
ou th
Ġ: =
al e
Ġo ther
Ġà¤ ĵ
an c
Ġin d
u ild
l i
is hed
is ion
o h
que st
à¤ľ à¤°
Ġl oc
N ame
à¤· à¤£
Ġs et
Ġ 8
Ġà¤¬ à¤¡
Ġs p
à¤¯ à¤¨
g an
or ld
al s
Ġà¤Ĩ à¤¦
r am
cept ion
à¤ª à¤¤
w ay
r al
ĠS h
ut e
Ġ1 0
à¥ ¦
Ġg et
ol og
Ġd ef
ivers ity
Ġint o
ur y
ĠS e
as h
Ġel se
2 00
an s
Ġa ct
Ġ! =
à¤µ à¤¸
p ublic
Ġà¤¤ à¤°à¤¹
tern al
is e
Ġà¤¤ à¤¥
ire ct
ic k
Ġ end
Ġp r
w n
Ġt ra
Ġs he
Ġ und
Ġn il
Ġà¤¦ à¤°
Ġw ork
d u
h ip
Ġthe y
ĠA merican
Ġp eople
con d
Ġà¤¬ à¤¢
: :
ar s
Ġ19 7
à¤¹ à¤¤
iz e
Ġà¤¸ à¤°
à¤ķ à¤²
Ġp ol
Ġà¤ ĳ
on d
r r
Ġre g
Ġs ub
ro und
n c
v i
Ġà¤ķ à¤Ī
t on
Ġ 9
id ent
ra ph
a z
Ġn ame
ou gh
us e
ĠI nd
à¤² à¤¯
à¤® à¤¤
c ent
à¤¦ à¤°
Ġà¤ļ à¤²
or th
ĠC ol
Ġfor m
C h
if ic
ap p
Ġà¤¬ à¤ļ
d uc
le ction
om p
at ive
Ġà¤ı à¤µ
à¤Ĺ à¤¤
Ġn um
v al
er ed
à¤¸ à¤¨
t y
Ġà¤ħ à¤°
ro ugh
à¤µ à¤¤
o od
in s
ĠL e
Ġc o
Ġà¤ª à¤¡
oot ball
i k
Ã ©
ĠP ro
ab l
Â ł
le t
ĉĉ ĉ
Ġw hen
u es
il y
Ġn ull
oc i
Ġo p
Ġc an
. _
Ġà¤Ĩ à¤ľ
it ies
Ġà¤¹ à¤°
ĠUn ited
Ġs y
in ce
Ġs pec
le ment
à¤¸ à¤²
à¤ı à¤Ĺ
a j
à¥Īà¤Ĥ .
ol low
Ġ Z
Ġk n
à¤µ à¤²
c re
Ġ19 6
er m
Ġin st
t ype
C on
at or
p ath
Ġb et
Ġas s
em b
Ġs up
ar i
Ġad d
Ġ _
E rr
al se
Ġà¤ķ à¤²
at ing
Ġlin ks
Ġo b
Ġm ore
ion al
er ies
Ġre m
ĠUn iversity
Ġon ly
Ġf ound
ĠC on
if e
à¤¨ à¤¤
in n
Ġà¤Ĩ à¤µ
Ġà¤Ĩ à¤¤
Ġ1 7
Ġ1 5
i er
res ent
Ġund er
à¤¦ à¤¨
Ġ( $
p os
Ex ternal
Ġc re
a ir
Ġte am
ou se
Ġin ter
Ġc all
Ġd o
à¤Ĺ à¤²
Ġh im
ĠD e
ur re
our ce
we en
20 1
ov e
ul ar
i ent
Ġcon s
c ol
e at
Ġ qu
f ile
" .
t o
at ic
Ġa cc
Ġc ent
Ġl ist
Ġw ould
e ver
in a
b y
Ġwh ere
2 1
R e
Ġ ent
Ġplay ers
Ġag ain
. "
an y
Ġe st
Ġm e
d er
Ġ en
à¥Ģ .
P ro
ĠC l
Ġres ult
m p
Ġyear s
Ġse ason
us ic
Ġw rit
ĠTh is
d ata
it s
iv ing
Ġd uring
Ġw e
over n
o ber
à¤® à¤ķ
Err or
ar n
' )
Ġt rans
Ġ ed
Ġ19 4
Ġus ed
Ġà¤¸ à¤ķ
Ġà¤ĺ à¤°
Ġre l
A r
p aram
b um
r on
Ġst ud
th s
Ġf ollow
v alue
Ġà¤¶ à¤°
in es
Ġs o
ĠS c
Ġm od
Ġbet ween
Ġ1 2
ric t
con t
Ġd ist
00 0
f unc
ĠE ng
en n
ad d
u th
ĠSt ates
st em
ist ory
Ġ ?
à¤ĩ à¤¨
Ġà¤ħ à¤µ
urre nt
oh n
ĠA n
v e
Ġ1 6
Ġre le
er man
Ġà¤ħ à¤®
s c
Ġà¤ī à¤¦
Ġab out
Ġthe n
à¤° à¤Ń
ers on
og raph
le y
em ent
Ġà¤ħ à¤ª
Ġà¤ħ à¤¸
u res
a ult
Ġf am
Ġs ing
Ġm ost
Ġ19 5
Ġb ir
à¤ı à¤¸
Ġar t
c es
Ġp os
pon se
Ġst r
Ġ âĢ
Ġn o
Ġa c
ount y
Ġà¤¸à¤¬ à¤¸
Ġth rough
Ġf ootball
Ġthe m
Ġà¤ľ à¤°
à¤° à¤¶
in ed
as k
ĠS he
ĠS p
L ist
iv er
Ġpro v
Ġth ree
Ex ception
el s
ad er
Ġrec ord
Ġse cond
eth od
Ġ Q
t il
Ġà¤ ł
ag ue
it t
Ġà¤ª à¤¦
à¥ĩà¤Ĥ à¥¤
ire d
T ype
v ent
iv ed
-- --
Ġm ade
I d
Ġ %
a i
in ist
Ġà¤ħ à¤ļ
Ġth an
Ġ= >
ers ion
Ġf inal
Ġl ater
Ġth ere
19 9
b o
r ad
Ġ i
pe ct
à¤¤ à¤ķ
à¤§ à¤¨
Ġd ata
T h
Ġà¤¬ à¤²
um n
un e
Ġ ran
Ġa m
Ġà¤Ĩ à¤Ĺ
Ġal bum
Ġà¤Ĩ à¤§
t en
Ġg roup
St ring
Ġ /
Ġd irect
à¤° à¤¨
Ġw ill
ag es
§ à¥
ra ct
ar ch
Ġp op
à¥Ĥ à¤Ĥ
is m
Ġà¤Ĩ à¤¨
à¤ĩ à¤¸
iz ed
f ore
f o
R es
Ġp h
ut ion
us s
y s
C l
à¤ĸ à¤¨
ru ct
re at
à¤ª à¤ķ
Ġ1 1
Ġb l
Ġm ed
Ġs uch
Ġwh ile
Ġst art
Ġà¤ Ī
ĠC omm
om en
à¤¼ à¤¿
ĠW orld
f or
ar ly
re ad
ow er
Ġs ome
Ġkn own
à¤° à¤¯
um ent
r id
u ff
= "
ur al
ĠI s
Ġs chool
Ġà¤¤ à¤°
Ġe m
à¤ı à¤®
ri pt
Ġà¤ħ à¤¤
ou nc
Ġnum ber
Ġst ring
ener al
C ont
ic es
ĠF ran
Ġà¤ Ŀ
ĠA d
ess age
Ġh igh
o ther
ment s
u ro
f ield
Ġà¤Ń à¤°
Ġb uild
ath er
Ġà¤Ĩ à¤Ī
Ġbec ame
Ġ1 4
cl ass
ĠE x
Ġin v
Ġbe ing
à¥ĩà¤Ĥ ,
ĠA ust
Ġex t
Ġà¤ľ à¤²
ĠN ational
Ġest abl
U n
ac he
Ġcl ass
Ġ key
g er
st r
à¤ķà¤° à¤£
ĠF or
Ġs ign
ĠC ounty
tern ational
le v
ĠM ay
ĠP h
Ġap p
ur l
ĠJ an
eng th
I D
Ġs eries
Ġ <
Ġ >
Ġv alue
ay s
Ġbe fore
Ġn e
à¤¨ à¤®
ĠO n
ar ri
Ġf our
Ġc ount
Ġ19 3
Ġr un
ĠA s
ur ch
Ġm ov
Ġ1 3
Ġo per
Ġw ell
Ġà¤ħ à¤ķ
an k
p s
ĠB rit
" )
o le
ĠJ ohn
H e
Ġar ray
am ed
Ġcon st
Ġch ar
1 0
f l
ĠP l
olog y
Ġv al
Ġde c
Ġap pe
Ġm ay
Ġagain st
Ġinclud ing
| -
Ġà¤°à¤¹ à¤¤
s p
Ġà¤ķ à¤ª
Ġà¤ĵ à¤°
Ġf l
à¤¹ à¤¨
et er
ĠW ar
ĠS chool
à¤² à¤ķ
Ġb ack
Ġre t
at us
Ġà¤¸ à¤¤
l er
Ġs ong
Ġor ig
à¤ª à¤¯
Ġst ate
Ġà¤¸ à¤¦
y le
à¤¨ à¤¸
ĠC an
à¤¯ à¤²
b orn
st ring
Ġsh ow
l og
() )
amp ions
op t
iv es
Ġà¤ľ à¤¹
E R
Ġex p
Ġc a
à¤Ĩ à¤Ī
Ġde ath
à¤¬ à¤²
vel op
ĠN one
m y
iss ion
o ok
à¥ĩ .
ĠC ar
Ġg o
Ġus e
Ġj o
c om
ian s
ĠG erman
à¤¨ à¤¨
i am
à¤® à¤°
ĠY ork
r ist
u ary
arg s
à¤ķ à¤¡
ug ust
ain t
ĠJ ul
r and
Ġpol it
Ġà¤ľ à¤®
O n
Ġ& &
ot t
ĠS outh
are er
Ġ `
Ġp ublic
ĠN ov
emb ers
pt ember
Ġo wn
ĠB l
b ack
Ġre p
Ġp ass
overn ment
Ġdes c
ĠR e
Ġà¥ ¥
a id
Ġde velop
ĠP ar
re am
Ġà¤¸à¤® à¤Ŀ
u le
Ġerr or
port s
are d
et s
ĠW est
à¤µ à¤ķ
Ġman y
Ġf alse
Ġth row
à¤² à¤¬
g ram
re m
à¤¶ à¤ķ
a u
à¤Ł à¤ķ
Ġun til
ĠO r
Ġop en
ib le
at s
ow ever
Ġà¤² à¤¡
Ġbo th
im es
Ġan y
Ġd if
il t
od y
Ġm on
1 7
Ġ2 5
ĠĠĠĠĠĠĠĠ ĠĠĠĠĠĠĠĠĠĠĠĠĠĠĠ
Ġcont in
ain s
à¤¿ ,
ct ober
o f
ĠĠĠĠĠĠĠĠ Ġ
Ġ[ ]
t ime
ĠP r
Ġl ong
Ġs ur
Ġtr ue
2 2
19 8
ĠP ol
Ġm in
Ġfam ily
re g
Ġm usic
p or
a e
Ġà¤¬ à¤¦
à¤¾ -
ro ss
le ge
Ġà¤ĸ à¤°
i ke
Ġan n
f ess
ang u
ĠC ent
aj or
b le
if ied
are nt
Ġo pt
es c
in k
Ġch ild
Ġre ce
l ish
Ġl ine
Ġà¤ī à¤®
v ed
Ġà¤ Ĭ
ar m
om an
it al
Ġm et
Ġà¤ħ à¤Ĺà¤°
l ine
ĠA t
K ey
ĠA ss
ist or
à¤¤ à¤®
Ġb ro
l ed
ĠSe ptember
Ġbir ths
Ġà¤¤ à¤¬
ro p
ul ation
i or
ĠA ugust
Ġ3 0
ĠT r
on s
Ġf ile
à¤Ł à¤²
ward s
ĠW h
m ber
il ity
d ate
Ġf eat
' :
pr il
a f
Ġs ame
ain ed
il es
Ġà¤¯ à¤¦
Ġplay ed
Ġle ad
ĠM an
ĠMar ch
Ġsy stem
Ġper form
it ions
y p
O N
Ġar g
i um
vi ew
ĠT e
Ġà¤§ à¤°
à¤¡ à¤²
1 6
ect ed
Ġà¤ĩ à¤²
à¤¹ à¤®
uc cess
à¥ĭ ,
s y
Ġse ver
à¤ľ à¤ª
ĠO ctober
Ġs m
à¤Ń à¤µ
ual ly
Ġf ield
ĠAust ral
Ġoff ic
à¤¯ à¤µ
Ġf ore
ot e
à¤° à¤§
ce mber
che s
ĠJan uary
Ġare a
ant s
Ġp ar
Ġà¤¬ à¤ľ
Ġdes ign
Ġrele ased
Ġ ,
à¤ķ à¤¸
t he
Ġde p
o ad
ĠG e
ampions hip
I N
Ġor gan
r is
Ġà¤ī à¤ł
ĠJ une
Ġcall ed
o id
uc k
à¤ĩ à¤Ł
ther n
à¤¡ à¤°
an ge
iv en
al es
ic ip
Ġà¤ĩà¤¸ à¤²
lect ed
am b
ir d
Ġw on
ar ray
ak ing
Ġfor mer
A l
Ġd r
or ks
ĠR eg
a use
ĠLe ague
ĠJul y
S ee
Ġl og
Ġà¤ı à¤¸
Ġg ame
Ġà¥ §à¥
Ġhe ad
à¤ķ à¤¨
i ew
f ul
iv ate
ĠBrit ish
m s
Ġe ach
Ġc urrent
am ent
c o
duc ed
Ġà¤® à¤¤
ĠSt ate
ĠI I
Ġp oint
al ly
Ġà¤ĩà¤¸ à¤¸
et y
Ġà¤® à¤¦
Ġev ent
Ġ( !
ction s
ĠâĢ Ķ
à¤Ľ à¤²
ĠN orth
Ġ X
A merican
ĠA pril
ĠB o
ĠE uro
m od
Ġpro du
1 2
à¤¸ à¤¦
res ident
ĠC ity
con fig
it er
ĠSt ring
ure d
Ġà¤Ĺ à¤°
à¥Ģ -
Ġl ife
in c
1 5
p ar
P ath
Ġv ari
ĠNov ember
p ed
n er
ĠC al
erv ice
a pe
le te
Ġfilm s
rib ut
ograph y
id ed
V alue
y n
A d
at ure
A T
ord s
n ew
em pt
à¤¯ à¤µà¤¸
Ġfollow ing
Ġsup port
h er
ap an
à¤ļ à¤°
I nd
Ġt ry
Ġp ubl
ĠDe cember
re t
Ġm ain
ĉĉ ĉĉ
Ġy ou
Ġorig inal
Ġb u
r ight
Ġcomm un
Ġs ince
Ġà¤īà¤ª à¤¯
à¤¦ à¤µ
ch n
cent ury
eb ru
() ,
m a
ebru ary
Ġc he
lev ision
un g
Ġf in
à¤¨ à¤²
Ġloc al
ĠA ll
ĠE d
Ġb el
on y
l ist
il it
Ġ2 4
Ġt ype
Ġà¤¬ à¤°
Ġà¤ľ à¤Ĺ
19 7
Ġsever al
Ġb ased
uth or
Ġc ity
os s
end ed
v en
is ed
ĠG u
ĠK ing
ial ly
ar get
Ġà¤ĩà¤¸ à¤®
an e
ĠCan ad
le g
m ed
à¤¶ à¤²
Ġb re
w ork
Ġg u
Ġà¤® à¤ľ
i ence
Ġa ir
à¤¤ à¤µ
s er
Ġ201 0
ĠA f
iz ation
Ġthe se
Ġl ast
Ġt it
[ ]
st er
à¤ĩ à¤²
I t
Ġre f
Ġà¤°à¤¹ à¤¨
Ġà¤Ĩà¤µ à¤¶
Ġe arly
ac es
T o
us h
ren ch
Ã ¡
h am
o ff
Ġto wn
A n
Ġc areer
Ġs im
in ess
à¤¨ à¤°
Ġpro gram
Ġà¤¸ à¤«
ore d
re f
u ed
Ġc ase
C ol
Ġpl ace
le x
2 3
d e
' t
Ġh and
S T
iv al
ĠW ill
[ $
F ile
ur s
à¤¨ à¤µ
Ġn amed
à¤¯ à¤¦
Ġm ake
l ing
Ġn ear
b ject
Ġp ath
ical ly
à¤¯ à¤ª
ĠA m
z e
Ġchar act
S e
Ġp rom
f unction
al th
1 3
st ance
ĠEuro pe
lo ad
form at
Ġà¤ĳ à¤«
Ġcomp et
enc y
ĠR ep
Ġob ject
âĢ Ļ
Ġm ember
ĠF ebruary
Ġà¤¹ à¤ľ
5 0
à¥ĭà¤Ĥ ,
Ġe ff
res ult
pl ic
ist er
Ġà¤ķà¤¹ à¤¤
Ġà¤ķà¤° à¤ķ
et ers
à¤· à¤ķ
angu age
an a
() .
Ġdif fer
g y
p le
Ġ @
Ġ eng
D ata
w rit
Ġw omen
Ġo ld
Ġm embers
v ers
i ous
Ġcl ub
Ġ20 19
à¤¬ à¤¨
ess ion
ag er
es e
Ġo cc
per ty
ight s
Ġ201 4
st it
en e
ĠC o
Ġd et
Ġbe gan
ĠS y
m e
Ġ201 1
ĠThe y
ĠR es
A R
Ġl and
à¤ľ à¤²
Ġre ad
ro l
Ġp erson
Ġv ill
Ġà¤®à¤¹ à¤¤
u k
it or
l ock
à¤ĸ à¤¤
Ġà¤ĺ à¤Łà¤¨
1 4
Ġd id
Ġ200 8
Ġsing le
ĠD ist
id d
Ġ201 2
ĠB e
Ġst atic
à¥Ĥ à¤ģ
à¤ª à¤¸
Ġà¤Ĩ à¤¸
Ġal ong
Ġ x
ĠU S
Ġdesc rib
ac ed
Ġ201 6
' );
Ġre fer
Ġv ar
Ġà¤ħà¤² à¤Ĺ
Ġdis c
f ace
ri es
Ġs uccess
Ġà¤ĩ à¤¤à¤¨
Ġhe ld
us iness
oci ation
Con fig
l or
à¤§ à¤°
Ġg iven
re en
Ġà¤ħ à¤Ĺ
Ġg overnment
Ġestabl ished
à¤² à¤°
il ter
Ġà¤ķ à¤Ń
ĠA fter
s ide
iv ision
Ġ201 8
Ġ20 20
ĠĠĠĠĠĠĠĠĠĠĠĠĠĠĠĠ ĠĠĠĠĠĠĠĠĠĠĠĠĠĠĠĠ
Ġloc ated
ĠB ar
ĠJ apan
ver t
Ġà¤¸ à¤µ
ĠH is
Ġn ow
N ot
us er
N ew
Ġserv ice
v ar
à¤ł à¤ķ
Ġt erm
Ġ201 5
s k
ĠS w
Ġb and
Ġ201 7
av ing
Ġà¤¸à¤® à¤¸
à¥ĩ -
od es
Ġà¤¶ à¤¹à¤°
Ġc ould
ĠP art
pl ace
et t
al ity
Ġ201 3
Ġe ver
em s
ĠCol lege
ĠH ar
ond on
ast er
Ġl aw
Ġde b
Ġà¤ĩà¤¨ à¤ķ
r ation
à¤Ĺ à¤µ
i od
val id
if y
in o
Ġà¤¸ à¤ļ
ĠEng lish
Ġ== =
Ġm ajor
Ġà¤ķà¤¹ à¤¨
à¤ł à¤¨
Ġà¤¸à¤¦ à¤¸
19 6
Ġà¤² à¤ķ
] )
um b
Ġ200 9
id er
Ġin c
ĠC omp
Ġran ge
B y
Ġst ation
Ġsm all
ly mp
à¤ľ à¤¹
ra ft
w h
Ġap pro
Ġto p
ra w
Ġ2 2
à¤· à¤¯
our t
ar ge
ĠCh rist
ĠA nd
Ġm at
d om
a pt
Ġà¤ª à¤¢
Ġhe l
Ġ1 00
Ġà¤® à¤§
à¤µ à¤ª
Cl ass
Ġà¤Ĩ à¤¶
Ġc or
ard s
N one
] ,
ad em
al t
ĠGe or
ok en
Ġà¤® à¤°
in ing
Ġh ome
ĠCh ampionship
col or
S h
Ġre st
in ter
à¤Ĩ à¤°
à¥Ģà¤Ĥ ,
Ġà¤ ¢
f ord
Ġà¤īà¤¸ à¤¨
à¤ľ à¤¯
a im
Ġh ouse
ur g
Ġle g
S c
ĠM c
Ġra ise
ĠM ed
Ġà¤ª à¤¶
Ġà¤° à¤¨
il le
Ġle ft
Ġal low
Ġto ok
ill ion
m l
ĠA ir
= =
Ġ200 6
à¤°à¤¦ à¤°
Ġrece ived
Ġw orld
Ġà¤ļ à¤°
Ġ200 7
et urn
Ġ19 0
vi ous
ĠH igh
ĠA b
Ġn ational
Ġà¤¨ à¤µ
Ġpro cess
Ġà¤Ĩ à¤ı
a ugh
m in
Ġl en
Ġpop ulation
Ġb orn
Ġcomp any
i et
ĠAf ric
Ġd own
Ġg ames
Ġà¤¬ à¤¸
() );
1 1
at ely
Ġserv ed
op e
Ġà¤¸ à¤²
ĠE ast
err or
o x
Ġà¤« à¤°
amp le
Ġrep resent
ide o
Ġ2 3
P l
s ite
ing ton
Ġp resent
ord ing
Ġpubl ished
Ġre quest
ĠI f
Ġv ersion
Ġinclud e
Ġbec ause
Ġà¤µ à¤¸
he s
our ces
Ġs l
à¤ı à¤ķ
Ġp aram
Ġ );
as es
Ġa round
ĠL ondon
Ġ2 1
re st
Ġm ethod
ed er
Ġbu ilt
Ġim port
Ġpro fess
Ġp ost
Ġc ap
in ation
Ġt em
à¤® à¤¦
Ġà¤ī à¤ļ
a ul
oc ial
Ġw eb
ric k
l ength
Ġcent ury
d ay
Ġn on
Ġd el
ĠH er
Ġà¤ľà¤¨ à¤¤
Ġre qu
Ġà¥ ¨
ro ll
is c
à¤² à¤µ
app end
Ġa v
Ġd ue
Ġte levision
Ġe lection
Ġm atch
ilit ary
R E
Ġs ix
re w
Ġà¤®à¤¦ à¤¦
ĠF rench
Ġwith in
ĠDist rict
à¤¯ à¤¸
ar a
Ġ5 0
s ub
is on
al k
id es
Ġg eneral
Ġ20 21
.. .
Ġst yle
Ġ \
anc es
Ġed uc
t ra
Ġà¤¨ à¤ľà¤°
ĠC up
2 5
tt p
ab el
al y
o ks
ind ex
Ġin it
] ;
um mer
Ġp o
ak es
) );
ep end
g round
à¤¸ à¤¸
Ġsh ort
Ġe p
Ġà¤ľà¤Ĺ à¤¹
ounc il
L iving
rib ute
3 0
ail ed
op h
ĠInd ia
ee k
se arch
al d
Ġh istory
Ġn ext
Ġp ort
Ġm ark
Ġj ust
ol ic
n a
ĠN o
om b
ĠR uss
Ġà¤°à¤ĸ à¤¨
Ġa ge
ĠR ec
Ġd ay
D e
Ġne ed
Ġl a
Ġre port
. ,
6 4
Ġspec ies
arri ed
opt ions
à¤¦ à¤®
us ed
re et
t ext
Ġà¤¶ à¤ķ
à¤ Ĭ
ĠWill iam
Ġor der
Ġà¤¤ à¤¹à¤¤
à¤¯ à¤¹
ĠH ouse
à¤Ł à¤®
ĠH owever
art ment
on es
ent ly
ir on
sh ip
Ġà¤° à¤ķ
Ġà¤ª à¤ķ
er ing
Ġal ign
Ġà¤¶ à¤¬
c le
O r
i ef
Ã ³
re quest
Ġc ar
Ġà¤ľà¤¬ à¤ķ
ĠE l
Ġs k
Ġchild ren
Ġs aid
Ġ18 9
pr int
ition al
à¥Ģà¤Ĥ à¥¤
à¤Ĺ à¤¨
Ġcomp let
Ġà¤¬à¤¦ à¤²
oy al
à¤° à¤«
Ġ2 8
à¤Ń à¤Ĺ
ĠP ark
Ġà¤Ĩ à¤®
à¤ķ à¤Ł
Ġplay er
ĠC or
Ġc amp
à¤ī à¤¨
ĠCh ar
Ġ2 6
ĠS up
iv ely
l ob
o th
ĠN or
oc ument
ĠAr t
Ġset t
Ġle vel
t ected
n ess
{ }
à¤ľ à¤¸
Ġà¤¨ à¤Ĺà¤°
form ation
ict ion
Ġpro ject
Ġ z
Ġn orth
row n
Ġst and
s erv
P eople
Ġà¤¤ à¤¤
Ġ2 7
Ġ200 5
con om
Ġar ch
a ction
Ġl ate
2 4
Ġsh ould
ou n
Ġà¤²à¤Ĺ à¤¤
H istory
Ġe qu
ur ther
Ġv is
re c
ra p
Ġcon fig
Ġà¤ªà¤° à¤®
g ed
Ġà¤µ à¤ľà¤¹
ĠInd ian
Ġinclud ed
à¤° à¤ľ
Ġf ive
en se
Ġvill age
it ch
Ġd ied
Ġl ike
ĠA ng
Ġdiffer ent
d ir
r im
Ġis s
Ġ' '
ĠB ro
ur ation
ain ing
l in
Ġl arge
Ġg ener
Ġad v
Ġà¤ĩ à¤¤
Ġm en
in fo
et work
u f
Ġà¤ľ à¤µ
th ough
à¤¬ à¤¹
Ġh ost
pl oy
Ġà¤¸ à¤¨
Ġbuild ing
Ġp at
A s
Ġm ust
à¤¥ à¤¨
Ġth ird
ĠC he
ri end
ĠM e
rid ge
Ġinst ance
Ġdescrib ed
Ġto t
Ġd em
O R
um an
à¤¹ à¤²
Ġà¤ļ à¤²à¤¤
if orn
pl ay
Ġ20 00
à¤ĩ à¤ķ
ad io
Ġper iod
ĠL a
Re quest
he ad
_ _
ac hed
Ġcomm and
ĠR iver
Ġres ponse
Ġus ing
inn ing
Ġf ind
' .
Ġim p
ĠIn ternational
Ġbo ok
s ize
19 4
c ast
Ġà¤¤à¤° à¤«
S et
Ġad m
Ġc rit
ne ction
Ġl arg
iforn ia
Ġin cre
th ers
Ã Ń
Ġà¤° à¤µ
ĠPh il
Ġf ac
j o
Ã ¼
Ġst ruct
S E
à¤° à¤ª
per t
Ġà¤Ĩ à¤ķ
ĠEng land
à¤® à¤ļ
Ġs outh
um ber
Ġt ri
ĠO lymp
use um
ript ion
Ġà¤²à¤Ĺ à¤Ńà¤Ĺ
ific ation
ĠA g
à¤¥ à¤®
à¥ ¨
our s
Ġappe ar
al f
ĠS an
m b
ol ution
Ġs on
c ed
F or
att le
Ġa uthor
r ont
" );
ĠD av
y l
à¤· à¤¤
Ġst ill
Ġs w
Ġw ar
Ġà¤¦ à¤²
op s
Ġà¤ī à¤²
Ġb usiness
à¤¬ à¤¸
Ġth ose
ate g
du ct
Ġtit le
ĠY ou
os ed
Ġà¤µ à¤ķ
ra g
O bject
Ġdist rict
Ġan other
Ġpre vious
à¤Ĩ à¤¤
Ġbe st
l oc
land s
Ġdo es
m et
ĠA p
L E
Ġà¤¨ à¤°
Ġb ase
h a
à¤Ĺ à¤®
art s
Ġch ang
Ġw ater
Ġp ower
Ġà¤¨ à¤ı
Ġcre ate
Ġ18 8
en ame
Ġà¤§ à¤¨
N ode
a it
ĠE n
p oint
c ount
Ġpos s
Ġdeath s
ru ction
Ġà¤¸à¤® à¤°
um ents
Ġcharact er
ĠCal ifornia
à¤¨ à¤¦
er b
Ġk ill
M an
T ime
ff ic
à¤ı à¤²
M E
Ġm ult
Ġà¤ı à¤®
] .
ic a
Ġbe g
Ġf e
Ġcre ated
av y
Ġtot al
Ġf lo
ot s
v es
ip p
P aram
Ġact iv
Ġà¤µ à¤¨
i us
Ġ200 4
pl it
ĠAustral ia
ec ut
ĠS ch
n ode
Ġà¤Ń à¤Ĺà¤µ
oci ety
h old
à¤¥ à¤µ
Ġà¤¤ à¤¸
ic o
Ġm ag
à¤¼ à¥ĭà¤Ĥ
ann el
ac ks
ĠRep ublic
Ġex cept
urn al
o on
19 5
ĠĠĠĠ ĠĠ
Ġ enc
Ġmov ed
à¤¶ à¤¤
l s
ĠD ep
Ġm ale
ĠV al
Ġv ery
Ġe lect
ĠA c
ĠW e
ĠA ward
Ġ2 9
M ap
m t
i ber
ĠPart y
ounc ed
à¤· à¤¦
Ġ id
op y
Ġever y
Ġcount ry
Ġf act
Ġà¤¸ à¤ª
ĠJ o
g es
C A
g color
ag ed
t es
um e
à¤¸ à¤¤
ĠP er
at ors
à¤£ à¤¨
Ġv ol
ĠTh ere
à¤ļ à¤²
ĠM ich
M od
a ff
Ġro und
Ġà¤ħ à¤«
à¤° à¤²
am a
F ield
Ġ4 0
Ġro le
Ġl ed
Ġp e
Ġà¤ħ à¤¦
Ġw est
in stance
ĠB r
Ġreturn ed
" :
Ġn ov
ug g
l ess
Ġmod el
Ġs ide
ĠA ct
Ġex pl
er a
if t
T ra
Ġex ist
S S
om et
Ġh istor
Ġt ext
Ġus er
end ing
iv il
In fo
Ġ{ }
b e
om in
Ġs er
qu ery
or ies
à¤µ à¤¯
Ġe lement
Ġpro t
Ġv oid
ĠQ ue
v iron
ĠAr my
ial s
à¥ĭ à¥¤
Ġdef ault
ail able
ul es
Ġw orks
ĠM inist
Ġà¤ĸ à¤¡
V al
Ġs pe
c y
os p
Ġ ident
Ġev en
Q u
Ad d
Ġbre ak
r ue
ĠB y
Ġb gcolor
t a
Ġa ff
Ġin ternational
al ign
u el
param s
à¤ĩ à¤¡
l en
Ġf ather
al a
y a
Ġs ite
D ef
ord er
Ġc ult
Ġtr ad
Ġpos ition
O pt
Ġe ast
nd er
Ġà¤¨ à¤¯
Ġf em
Ġwh at
Ġs old
A tt
ĠP ort
Ġsh ip
e ad
Ġeng ine
ĠT ra
U R
Ġt est
Ġte chn
ĠR eturn
Cont ext
ress ion
Ġg en
ib r
m ap
n ing
Ġcomm on
E n
"" "
Ġm iss
Ġà¤īà¤ª à¤²à¤¬
re l
fer ence
à¤¬ à¤Ī
Ġof ten
w args
Th is
um p
ĠS m
Ġweb site
Ġf re
A ll
st ate
Ġestabl ish
at ri
Ġth ough
Ġwrit ten
à¤¸ à¤ª
un k
ĠA meric
Ġam ong
` `
Ġm uch
à¤° à¤¬
pro tected
Ġà¤Ĺ à¤¤
ĠM on
pr ivate
ob ject
im ent
a ut
i que
ab or
it ar
B C
Ġstart ed
it es
à¤¯ à¤ķà¤¤
ĠR oman
G et
iv id
pl ate
Ġc over
c all
ĠCh urch
Ġa ut
Ġà¤¨ à¤Ī
âĢ Ķ
Ġdeb ut
n ect
ĠFran ce
Ġde st
if f
ĠR oyal
ens ion
y d
ĠQ u
à¤° à¤ĸ
un icip
Ġa ward
an ish
à¤® à¤¸
Ġl im
Ġg rad
Ġà¤Ĭ à¤ªà¤°
Ġfore ach
eb ug
Ġcon f
Ġt urn
Ġpro duced
3 2
Ġf ull
à¤µà¤° à¤£
Ġà¤¹à¤® à¤²
n ow
Ġeff ect
Ġex per
A t
Ar g
ag s
c omm
Ġinv ol
p ace
à¤² à¤Ĺ
à¤² à¤ķà¤°
Ġann ounced
A L
ĠB er
Ã ¶
def ault
Ġ` `
Ġà¤ĸ à¤¬à¤°
Ġpolit ic
res ponse
ev el
Ġcon c
a el
ĠC ouncil
à¤² à¤¸
Ġt yp
m ar
ĠH ol
Ġs ent
n ot
Ġv iew
B uild
Ġst at
à¤¼ à¥ĭ
w ord
2 7
à¤® à¤µ
ell ow
se qu
pon s
Ġm ax
ĠCanad a
à¤µ à¤ľ
2 8
ĠO ne
Ġev ents
f inal
à¤¹ à¤¤à¤°
Ġà¤¸ à¤¡
Ġcommun ity
Ġc ame
Ġre search
w ith
Ġp ri
ic le
à¥ ©
n ey
E nt
Ġ18 7
Ġ ->
ĠAmeric a
6 0
Ġche ck
Ġm illion
Ġep is
at ter
Ġ200 1
C omm
A C
uff er
idd le
Ġt w
F rom
Ġyou ng
an ia
Ġr ight
g o
Ġ200 3
Ġp arent
Ġspec ial
ĠB ra
h and
c ase
Ġpr im
Ġc r
id s
ou thern
ĠD ivision
A p
Ġ( )
ĠC om
Ġà¤¦ à¤ķ
à¤ª à¤ı
al ian
ree k
w est
pos ed
Ġt ake
Ġse e
Ġserv ices
Ġ200 2
Ġw ent
Ind ex
Ġv ideo
Ġp res
ĠB el
Ġdevelop ment
g roup
Ġà¤¹ à¤¤
og n
> >
d ict
Ġà¤ı à¤¨
Ġind ex
an i
à¥Ī ?
ĠR ev
ust om
il ename
à¤¸ à¤µ
i ers
à¥ ¬
Ġ+ =
c omp
---- ----
Ġm er
à¤Ĺ à¤¢
Ġpolit ical
A fter
In ter
ou ble
2 9
à¤°à¤® à¤£
Ġpr int
Ġs ize
Ġà¤ķ à¤¬
2 6
Ġn ode
Ġwith out
à¤Ĺ à¤łà¤¨
Ġà¤ķ à¤µ
Ġb as
ĠM or
Ġm arried
Ġt imes
ag o
Ġ3 1
ain er
Ġcont ext
st on
ĠA nt
fl u
W ith
Ġvari ous
stit ute
b or
ro te
it ect
Ġreg ion
Ġb ody
Ġapp oint
ĠP resident
il ar
à¤§ à¤µ
Ġbec ome
à¥ §
Ġw ay
ĠG eneral
à¥Ģ )
ĠEurope an
it ive
olog ical
à¤ı à¤¨
wo od
à¤Ń à¤°
à¤¹ à¤¸
i j
ĠD r
ĠSt reet
ĠAss ociation
pert ies
Ġcl aim
Ġc le
à¤¦ à¤¯
m en
Ġh aving
Ġin s
it te
à¥Į à¤Ĥ
v ille
umn i
D E
i ol
ran t
Ġra il
ĠR ed
f rom
c ks
ĠS en
Ġà¤ķ à¤¨
itt le
Ġà¤ ĭ
l im
ak en
4 0
y ear
e h
ir c
Ġbe h
ĠT o
à¤µ à¤µ
om as
ac y
Ar ray
ivid ual
N A
ĠE m
A cc
cre ate
Ġt arget
Ġ20 22
Ġs ol
ĠGerman y
à¥ ª
Ġjo ined
Ġm ilitary
it em
e al
viron ment
un t
Ġà¥¤ à¥¤
ur b
Ġwork ed
Ġà¤¹ à¤Ł
way s
Ġprodu ction
n own
m essage
h ib
Ġint ro
ĠUn ion
Ġn ames
ĠM ount
Ġf ew
h i
-> _
à¤¨à¤¸ à¤Ń
Ġà¤¹ à¤µ
Ġpro duc
Ġà¤ª à¤¸
à¥ «
oc r
m d
ĠP al
st art
read y
ĠJ ames
Ġatt empt
y m
e an
ĠC ont
k en
ask et
ĠK h
ĠTr ue
Ġà¤ħ à¤ľ
ĠD em
ober t
ĠM al
Ġan t
Ġprofess ional
it u
ĠGeor ge
c ode
p re
P h
li ent
ĠL ou
I T
Ġcom b
ĠF l
M essage
abl ed
Ġs qu
à¤µ à¤¹
à¤¶à¤¨ à¤²
Res ult
à¤¬ à¤¤
Ġw in
I m
ind ow
Ġm y
Ġde v
m ing
Ġà¤¨ à¤¦
Ġà¤Ń à¤µ
ent ion
à¤¥ à¤²
Ġc atch
Ġpoint s
ĠAr g
Ġà¤ħ à¤ªà¤°
ĠAustral ian
Ġresult s
Ġre al
Ġcont rol
19 3
à¤ª à¤·
id th
T rans
ra b
Ġà¤°à¤ĸ à¤¤
Ġst ory
R ec
Ġà¤ħ à¤¶
Ġcon d
Ġ199 0
m at
w are
ol l
ith er
ud e
+ +
ut es
Ġpop ular
a ur
a ign
Ġ ke
Ġca pt
end er
r s
ĠH all
Ġà¤Ĩ à¤²
v ersion
pl es
L og
Ġopen ed
ĠA cc
Ġà¤° à¤¸
Ġe ar
pect ed
ash ington
Ġch urch
ĠP aul
ob j
Ġav ailable
Ġval ues
p en
g ress
it z
ĠW hen
li ament
k a
C omp
ab les
Ġà¤® à¤¸
Ġw rote
ĠSt ud
Ġval id
St ate
ap er
Ġgroup s
ĠM iss
ĠR ich
ĠCh ina
ic y
ic ular
Ġstud ents
* *
Ġcons id
ĠP e
ĠV ir
Ġhel p
Ġà¤¬ à¤¯
u x
Ġin formation
and er
Ġf riend
ell s
ĠS ec
t rans
id a
s w
mod el
ef ore
Ġout put
d is
Ġopt ions
Ġin f
ri an
g in
W h
Ġsong s
à¤ĺ à¤°
Ġd ays
= #
Ġp resident
ĠD es
Ġeduc ation
ĠComp any
ur ity
k ed
W rit
Ġà¤ı à¤¡
G e
ear ch
Ġteam s
Ġl ive
A N
m ethod
Ġpart icip
E ng
in i
op er
ĠS ing
ole an
Ġo s
ĠAc adem
[ "
ribut es
Ġs ocial
ĠD uring
Ġh owever
Ġinv est
Ġl o
Ġinter est
ev ent
ag ement
m ax
itt ed
Ġcomplet ed
ĠPro v
an ies
Ġp ract
Ġro ad
Ġalbum s
à¥ §à¥
lob al
() ->
H and
Ġh alf
ĠM ag
Ġv oc
âĢ Ŀ
Ġ et
ur i
Ġm id
Ġà¤®à¤ľ à¤¬
ill s
Ġm essage
w w
à¤¹ à¤¦
ĠĠĠĠĠĠĠĠĠĠĠĠĠĠĠĠ ĠĠĠĠĠĠĠĠĠĠĠ
C om
Ġadm inist
Ġdirect or
ĠI m
ri p
is ing
ĠR oad
ct or
Ġ18 6
he l
à ª
es h
M et
ĠThe se
ay er
augh ter
pt y
o ice
à¤® à¤£
ĠCl ub
Ġre pl
Ġà¤¦ à¤¸
Ġind ust
ĠM ary
ad ata
à¤¨ à¤Ī
id ence
à¤° à¤ªà¤¤
ĠT own
in ary
is l
ĠC ourt
itte e
Ġatt ack
Ġp aint
Ġde g
ĠM y
Ġ Ã
Ġex ample
Ġl anguage
Ġbro ad
ĠM ex
cont ent
ran ch
P r
Ġh old
c raft
Ġs ource
Ġà¤Ĩ à¤ĸ
à¤ª à¤£
à¤ª à¤²
Ġe conom
: //
Ġfootball ers
' ;
Ġ199 9
i ra
ibr ary
ra in
ines e
Ġd i
Ġtra ck
Ġro w
Ġl ost
al i
I nt
ic les
ot ed
ro y
Ġa ver
Ġd iv
Ġà¤ħ à¤Ĺà¤²
ĠCent er
Res ponse
L oc
r d
at ural
C lient
A ss
Ġrel ations
n o
Ġa ction
Ġm ap
S ervice
writ e
Ġpart y
Ġ198 0
à¤¼ à¥į
u it
ot a
Ġl ength
ĠG roup
ĠM usic
Ġconsid ered
Ġà¥ §
Ġsim ilar
e le
r un
Ġà¤ķà¤° à¤µ
à¥ģ à¤ģ
k y
Ġcontin ued
Ġrele ase
ab ility
m on
ut ure
A P
Ġm ar
I I
r l
c is
ĠW ith
c urrent
Ġar r
ct x
ĠKing dom
s l
ĠG ames
plic ation
à¤¾ '
ĠF irst
Ġre d
ce ed
à¤ª à¤®
Ġà¤ı à¤ľ
Ġre v
Ġcol lection
Ġc ert
l ast
ip le
à¤¦ à¤ķ
ĠH en
ĠL aw
if ier
ĠS ociety
ul a
il i
it ory
Ġacc ess
d b
ĠP ri
Ġfound ed
il s
Ġà¤īà¤¸ à¤¸
ĠM art
Ġare as
ĠBl ack
asket ball
F A
ail s
ign ed
ĠDav id
ĠH istor
Ġind ividual
Ġsign ed
cont ext
F orm
and id
ens us
ab ly
ĠCanad ian
ĠIs land
jo in
ĠW ashington
ĠIn stitute
n ames
ish ing
c hed
Ġà¤ª à¤ķà¤¡
Ġe lected
h ost
Ġ. ..
Ġde cl
= '
ak er
ar ian
ĠN e
Ġh on
ĠL ist
g ing
Ġal ready
Ġf urther
à¤ļ à¤ķ
ĠOlymp ics
F ilm
Ġl ess
Ġrecord ed
ĠT rans
Ġà¤ı à¤²
Ġà¤ħà¤µ à¤¸à¤°
est ival
Ġl ow
ĠRec ords
Ġdirect ed
G roup
t able
Ġsur v
Ġw ife
on a
E N
Ġto get
ent ial
Ġtoget her
Ġcomp os
ĠAr ch
à¤ľ à¤ķ
E lement
Ġwork ing
ĠS ummer
re ate
le ft
Ġà¤ķ à¤Ł
b urg
à¤¦ à¤Ĺ
ul ated
à¤ª à¤¦
Ġc ast
ers hip
Ġg ood
ar ter
ol it
Ġs ports
n el
r ame
end s
air s
ict or
Ġst atus
ĠS am
à¤® à¤Ĺ
Ġcontin ue
ar l
Ġà¤¤ à¤²
Ġt able
ĠReturn s
Ġ199 8
ar ies
8 0
Ġco ach
Ġre view
ĠR ail
Ġin flu
r ish
ĠM et
Ġpart icular
t em
ĠC ath
à¤§ à¤¤
cent er
Ġà¤īà¤¸ à¤®
Ġse par
Ġ* *
Ġal umni
à¤ľ à¤Ĺ
cl ient
ĠG l
er o
ber g
as c
Ġt en
Ġw eek
à¤¹ à¤ķ
u z
Ġcl ose
ber t
Ġnov el
h as
Ġd at
Ġ6 0
epend ent
j son
orm al
à¤ĸ à¤°
Ġcol l
Ġà¥ ©
ĠT V
Ġass oci
Ġprov ided
Ġappoint ed
d own
O ut
em ents
ĠM ont
à¤ı à¤«
ĠP ress
S C
Ġimport ant
Ġà¤ħ à¤¥à¤µ
d ebug
urn ament
Ġoffic ial
ĠAfric an
Ġdevelop ed
Ġle ague
Ġra ce
ĠM useum
Ġà¤¸à¤¹ à¤¯
th let
Ġse c
ĠDep artment
Ġreport ed
r ated
E vent
Ġadd ition
ist ic
at al
az ine
t ml
à¤° à¤ļ
ĠAcadem y
r ig
Ġbl ock
val ues
o ch
Ġgu itar
Ġh ow
Ġà¤® à¤²
Ġarg s
Ġan im
all s
Ġappe ared
Ġk m
M ar
Ġin put
Ġà¤ªà¤° à¤¨
Ġh uman
our se
Ġsuccess ful
Ġà¤Ĩ à¤ķà¤°
Ġc ode
Ġb i
Ġf und
Ġcol umn
ĠCl ass
ĠS l
Ġ u
ĠAng el
n ull
ĠJapan ese
Ġp ut
b uild
Ġel if
m ost
um m
Ġbir th
Ġd ocument
Ġm aking
ĠCent ral
Ġ18 5
Ġj ob
Ġm ot
b and
Ġph ot
ĠT ur
one y
Ġme et
at ives
Ġform ed
ĠâĢ ľ
g en
Ġ'' '
Ġnew s
Ġph ys
à¤Ĥ à¥¤
Ġg row
ex as
ix ed
ĠV ol
osp ital
Ġà¤¸ à¤ľ
oun ter
Ġcont ract
à¤ĩ à¤¯
Ġof fer
à¤² à¤®
ĠZ eal
R eg
Ġstud y
, "
Ġoff ice
il ities
p arent
p ly
T e
Ġh ous
eder al
O f
ĠC ong
U ser
Ġ197 0
à¤¯à¤° à¤²
du ction
Ġte ach
I C
Ġ> >>
ĠS im
Ġg round
Ġform at
is es
i res
Ġor d
le vel
Ġc ur
S p
L e
Ġf ire
ĠG et
Ġn ever
ĠZeal and
Ġà¤ª à¤Ł
Ġd er
ĠJ ew
Ġgrad u
Ġà¤¤ à¤®
Ġm ater
Ġ199 6
Ġo thers
ĠG rand
k nown
Ġà¤¹ à¤²
Ġro ck
A nd
Ġv ict
Ġ!= =
im ately
ĠD on
Ġm em
ĠF ootball
Ġem ploy
Ġrec ogn
à¥ī .
Ġst ar
ed y
out put
ĠAfric a
ĠF alse
Ġà¤ķ à¤¥
à¤§ à¤ķ
pon d
à¤ Ļ
ĠIt alian
ĠNew s
St atus
Ġschool s
en ed
Ġd ate
à¥ Ń
ad a
im ate
ĠComm un
ri a
Ġarch itect
ap i
th ing
Ġ Ð
ĠĠĠĠĠĠĠĠĠĠĠĠĠĠĠĠ ĠĠĠĠĠĠĠĠ
Ġg reat
Ġà¤ªà¤¹ à¤ļ
ens ive
an o
Ġà¤¶ à¤¨
I s
ĠM ad
ĠF ilm
() :
st ruct
Ġmed al
Ġs uff
k wargs
Ġ( "
ref ix
Ġc ross
Ġà¤īà¤ª à¤¸
ĠMinist er
Ġn p
Ġaver age
Ġf ree
S ub
che ck
pon ent
ĠS al
r ade
arn ing
ĠB ay
Ġac ross
Ġsign ific
à¤Ĺ à¤¡
Ġm other
ĠWest ern
C ount
duc ation
à¤¹ à¤°à¤£
à¤¥ à¤ķ
en a
ĠD ef
Ġbl ack
ĠB est
Ġb ool
Ġhim self
Ġc al
ĠM ac
9 9
ann ot
o res
t oken
I ON
à¤® à¤¹
s g
re land
f ilter
b ase
at ory
or age
Ġ199 7
n et
Ġbec om
Ã ¤
ĠLou is
Ġpro perty
à¤ĸ à¤ķà¤°
se c
ĠVir gin
Ġà¤¦ à¤¬
Ġass ist
key s
J ohn
ĠSc ott
id ing
ĠG old
us ical
Ġp ay
ĠD el
Ġmod ern
ĠL eg
ĠY ear
I P
Ġch ange
l v
Ġex ecut
st atus
Ġst ations
Ġfeat ures
us es
c er
st and
id ae
à¥ ®
m ark
ĠM od
T E
S er
Ġadd ed
st ra
Ġcamp aign
C ode
Ġcont ent
ĠH ind
Ġcomp anies
empt y
o z
à¤Ľ à¤¤
Ġw ant
ĠTh omas
Ġw he
ou l
à¤¡ à¤¨
sh ire
Ġl iter
Ġprodu ct
Ġà¤¨ à¤ķ
Ġr adio
h ttp
um er
r c
Ġm unicip
Ġqu al
à¤ľ à¤®
St ream
Ġd aughter
he ast
ĠIn ter
U p
Ġsp ace
av es
E m
ĠA lex
d ec
Ġrequ ired
Ġbuild ings
Ġt ro
in put
ĠT exas
c ial
Ġst age
ĠRuss ian
Ġon ce
y cl
Ġf oc
T rue
Ġe ither
Ġà¤¦ à¤µ
" ;
ĠR obert
Ġà¤ħ à¤¹à¤®
Ġc ost
emb ly
R O
at re
p ite
re place
ĠU K
Ġà¤ħ à¤ĸ
Ġf ront
à¤ľ à¤µ
Ġ ide
ch an
Ġmiss ing
am s
Ġplay ing
ap s
Ġe ight
ĠD ay
Ġa way
ĠM ark
Ġepis ode
ut ch
ĠChrist ian
re y
Ġperform ed
Ġbel ie
à¤¾ à¤ĥ
i i
ĠCh inese
Ġstr ong
ĠCar ol
rib ution
ab ase
" ]
ist ics
Ġ3 5
Ġl ight
bo ard
'] ,
ĠG reat
Ġwrit er
col umn
U S
ic an
S ize
Ġ199 2
ef f
ĠG o
à¤¦ à¤²
Ġpro ble
Ġ url
7 0
Ġinclud es
9 0
inn er
enc ed
à¤¦ à¤¸
Ġacc ount
Ġtrans l
à¤¨ à¤ķà¤°
Ġd ict
ud d
cre t
ĠF rom
h ood
ĠChar les
Ġfin ished
Ġ199 5
Ġt aken
Ġà¤ļ à¤°à¤£
ĠK ore
ol f
ov iet
L O
[ :
à¤¦ à¤¬
k m
Ġpl an
Ġis instance
ĠD o
ch ie
Ġl iving
Ġn or
à¤° à¤¥à¤®
P A
ars er
ĠH am
por ary
D esc
i ents
im um
att r
Ġac qu
er ry
Ġf low
ĠP at
k i
p y
Ġmon ths
Ġperform ance
Ġac cept
overn or
d a
Ġkn ow
à¤ĩ à¤µ
ĠN ot
F C
ĠDem ocr
à¤° à¤Ĺ
Ġpr ivate
Ġal though
. """
à¤£ à¤¯
3 5
p art
m atch
Ġà¤« à¤²
Ġv iol
iss et
== ==
à¤® à¤¯
it ing
S y
ell ing
à¤ĩ à¤ľ
Ġl oad
à¤« à¤°
z il
ist an
Ġfem ale
ad o
Ġim age
Ġ196 0
ra el
Ġthrow s
b re
ĠCath olic
Ġle ast
Ġd on
ro ad
Ġ199 4
med i
19 0
Ġst op
Ġà¤Ĩà¤¦ à¤®
Ġd ram
ch ild
Ġmed ia
Ġpl aces
e ction
Ġhe alth
Ġconst ruction
Ġreg ular
l a
ugg est
pos ition
T able
ur a
. )
ĠP enn
Ġt re
ateg ory
Ġ ]
up date
ough t
Ġà¤Ĺ à¤²à¤¤
n s
ĠU p
Ġjo urnal
Ġm ount
à¤µ à¤Ł
ĠWh ite
ack age
à¤µ à¤ļ
à¤µ à¤¶
Ġà¤¬à¤¨ à¤¨
N o
ou d
Ġg ave
q l
E T
Ġn etwork
Ġb ar
Ġf ight
i qu
Ġà¤ķ à¤ł
à¤ķ à¤ª
ress ed
l anguage
Ġin j
Ġdef e
à¥ĩà¤Ĥ .
o ke
Ġto ur
Ġent ry
A S
or g
Ġfollow ed
C T
Qu ery
x y
Ġà¤ļ à¤ķ
3 3
c ache
r ate
ĠG reen
Build er
Ġim pro
Ġse en
à¤µ à¤§
ĠPar is
Ġà¤® à¤Ī
az z
li ke
ig an
av al
Man ager
Ġbo oks
à¤Ł à¤«
Ġf ig
Ġshow s
Ġrel ig
om a
erv e
4 5
Ġc andid
4 9
Ġinst ead
ex ists
Ġkill ed
id ents
Ġind ic
in ition
ĠFran cis
Ġà¤¤ à¤¨
à¤¨ à¤ª
Ġgo al
ĠFor ce
print f
it a
Ġà¤ī à¤¡
Ġpart s
ic ago
; "
Ġà¤¹ à¤¸
à¤ķ à¤µ
sy ch
Ġst ates
Ġcurrent ly
ish op
Ġcon duct
ĠT or
Ġle t
Ġs il
Ġpolitic ian
ĠSm ith
Ġag re
Ġ199 3
Ġmark et
D O
ĠL at
Ġestablish ments
ĠD irect
P ar
à¤¯à¤° à¤¸
s ort
Ġp age
Ġà¤Ĺ à¤£
à¤¤ à¤¤
ĠS ervice
Ġerr ors
el t
E d
e qu
Ġtra ining
E nd
Ġà¤¸à¤¬ à¤ķ
Ġ199 1
ĠI nt
Ġab ove
( (
Ġbro ther
n y
il ies
ĠI reland
Ġlead ing
Ġa ud
Ġà¤ĸ à¤¤
oc key
Ġà¤¤ à¤¯
Ġl ook
Ġà¤ħà¤µ à¤§
ĠP an
ant a
am ples
Ġà¤® à¤¶
Ġdesign ed
at form
u an
Ġà¤Ń à¤ķ
Ex p
Ġse ction
t arget
à¤ħ à¤¸à¤²
om s
Eng lish
Ġcent er
se e
Ġart ists
Ġlarg est
F I
s ource
ĠV ictor
Ġsub ject
Ġit em
Ġs em
Ġoriginal ly
ro s
ĠM er
à¤¯ à¤ķà¤°
ĠB ill
à¤¾ )
à¤¨ à¤Ł
Ġs ound
Ġme an
Ä ģ
M ethod
C O
Ġent ire
| |
E arly
p age
ĠF lor
pe ople
Ġcons ist
Ġrem ov
ol a
Opt ions
B A
Ġposs ible
act ory
Ġab le
ec k
ch ange
à¤Ĺà¤² à¤µ
Ġd am
ell a
à¤· à¤®
ĠChampionship s
Ġc ourt
o e
con s
Ġcon vert
F alse
Ġà¤° à¤ļà¤¨
Ġà¤ľà¤¨ à¤µà¤°
Ġ ill
S pec
Ġà¤ĩ à¤ļ
à¤² à¤¹
Ġà¤¶ à¤¤
à¤¯à¤µ à¤¹
C he
C an
Ġfor ce
ĠHen ry
Ġaward ed
ĠF ore
M L
Ġà¤ĸ à¤¤à¤°
201 0
Ġact ive
Ġsing er
and s
Ġqu ery
Ġv ia
Ġrem ained
am ily
r as
Not es
t it
Ġfeat ured
Ġinstance of
Ġà¤ĩ à¤®
Ġinst it
Ġair craft
ĠMich ael
Ġun its
Ġse ven
ĠSp anish
Ġfor ces
Ġpol ice
Ġsignific ant
Ġs uggest
Ġocc ur
Ġres pons
ache s
mp ire
Ġc ivil
ĠSup er
Ġg e
ĠS et
Ġp ress
T oken
Ġ_ ,
à¤ĩ à¤¸à¤ķ
Ġd om
à¤¤ à¤²
ĠS er
Ġr ights
ĠM ass
d at
Ġ es
ĠAd d
Ġwh ite
Ġpass ed
Ġà¤īà¤¨ à¤¸
t x
Ġrepl aced
ĠW il
Ġà¤° à¤ľ
à¤· à¤®à¤¤
Ġcharact ers
Ġà¤ĩ à¤ķ
à¤Ĺ à¤¦
Ġg l
Ġà¤ª à¤²
ĠJ ose
Ġj ud
t ag
Ġ20 23
Ġp ast
Ġlin es
ĠW omen
ic ation
as ing
Ġà¤ķ à¤¡
Ġres pect
ĠR ock
ĠB ut
Ġallow ed
à¤¾ ?
od ing
ug by
I S
Ġdif f
Ġear li
à¤ļ à¤¯
Ġthrough out
i ences
Ġf ailed
Ġcon v
U til
pro cess
ĠL os
Ã ¨
Ġv ers
ran ge
Ġs en
Ġdisc over
à¤ħ à¤ª
Ġd ouble
Ġme as
à¤¤ à¤ļ
'] )
ĠL ake
v ing
Ġloc ation
er ia
i os
Ġsup er
ed s
ĠReg ister
ol k
ĠComm ission
it ems
s plit
evel op
à¤ľ à¤¬
à¤µ à¤ľà¤¨
ig inal
Ġart ist
U rl
Ġsub sequ
ĠVirgin ia
Ġdet erm
O ver
Mod el
ĠH ill
à¤¥ à¤°
e in
._ _
Ġc red
Ġcl ient
à¤ļ à¤¤
Ġmat ches
inc ip
Ġp ur
m i
Ġevent ually
he st
roll er
U T
ug in
or por
F F
Cont ent
Ġc irc
cl us
Ġst ream
Ġlist ed
st ream
Ġ ut
ir t
d o
Ġbo ard
à¤ľ à¤§
Ġà¤¹à¤® à¤¨
Ġf mt
à¤¯ à¤¯à¤¨
ir l
ĠSw ed
Ġ4 5
ic ro
ult y
Ġpl ant
Ġà¤īà¤¨ à¤®
ĠOr der
Ġinvol ved
à¤¤ à¤ľ
ir m
ĠO ff
ĠFran k
Ġre n
ĠC amp
uf act
Ġcount ries
Ġbroad cast
Ġsc ored
s el
Ġà¤ĩà¤¨ à¤®
Ġl oss
ar th
Ġse qu
P E
ĠM el
ar r
Ġg old
or ing
eg er
A D
c a
ru pt
ĠSy stem
Ġl abel
Ġparam s
al ys
ĠB en
ri al
Ġcont ains
ĠN avy
u a
z a
un ch
ĠAr ts
Ġintro duced
Ġup date
ty p
ĠO bject
er ous
7 5
ĠO b
mb ol
Ġst e
ev e
Ġp ot
Ġcent ral
Ġà¤ĵ à¤µà¤°
Ġhouse hold
f ind
ĠD an
av a
Ġst ated
à¥Ģ '
p ass
e lement
ĠM in
( [
f iles
ex p
. '
v is
ĠH istory
ry pt
as y
ib ility
b ody
ĠSc ot
Ġà¤ī à¤°
Ġre ason
c ing
ĠC ast
by te
Ġcol lege
à¤ĩ à¤®
Ġdeg ree
Ġc anc
ĠMex ico
ĠCh icago
u j
Ġ198 8
Ġt reat
ĠPar liament
Ð ¾
Ġact ress
ĠM a
T V
D ir
ist ry
Ġj son
ĠĠĠĠĠĠĠĠ ĠĠĠĠĠ
Ġob j
M A
Ġà¤ķ à¤¦à¤®
s pec
k ing
ust er
ĠRich ard
b lock
ĠG overnment
Ġtrans fer
ar io
Ġchang ed
ĠI ll
ĠP eter
ur d
Ġ198 9
par se
res h
arn ed
ĠSe cond
o o
Å į
Ġbo olean
Ġwrit ers
Ġ Â
F L
al le
Ġt ax
Ġcrit ic
p ost
M P
ĠAt l
ĠL u
Ġd raw
Ġfour th
Ã³ n
Ġre ached
in it
out e
Ġcompet ition
Ġà¤ķà¤® à¤°
Ġwrit e
B l
Ġprov ide
b b
Ġ8 0
t ing
Ġup on
Ġn eg
4 8
Ġ esc
Ġfollow s
à¤°à¤¹ à¤£
Ġinit ial
ĠR ob
Ġun it
ĠJ ust
ĠGeor g
à¤ķ à¤®
Ġà¤Ĩ à¤ł
N ational
ĠProv ince
C all
ant ic
ĠO ut
ric s
ĠIt aly
i h
Ġà¤ħà¤Ĺ à¤¸
Ġ ens
ĠG ra
Ġmult iple
Ġapp end
Ġà¤¸à¤« à¤²à¤¤
Ġ3 6
ĠAngel es
Ġus ually
ĠComm ittee
Ġst ep
N ames
ian a
y e
V ersion
C areer
field s
Ġà¤Ľ à¤¹
T P
Ġconst ruct
ĠS qu
Ġprim ary
ur t
ad es
f ilename
Th ere
ĠCong ress
p ing
y th
eth er
ĠV alue
Ġb ound
Ġstruct ure
enc ies
Ġf ar
It em
ĠM us
à¤ĸ à¤²
Ġcom mer
Pro perty
Ġh om
Ġrel ated
Ġappro x
Ġ} );
Ġà¤Ń à¤²
b ased
à¤¿ -
Ġl ower
al ed
Ch ar
ms g
M ed
Ġf av
Ġread ing
' ))
ĠG od
l ines
ĠF estival
à¤¬ à¤¦
sy lv
Ġa chie
Ġcl os
ent ity
Ġà¤Ī à¤¶
Ġro ute
ub e
ĠS oviet
Ġcomp ut
Ġs ch
B ack
app ing
vers e
ĠHistor ic
A m
Ġm ass
Ġs itu
Ġb asketball
Hand ler
et ch
rough t
ĠW ales
ĠIs rael
200 0
Ġpl aced
ĠSc ience
Ġen vironment
Ġfeat ure
sylv ania
a ud
ect or
F l
Ġc ut
ĠP ublic
Ġ7 0
Ġf uture
Ġdest roy
ĠWh ile
Ġlog ger
ad ium
ent ry
Ð °
Ġne igh
i en
lect or
Ġà¤Ĩ à¤ļ
Ġà¤ķ à¤¶
Ġc ou
Ġres ource
Ġcl osed
ĠM o
Ġle ader
ele b
Ġadd ress
Ġre b
res ource
Ġà¤¸ à¤¸
3 8
Ġf unc
Ġab s
Ġh ere
r ide
Ġwho se
ĠĠĠĠĠĠĠĠ ĠĠĠĠ
ĠTe chn
Ġf all
Ġsupport ed
à¤ī à¤¸
g l
ar ing
ĠF ound
Ġà¤¨ à¤®
Ġs ession
] );
à¤® à¤ª
UR L
Ġà¤ĳ à¤¸
s ession
Ġvoc als
S he
Ġtra vel
ĠFlor ida
wh ere
ar ily
Res ource
3 6
Ġs aw
ell ed
Ä ĩ
Re ad
Ġo ur
Ġv ot
Ġact or
Ġrun ning
pl ied
ĠC ount
ffic ial
Ġfre qu
Ġcap ital
Ġc ustom
Ġ195 0
n um
ĠS ome
Ġà¥ ª
et te
ĠS k
Ġrelations hip
m ission
Ø §
ĠS ur
w ell
Ġà¤® à¤ķ
à¤ħ à¤²à¤Ĺ
à¤¯ à¤£
4 7
P erson
ĠA wards
ĠS aint
S ON
à¤ª à¤Ł
Ġà¤Ń à¤¯
Ġn ight
ay ing
Ġn atural
ĠD u
Ġex hib
s ervice
b it
Ġprevious ly
Ġà¤¨ à¤ľ
ĠO per
ĠAcc ording
ire ction
ong s
b l
h an
M S
Ġ198 4
ĠIt s
u ation
Ġ198 7
b ur
à¤ĸ à¤ķ
ig hest
Ġme ans
Ġst re
Ġ- -
Ġ* /
i ro
ĠM il
ĠCarol ina
che ma
ĠO h
Ġh app
D on
ĠS ub
ult ural
Ġd ig
anc ed
Ġ198 6
Ġinst all
Ġf iles
Ġo k
Ent ry
Ġrail way
Ġadd itional
ord in
ult ure
Ġl ik
à¤¡ à¤ķ
Ġbel ow
ian o
ĠBra zil
or a
In stance
Ġto urnament
Ġflo at
Ġke ep
ĠSec ret
ro ot
ab it
A b
Ġh ard
ag ing
Ġr iver
} ,
Ġto o
ue st
Ġ[] ;
T ext
ian t
Ġob serv
Ġà¤®à¤¤ à¤¦
Ġdec ided
Ġbo x
ĠE v
Ġr ather
d s
Ġout side
D is
ĠB re
Ġà¤¶ à¤µ
and a
3 7
Ġch ampionship
bo x
Ġpro te
Ġf if
Ġ3 2
iz ations
Ġf arm
ĠBo ard
ent al
Ġseason s
Ġman ager
st ant
Ġg un
Inter face
à¤ Ķ
Ġa x
at i
et ime
L A
omet imes
à¤« à¤²
: `
Ġs ex
il ed
ĠRuss ia
Ġh it
rem e
unc hed
Ġpri or
T em
Ġassoci ated
à¤¼ à¥ĩà¤Ĥ
Ġcont ribut
Ġchang es
à¤¬ à¤¡
C H
Ġd u
Ġacc ording
ly ing
at o
atri ate
Ġm inist
Ġch annel
ĠO ther
Ġr ad
à¤¸ à¤¬
Ġf ail
Ġc are
Ġorgan ization
Film s
Ġtyp es
ach ine
Ġà¤ħ à¤µà¤¸
ĠT our
Ġsc ore
] ))
Ġeff ort
r ich
Ġà¤ļ à¤¢
Ġstand ard
en ant
ĠAss embly
C ache
Ġà¤¸à¤« à¤²
Ġt im
ĠPenn sylvania
Ġre ve
Ġp ark
Ġc ases
à¤ī à¤Ł
Ġsystem s
Ġà¤«à¤° à¤µà¤°
ĠE mpire
ĠS eries
Ġc rick
amp ion
Ġwrit ing
ĠB rown
Ġse lected
Ġrun s
ol ar
à¤Ĺ à¤ľ
ĠK n
Ġ198 5
à¤Łà¤° à¤¨
Ġproduc er
D ate
ut ions
à¤¶ à¤°
ock et
Ġfam ilies
Ġg rand
i as
Val id
iz er
ing u
Ġd en
Ġrequ ire
Att ribute
Ġed ition
Ġse arch
3 9
à¤· à¤ľ
ollow ing
Ġpar se
Ġsc ient
Ġpo et
Ġrem ove
ĠL and
à¤¯ à¤Ĺ
a o
Ġits elf
Ġrepresent ed
Ġcult ure
Ġocc up
Ġw id
Ġà¤ľà¤¨ à¤¸
Ġd ivision
ĠB ank
Ġde al
all ery
Ġmov ement
ip l
Ġplay s
ill a
ĠAn n
ans as
le ase
Ġnor thern
ĠI rish
alys is
Ġtrans port
w an
ĠSt ar
Ġà¤ĺ à¤Ł
Ġatt ended
Ġb ank
Ġà¤Ĺ à¤²
Ġdefe ated
Ġcol or
Ġà¤ı à¤«
à¥ĭ -
ers ey
ĉĉ ĉĉĉ
ill er
Ġc ensus
ic ated
Ġ5 00
Ġà¤ķà¤ª à¤¡
C C
à¥¦ à¥¦
à¤ĸà¤¨ à¤Ĭ
Ġ9 0
ĠS un
à¥ģ à¤ĥ
Ġindust ry
Arg ument
Ġs outhern
U N
Ġpl ann
A ust
ser ver
200 8
3 4
ĠF in
E D
Ġpro p
Ġbeh ind
ain e
u id
:: $
typ es
ĠA tt
vent ion
Ġà¥§à¥ ¯
n ext
R ep
P ort
Ġs at
Ġd one
201 1
ĠR un
à¥Ģ à¤ĥ
Ġreg ard
ĠT ime
Ġw inning
Ġim m
Ġm usical
Ġf ilter
Ġm ove
ul ate
à¤ħ à¤°
Ġà¤ľ à¤¯
S ource
ĠL iber
w in
Ġsing les
tra ck
op en
Ġstud io
ian ce
ĠS pec
Ġst ore
ad y
Ġb rought
Ġb en
# #
Ġpro b
ĠRes earch
Ġcon nection
rem ove
ĠNor thern
Ġw ord
Ġoper ations
d en
oc ol
Ġmon th
200 7
ay a
evelop ment
200 6
à¤ī à¤¤
Ġs n
Ġco ast
Ġex c
ĠL ove
ĠPro fess
ĠE ducation
Ġse cret
he m
Ġà¤ľ à¤¤
à¤ı à¤ļ
200 9
Ġà¤ķ à¤¸
Ġ198 3
ul ed
D uring
im age
Ġà¤® à¤ļ
Ġh or
Ġelement s
aw a
ĠD is
y r
Ġal most
Ġà¤¡ à¤°
5 5
Ġt ask
Ġcomp lete
Ġp urch
Ġind ependent
t est
à¤µ à¤Ń
à¤Ĥ ,
ĠM ah
Ġinvest ig
3 1
Ġpol icy
Ġbeg inning
Ġend ed
it ors
ĠP ac
os h
m iss
Ġs us
Ġus es
R A
Ġ' /
S up
ĠE th
Ġà¤Ľ à¤¤
Ġsc reen
Ġt err
is ions
U L
ĠD en
ĠO pen
P er
ĠSp ain
Ġman ufact
ip s
à¤ħ à¤ªà¤¨
Ġem pty
L ock
h tml
t op
Ġfield s
old er
Ġà¤ı à¤¯à¤°
sp an
um s
anc ial
Ġoper ation
Ġc ell
ov ers
ĠF ield
Ġà¤¤à¤ķ à¤¨
i ography
Ġ quest
ĠR h
Ġis land
Ġà¤ª à¤µ
Ġs af
an ks
ĠB ig
ac ing
f irst
Ar t
Ġà¤ļ à¤²à¤¨
Ġk ing
ĠC D
ĠB ase
Ġ(! $
ĠS ir
\ \
Ġmin or
ĠA rab
ĠO ld
m ond
em or
ĠS il
ot o
ĠB ur
ir it
Ġà¤ıà¤ķ à¤¤
ig a
201 2
P op
ĠM os
p at
4 6
Ġspec ific
am ic
M embers
log ger
back ground
ĠB oy
Ġmag azine
b on
pec ially
Ġpr ison
im b
ec ess
Ġiss ues
c an
up le
Ġcomp lex
ĠL ong
Ġph il
Ġnew sp
Y ear
Ġà¤ľ à¤¡
lo od
Ġhigh er
ĠT wo
ĠR o
in ct
ĠT imes
un ior
writ er
Ġs ort
Ġm aint
iz ing
ĠEng ine
a uth
ĠII I
Ġcon n
R ef
inn ers
ĠF ort
Ġfinal ly
st yle
Ġ6 5
Ġstud ies
ĠP et
Ġperson al
ĠG reek
ec ute
ĠCh ief
ie ut
à¤ħ à¤¨
à¤Ń à¤ķ
Ġsc ience
Ġ Ċ
y an
R un
Ġfootball er
Ġac adem
ap ter
ĠP aram
Ġà¤ī à¤¤à¤°
re a
Ġgo als
} )
w ise
ĠTe am
Ch ild
B rit
F ran
Ġ198 2
ĠT om
air man
Ġ197 9
B S
c el
Ġà¤īà¤ª à¤ļ
Ġt aking
A ct
lo at
Error f
Ġsh ot
à¤¦ à¤¶
P re
à¤¨ à¤¯
ĠEx ception
Ġspec ified
res pond
Ġorig in
in et
à¥ ¥
à¤¡ à¤¸
yp es
ĠCol umb
fl ict
v a
enn is
augh t
Ġre place
Ġà¥ «
Ġprom ot
Ð ¸
P art
Ġw ood
Ġh ighest
ĠHind i
Ġapprox imately
ĠF re
Ġ ['
im al
ino is
head ers
Ġ197 2
g n
he t
Ġimp lement
Ġf ood
Ġto ken
à¤¸à¤® à¤¯
Ġconc ern
He ader
Ġown ed
ot al
Ġto wards
Ð µ
Ġl ittle
ound s
im a
ent h
Ġv eh
Ġ> =
Un ited
18 9
Ġà¤¤ à¤Ń
ĠR os
à¤¨ à¤Ĺà¤°
Ġcons ider
Ġla unched
ol ve
ou b
S I
201 3
Col umn
Ġexp and
à¤¾à¤Ĥ ,
18 8
et ts
Ġà¤® à¤Ĺà¤°
it iz
d esc
re ct
ĠVal ley
4 4
ĠW ood
Ġà¤Ĩà¤Ī à¤ª
Ã §
Ġc opy
ĠH ot
ĠK ey
201 4
Ġre ach
ĠB h
ĠS ocial
à¥ ¯
ĠL ife
ed d
Ġiss ue
Ġdram a
N e
Ġb all
l abel
ĠAl b
S P
Ġà¤ħà¤® à¤°
l ers
ĠSp ace
ĠValue Error
iv ity
ak a
En abled
Ġso on
Ġb ig
ĠO l
ĠMich igan
à¤Ķ à¤°
Ġà¤¹ à¤¥
Ġg ot
p o
ĠP ak
Ġwhe ther
ĠOh io
ĠYou ng
Ġed itor
V iew
à¥Ĥà¤Ĥ à¥¤
Ġem b
ĠH aw
ĠM ur
Ġcomp on
Ġc ourse
Ġw oman
iction ary
à¤¶ à¤µ
Ġcomm ission
Ġwh om
k o
R eturn
Ġ197 6
in st
ĠF ile
Ġ â
ĠL ine
re ater
ĠJose ph
om y
Ġob t
ĠMart in
Ġst aff
à¤ Ĳ
g reg
Ġà¤Ĺ à¤¹à¤°
bo ok
ain ment
ĠHe alth
Ġ18 0
ĠK e
ĠG ar
Ġ198 1
ad ron
ĠS o
L ine
1 00
ĠP re
ĠC ross
Ġcert ain
ĠPol and
ar ia
l ink
Ġd rop
ĠIn c
Ġr ule
ĠDirect or
Ġ" "
us band
Ġal ways
Ġc eleb
à¤ħ à¤²
à¤¹ à¤¬
Ġg raph
ĠC ap
a ks
ĠD ev
ieut enant
Ġd oc
à¤· à¤°
angu ages
Ġs om
R el
d r
ĠĠĠĠĠĠĠĠ Ċ
Ġtrad itional
Ġterm s
Ġdis play
ĠD i
ĠDemocr atic
Ġà¤ļ à¤¨
Ġup d
Ġes pecially
St art
Ġb ur
ĠR em
Ġtra in
Ġ197 8
Ġadminist r
ĠH ow
Ġappear ance
Ġst ri
ach us
ĠH on
201 5
ĠC amb
os oph
Ġsp ent
Ġopen ing
a res
S w
v ey
it ation
ĠG r
Ġà¤ĳ à¤¨à¤²
Ġpat tern
Ġch ief
Ġ197 1
In valid
ĠBrit ain
Ġbet ter
Ġpl atform
em ic
Ġcom e
Ġ ener
200 5
ens ions
Ġ196 8
Ġs ummer
ĠV er
tt ps
Ġà¤¯ à¤¥
Ġc ounty
h ouse
O ne
cl ose
' ),
T ag
stand ing
Ġà¥ ¬
O ther
Ġà¤ħ à¤¸à¤°
ost on
C E
Ġnot ed
Ġà¤¬à¤ľ à¤Ł
ĠB attle
Ġam ount
Ġoffic er
Ġà¤ķ à¤ķ
ab els
he ader
m m
ĠC ivil
Ġar my
Ġso ft
Ġpre f
W ill
Ġ194 5
N umber
Ġth us
D B
arri age
Ġtr ade
o ir
Ġà¤Ń à¤µà¤¨
Ġearli er
f ound
Ġà¤ħà¤° à¤¬
ĠRail way
Ġm sg
Ġser ver
Ġm oney
Ġà¤Ĩ à¤ªà¤¨
Ġad apt
R I
ĠW eb
Ġ197 4
Ġman agement
Param s
ĠS outhern
b ers
ĠD utch
p ose
bur gh
ĠC am
Ġb ass
Ġstud ent
B ase
Ġun ion
Brit ish
achus etts
ĠB ul
Ġper cent
act ive
ĠL ee
Ġcon nect
ĠL ibrary
Ġà¤Ĩ à¤¹
ĠE r
Ġb attle
Ġsc hed
ĠF inal
Ġcom ment
Ù Ħ
Ġr ate
Ġelection s
ac ity
Ġm ission
ĠB as
Ġà¤®à¤¤ à¤²à¤¬
Ġl ived
ĠH el
ard en
Ġ3 8
Ġship s
Ġ197 5
ĠBel g
T Y
k er
Ġrecord s
Ġgeneral ly
Ġstruct ures
Ġe mer
Ġent ered
ĠP rem
ĠP ost
à¤ķà¤¸ à¤Ń
ĠM en
à¤¸à¤² à¤®
ven ue
Ġdec ision
O per
ind s
Ġ. =
Ġinter view
h ash
Ġcent re
Ġb att
Ġgen us
ĠO x
Ġsur round
de lete
Ġs ometimes
il a
ch ar
Ġro ot
E l
ĠF red
irect ory
Ġà¤ľ à¤Ĺà¤¤
Ġ197 7
ĠT ype
i Äĩ
Ġc ities
H T
O S
j a
201 6
Ġim medi
In put
indow s
ĠM at
Ġsy n
Ġ194 0
Ġpract ice
que ue
à¥ ħ
ĠM P
b ury
Ġg ra
ĠR adio
ut y
mod ule
Ġà¤ī à¤ķ
ĠW al
ĠAl though
us ing
6 5
el a
ver y
ĠC ro
i y
à¤ ĳ
gy pt
Ġactiv ities
p id
Ġsen ior
c s
tem plate
7 8
ic ate
ĠAd m
Ġinst r
he nt
Ġp en
++ )
Ġà¤®à¤¹ à¤¸
ess ages
uck et
S ports
it ter
ist ance
ĠIll inois
200 4
ĠI ran
Ġincre ased
off set
for ce
is ation
Ġold er
ĠT ro
à¤ĩà¤¨ à¤²
: #
Ġca used
p ress
ee ks
ĠU nder
ĠQue en
R em
p refix
est amp
clud e
Ġra ised
ĠT re
Ġb ring
n umber
Ġth er
Ġex pected
C o
Ġ( (
comm and
w idth
ĠT em
ĠJ ersey
à¥Ĥ -
ĠO ver
F irst
Ġ197 3
ĠL ord
Ġ196 9
Ġg ive
Ġt ag
B e
ĠT w
Ġà¤¬à¤¹ à¤¨
Ġà¤ļ à¤¯à¤¨
p an
Ġvict ory
or al
Un iversity
Ġal tern
Ġdiff ic
ĠPac ific
Ġm iddle
Ġà¤ı à¤¶
d f
Ġh ttp
Ġ7 5
Pro v
Ġv s
Ġg rant
ad or
Ġpro perties
Ġc op
Ġmater ial
Ġequ ip
IN G
ir ls
ĠPl aces
à¤° à¤ļà¤¨
Ġleg al
Ġdep artment
à¤¤à¤° à¤£
uc le
Ġà¤ī à¤ªà¤¨
Ġrem aining
ing er
Ġt akes
ĠScot land
Ġtechn ology
à¤² à¤ļ
Ġexist ing
ĠAs ian
201 7
Ġw ide
ĠL in
Ġret ired
Ġgo ing
k in
ĠAs ia
ĠJew ish
Ġstud ied
Ġex ception
Ġh usband
we ight
Ġ193 0
Ser ver
Ġext ra
ail y
Ġmed ical
im s
w ar
n am
Ġà¤ī à¤ªà¤°
Def ault
Ġà¤Ĺ à¤ł
à¤ħ à¤¬
Ġann ual
u i
200 3
] [
Ġremov ed
ĠIn f
er em
Ġà¤ħà¤µ à¤¶
ĠPl ay
A g
Ġn omin
F ound
g rad
Ġà¤Ĭ à¤°
Ġcommer cial
W e
Ġit er
b ar
ic ks
Ġleg isl
it ude
ĠS ince
ify ing
20 18
Ġad opt
ĠPhil ipp
Ġdef ined
Ġbecom ing
Ġà¤ı à¤ª
Ġthe ory
iz es
7 7
p ri
Ġl ove
od ed
ĠM ost
Ġn ormal
) à¥¤
)) )
Ġse at
Ġg lobal
Ġt ree
ri ef
ĠJ ack
ĠG al
ran ts
Ġlong er
ĠD et
ĠMass achusetts
p op
Ex t
Ġs uc
ad el
Ġsc he
ĠCon ference
led ge
Ġmajor ity
t rue
Ġch art
ĠF C
Ġà¤Ĩ à¤¬
ĠRep resent
ĠP o
P os
ĠP eople
ĠC ode
Ġstart ing
Ġass ert
ĠC O
P I
i pe
à¤ĺ à¤¨
T A
ĠJ ud
à¤Ł à¤¤
Ġ196 7
Ġqu arter
leg al
g ment
Ġwest ern
Ġ196 4
ĠEd ward
cont in
à¤¿ à¤ĥ
Ġà¤ªà¤¹ à¤¨
c ert
Ġà¤Ĺ à¤łà¤¨
tit le
' '
Ġpolitic ians
B lock
ĠS oc
Ġnum erous
J o
G erman
pro perty
Ġlim ited
d oc
ĠI l
5 00
at ers
Ġdisc uss
Ġc annot
ĠK ent
a ctions
Ġact ors
Ġm ight
ĠS ar
e ch
ĠJ im
Ġint eg
Ġoper ated
'] ;
port ed
Ġinit ially
ĠGeorg ia
Å ¡
Ġmin utes
el ine
Ġprogram s
Ġant i
Ġreg ist
Ġrelig ious
ĠI O
Ġd ed
ĠJo urnal
in em
Ġcol on
all ow
oc ks
Ġcoll abor
Ġ19 20
e es
Ġrefer ence
Ġà¤ª à¤¨
st one
Tra ck
ĠB ow
H el
w ide
Ġth reat
ay out
Ġstring s
ĠR am
Ġeconom ic
à¤ª à¤¡
à¥Ĥ ,
S ession
S l
Ġclub s
Ġthough t
Add ress
Ġn ecess
W est
N O
à¤Ĩ à¤ľ
ĠK ong
à¤¸ à¤ķà¤°
Ġ q
w er
ov a
orpor ated
Ġfore st
ĠO tt
ĠPort ug
5 8
Ġ3 4
on ia
ĠU k
ul f
Ġh ours
A A
f g
Ġener gy
Ġcompet ed
Ġl ic
D r
Ġà¤ħ à¤¸à¤®
Ġcont est
Ġc ache
U E
Ġcle ar
Ġparent s
Ġà¤Ĩà¤¸ à¤ª
Ġsett lement
Ġev idence
ww w
am m
Ġserv ing
Ġe lev
ĠSh ow
Ġobject s
em porary
ĠC reek
Ġfor ced
ant ry
Ġest im
Ġf ederal
re qu
ĠA z
ul pt
eng er
ĠG overnor
Ġsh own
ĠTh at
ĠĠĠĠĠĠĠĠ ĠĠ
g ener
Ġh ot
itt ing
Ġmunicip ality
ĠM ot
Ġinc ome
200 1
l ad
ĠL oc
c ur
ĠCor ps
Ġcom edy
Ġan g
c md
Ġrem ain
urn e
if est
Ġit ems
Ġp ers
ĠCent re
ri z
6 6
( *
Ġincre ase
ĠFound ation
Ġar rest
g or
Ġreturn s
Ġse a
ĠB ook
en ge
Ġd im
à¤¡ à¤®
A M
ĠOff ice
ĠAr ray
200 2
acks on
Ġcor respond
le m
ie ce
Ġ196 5
M on
G B
ri ed
ous ly
Ġch all
Ġm useum
Ġh um
ĠWilliam s
Ġcommun ities
Ġs ister
ĠFrancis co
rec ord
à¤¯ à¤¯
Ġlarg er
ĠI D
P O
Ġappe ars
Im age
ĠM iddle
Comm and
Ġn et
Ġà¤¦à¤° à¤ħà¤¸à¤²
art ers
Ġcon cept
os ing
Ġcal c
F ilter
on ic
Ġs plit
ĠThe atre
" ),
Ġ3 3
og le
ran g
d est
Ġ' .
Ġl ack
ĠR el
s up
Ġsh oot
h ire
ind ing
ol ved
Ġ3 7
Ġrecord ing
ĠScott ish
Ġocc as
Ġpre vent
Ġqu ick
Ġpr incip
get Name
Ġ194 4
ĠOx ford
s m
ĠCo ast
Ã ±
ag n
Ġa uth
apt ain
Ġover all
O fficial
ĠG en
man n
P oint
ab eth
it age
B o
Ġm ode
ĠS ol
ĠCar l
Ġex ists
ĠC r
Ġparticular ly
O ff
Ġrem ains
Ġr ules
Ġprofess or
p ool
w orks
Ġd yn
ĠM ax
sk i
Ġcond itions
l ight
Ġ ign
Aust ral
Ġp il
Ġf le
4 2
Ġfore ign
ir ing
Ġcont aining
F actory
Ġ196 6
Ġ4 8
0 1
Ġoffic ers
Ġmost ly
ĠEast ern
ĠR a
ĠArg s
Ġà¤¬à¤¨ à¤¤
equ als
L I
Ġclaim ed
Å Ĥ
ib li
Ġun iversity
Ġà¤īà¤ª à¤ķà¤°à¤£
nt ario
Ġg overn
Ġar m
ĠB oston
20 19
un a
Ġprot est
Ġà¤¸ à¤ªà¤¨
Ġarg uments
Ġn ative
Ġp sych
ab s
Ġhe ader
à¤¶ à¤®
Ġm aster
Ġca use
I f
ĠD ec
ĠR aj
add ress
ĠB uild
Ġà¤° à¤£
ĠH ung
à¥Ī ;
Ġcandid ate
Ġmeet ing
ak h
Out put
Ġdis e
g s
Ġpresent ed
à¤ľ à¤¤
ill ed
ph y
W orld
Ġ Å
re q
v est
ĠH a
ĠJ ones
Ġc ouncil
Ass ociation
Ġjo in
Ġro om
B uffer
z y
Ġ- --------
ric ts
Ġpolit ics
Ġopt ional
ap ers
Ġdirect ly
ĠF orm
D ec
à¥ĥ à¤Ĥ
v ement
u ge
Ġh ockey
ph a
ĠSecret ary
S A
Ġn ine
Ġà¤²à¤Ĺ à¤¨
Ġneed ed
Ġb omb
9 5
ĠC ard
à¥Ī à¤ĥ
l ong
lection s
Ġw ords
Ġhistor ical
Ġw eeks
is k
por ation
Ġà¤¹ à¤¡
Ġnum bers
à¤ľà¤¨ à¤ķ
ĠB et
Ġk wargs
and om
ĠM ore
out heast
Ġà¤ħ à¤¹
Ġa st
il ly
ĠPr ince
ĠB ang
D I
ak ers
Ġm ention
Result s
ĠJohn son
ĠE gypt
ul ations
ĠT op
th ur
F urther
L a
Ġto day
Ġsubsequ ently
ĠH ospital
à¥Īà¤Ĥ ?
Ġform s
ens ity
Ð ½
à¤µ à¤®
ĠĠĠĠĠĠĠĠĠĠĠĠĠĠĠĠ ĠĠĠĠĠĠĠĠĠĠĠĠĠĠĠ
ĠJ r
Ġaut om
à¤ĩ à¤«
eder ation
Ġoff set
Ġ< =
4 1
ĠW rit
Ġp ain
ĠT im
um ed
Ġorgan izations
Ġrefer red
d ev
à¤µ à¤¦
Ġe arned
ĠO p
Ġsc ript
Ġad j
Ġy et
for mer
à¤°à¤¸ à¤¨
Ġprom in
ĠL uc
Ġin sp
à¤Ĩ à¤ªà¤ķ
che ster
ol y
Ġsepar ate
c ore
199 9
Ġy ield
Con nection
Ġcol lect
ĠSp ring
ent y
à¤° à¤·
w ait
ĠS at
M usic
Ġpre p
ob ile
à¤¯ à¤¶
Ġà¤¸ à¤ĸ
Ġà¤ī à¤¤à¤¨
ĠW is
Ġsur face
ĠM ajor
P ublic
en v
L ength
ĠSen ate
Ġm akes
f low
Ġappear ances
t r
6 8
ceed ed
re al
ĠF I
Ġreg ional
urb an
4 3
Ġb order
ĠSt ation
d efer
Ġ eth
Ġà¤®à¤ľ à¤¦
ĠPol ice
Ġlim it
ĠCh ild
n es
9 8
Ġmean ing
sel ves
at ively
Ġthem selves
R ow
P age
Ġcall back
ont o
ĠL og
k ins
m ore
c opy
x ml
olog ist
Ġon line
us c
Ġback ground
Ġà¤¸à¤² à¤®
à¤¡ à¤µ
Ġkey s
Ġacqu ired
ĠE rr
Ġdes cent
am in
'] ))
ĠD evelopment
S outh
st ore
Ġ196 2
ĠUn ivers
Ġsec urity
ĠPol ish
ĠBer lin
k l
199 0
Ġ6 4
M ax
Ġà¤ħ à¤¯
cl aim
à¤¤ à¤ª
b our
Ġp ick
Ġà¤¸à¤®à¤Ŀ à¤¨
Ġperson nel
ĠG ood
Ġd iss
Ġle aving
s end
Ġà¤Ĩà¤ª à¤¸
Ġà¤Ī à¤¸
ĠLat in
ĠColumb ia
ze ch
ul ly
e z
f it
à¤¤à¤° à¤°
Ġfl ag
IN E
Ġin n
ĠSt e
Ġa wards
Ġtem per
ĠK ar
E O
ĠM ap
Ġav oid
By tes
H ash
Ġs end
ĠB ob
ĠE arth
Ġdirect ory
Ġsh ape
Ġv er
Ġhous es
Ġh ospital
Ġen ough
s ign
Ġmod ule
Ġcomp osed
Ġ ice
Ġspe ed
rib e
k h
av en
Ñ Ģ
Ġbase ball
Ġfac ulty
m as
Ġà¤ī à¤ľ
Ġart icle
ic ient
Ġà¤² à¤ĸà¤¨à¤Ĭ
row s
Ġm ix
ĠA ut
ĠV an
Ġl y
Ġeast ern
Ġs ave
Form at
Ġbelie ved
à¤ª à¤¹à¤°
Ġhel ped
P ost
ch er
em et
Ġfam ous
Ġd irection
Ġà¤Ĩà¤¦ à¤°
< /
ĠB al
A ction
à¤°à¤ķ à¤Ł
Ġ_ _
ĠSe a
ĠReg iment
Desc ription
Ġp ack
sk y
att ributes
Ġpro gress
te en
ĠB ern
Ġv ote
ĠB or
Ġfin ancial
E nc
ce an
Ġparam eters
Ġrec ent
R L
ap ed
Ġc itiz
Ġhand le
d el
ĠH or
Ġdist ance
ĠU r
g u
Ġmov ie
Ġ194 2
ĠBro ad
Ġ196 3
Ã¡ n
S ec
à¤¤ à¤¸
Ġ- ----
Ġc arried
w a
Ġprov ides
Ġhe avy
Ġun ique
à¥Īà¤Ĥ à¤ĥ
to String
ĠO ntario
ĠSt ep
un ct
ĠE ll
Che ck
p ack
Ġtra cks
Ġdev ice
Ġy outh
ĠN ight
Ġpos itive
ĠL ater
Ġc orn
Ġin side
ĠL ab
Ġext ended
Ġy our
ĠA v
p ers
bre ak
ĠM id
'] ['
or ter
con n
Ġhe ight
Ġcre w
Ġs ources
ĠEn ter
rop ical
ĠBl ue
umm ary
ĠSt an
Ġpro posed
In ternational
ĠVictor ia
W hen
ic ine
Ġv on
ron ic
Ġc ounter
ĠHe ad
ĠJ ac
Ġche m
Ġs ociety
Ġb ranch
yd ro
Ġtro ops
ĠA sh
ut s
ec ution
à¤ķ à¤¥
6 7
ĠIs lands
Ġà¤ķà¤® à¤ľ
Ġ ess
olic y
Ġal leg
ĠOlymp ic
ev en
Ġch arg
ĠIs l
e ed
Ġà¤¦ à¤®
y er
Ġproble ms
Ġ3 00
ĠW ild
p ur
P olit
per or
Ġl atter
os a
ol s
Ġmod els
ĠD ie
Ġ194 8
enn es
ad ian
ĠE nd
' ):
à¥ģ ,
Will iam
Ġoffer ed
Ġm ur
Ġ Ø
ĠM ov
Ġpro file
Ġà¤ĭ à¤·
Ġcult ural
Ġs um
U s
Ġby tes
t im
Ġet c
ĠArg ent
set t
ig er
ĠS und
à¤ ½
ag on
Ġme chan
og ue
ĠM r
à¤ĺ à¤Łà¤¨
.. ..
ur ies
0 5
Ġun ivers
w atch
Ġres ources
n ers
hen s
Ġf ace
Ġ ;
à¤¼ ,
anc y
Ġp an
erv ices
T im
Ġb rand
ĠW ork
u ing
ĠParam eters
Ġexper ience
Acc ording
ĠO f
el d
ĠH ong
ĠCon serv
Ġà¤¹ à¤«
ĠT ri
P at
Ġfor t
Ġcons ists
Ġben ef
N T
if orm
Ġlevel s
Ġwho le
ol es
Ġf ilename
à¤Ł à¤µ
O lymp
ĠS and
Ġup per
Ġà¤ĩ à¤ľ
Ġvari ety
ĠKore a
er c
A c
E C
Ġturn ed
ĠAlex ander
Ġfor ward
Person al
Tra ce
ĠTown ship
à¤¼ à¤¾à¥¤
ĠThe ir
He ad
Ġlik ely
20 20
Ġprom oted
Ġ194 3
ĠM att
ell ig
inn es
Ġb rief
Ġindividual s
f s
ron ze
0 8
Ġde ad
C urrent
ĠT am
Ent ity
he w
Ġdem on
Ġ196 1
ro vers
D isc
in ity
ĠJ ackson
Ġman aged
il ing
ion e
Ġdep art
Ġ4 4
con nection
Ñ ģ
ĠP op
ĠW ater
tern et
à¤° à¤µà¤°
Ġserv e
Ġà¤ľà¤® à¤ķà¤°
ut t
ĠR ef
c ell
Ġpart ies
Ġ195 6
sc ript
ly wood
ĠSpec ial
inal s
ĠCol or
M en
à¤¨ à¤¹
or ge
à¤¸ à¤ļ
stit ution
Ġà¤¨ à¤¤
Ġmain ly
F rench
Ġ3 9
B iography
Ġun known
eth ing
f loat
Ġ ),
Ġdec or
ak ed
adel ph
Ġsqu are
Config uration
Ġc ard
Ġm arriage
ott om
igh ter
y o
r at
Ġparam eter
Ġw inner
Acc ess
Ġth r
Or der
ĠV ill
Val ues
ĠPri ze
sh ape
ĠC orn
ĠS ports
und le
u ate
st ein
b a
Util s
Ġle ave
Ġwe ight
B ar
o or
Ġsy mbol
Ġb ridge
Ġ194 7
ĠB BC
Ġcon flict
w eg
cons in
innes ota
Ġà¤Ĩ à¤īà¤Ł
Ġp ow
il er
ir med
ĠQue ens
ind er
Ġproject s
ĠUS A
C ast
Ġprov ince
av ed
Ġproduct s
Ä į
" ).
Ġ( '
199 8
ĠT est
8 8
t d
ĠB C
AT E
Ġà¤ħ à¤¡
Ġde ep
S ing
Ġpo or
Ġinflu ence
Em pty
pt on
C ON
ĠSy d
ĠR ay
Ġinter face
ĠComm and
Ġà¤¸à¤¹ à¤®à¤¤
Ġà¤¸à¤®à¤Ŀ à¤¤
c ient
ĠRepublic an
G eneral
Ġdiffic ult
W omen
Ġepis odes
Argument Exception
Ġà¤¤ à¤Ł
Ġnewsp aper
Ġl anguages
Ġproble m
Ġiss ued
i ation
Ġin fo
Ġrespons ible
ĠB att
Ġp ra
ĠG ame
ĠL ittle
H ost
iz abeth
Ġan alysis
H ar
Ġfif th
M ay
Ġp p
Ġ5 5
ĠĠĠĠĠĠĠĠ ĠĠĠĠĠĠ
al ion
Ġopt ion
Ġà¤« à¤¸à¤²
V ER
in ated
ig en
à¤® à¤¶
adelph ia
an th
ether lands
Ġgradu ated
ĠL y
N ov
P C
Ġh ar
ef e
St at
Ġ194 1
idd en
ir al
se lect
Ġw ait
Ġren amed
ch o
clud ed
Ġconst it
Ġr at
D av
ort heast
L o
Ġas ked
Writ er
Ġelect ric
Ġcover ed
Ġexecut ive
Ġc at
ĠB ir
Ġst ories
call back
Ġc ycl
ĠF our
Ġf ellow
ĠL im
Ġap plication
E v
ĠR oute
Ġv an
Q ue
id ers
Rec ord
Ġdef eat
G E
hand le
ĠPro ject
ĠH and
cont ainer
ĠW ay
Ġà¤¦ à¤¶à¤ķ
ĠW all
Ġpl ans
Ġdiscover ed
Ġrec over
plic ations
ĠK enn
7 6
ris on
Ġconstruct ed
D el
Ġp aper
g a
Ġa thlet
s uccess
Ġmethod s
ĠH ome
ch ang
Ġst ay
ĠE p
Ġn ature
Ġsc ulpt
Ġsh are
id x
itz er
n ic
our i
form ed
à¤® à¤ľ
Ġown er
ari able
i ec
ĠU l
à¤ħ à¤Ĺà¤°
Ġ194 6
Ġf oot
am i
ĠChe ck
à¤· à¤§
à¤® à¤§
Ġarr ived
st ruction
Writ e
ay lor
Ġcar ry
Ġord ered
Ġdes pite
H O
D em
Ġà¤¦ à¤¶
ĠKh an
ĠM any
p resent
Ġà¤Ń à¤Ł
ĠMinist ry
Ġ195 2
0 9
m it
ic on
ter m
ĠL i
ĠE conom
Ġc y
Ġbeh av
Ġà¤ļ à¤®
Ġg uest
ĠI d
Ġlet ter
le ep
od ay
Up date
C al
R ed
ĠJ ean
ĠS pe
ĠO s
p atch
Ġà¥¤ "
Ġsequ ence
bo urne
p arts
Ġlin k
ĠJ es
ĠJust ice
a is
à¤° à¤¥
ibli ography
Ġnear ly
il ton
Ġde lete
Ġcond ition
op ts
ĠR ome
sec ut
roll ed
b ed
Ġfeat uring
ic ations
ĠPro gram
ĠSyd ney
ĠMed ia
Ġassist ant
Ġ4 00
199 7
uck y
ĠMc C
Ġtransfer red
à¤ĩ à¤ı
Ñ Ĥ
Ã ¸
P T
th row
ĠPak istan
Ġto ld
r or
ĠS ab
Field s
p ush
Ġneigh bor
Ġnear by
Com ponent
G ener
'] );
Ġexp atriate
m itted
Olymp ic
Cont ainer
ĠA ff
7 9
ĠProfess or
s en
H is
Ġappro ach
Ġsil ver
Ġ195 8
ish er
Ġre pe
Ġs aying
Ġadministr ative
en ing
ĠSt adium
à¤² à¤Ń
ĠN ations
und red
Ġconfig uration
Ġb ad
Param eter
à¤£ à¤¤
St ore
st d
Ġs u
ĠL o
Ġsc ene
Ġv en
Ġà¤ħà¤¹à¤® à¤¦
ĠP res
M in
Ġmusic ians
ĠS erb
ag ers
Ġass igned
ial ize
ĠÂ £
NA ME
Ġo il
ed om
Ġhon or
Ġlist ing
Ġs ens
Ġquest ion
Ġbas is
ĠM u
Ã© e
Ġdist ribution
j i
loc al
Ġactiv ity
ĠB ab
ĠS ant
ĠRev olution
ĠKore an
ĠP oint
D ist
Ġan cient
Ġin ternal
ke e
Ġf ast
ific ations
ĠC at
ĠF ar
Ġcap acity
ors hip
ĠA thlet
Ġ193 9
Ġcle an
Ġsp irit
Ġcont act
ĠCor poration
Ġ--------- -
Ġ195 7
Ġ195 9
Ġfriend s
am ber
ĠD N
al ing
ĠE lect
D es
Ġhe art
ri x
Ġto uch
Ġl ives
V ol
Ġincre asing
b ec
Ġarg ument
he mat
Ġs port
ĠReg ion
à¤ķ à¤¶
enc ode
Ġf irm
ĠB and
om er
Ġref lect
Ġr ugby
Ġà¤ļ à¤¤
per ial
ribut ed
b ro
ĠK en
urs or
ĠAir port
ĠAr m
ĠTechn ology
os ph
B I
B est
à¤² à¤¦
Ġf ish
Ġsw itch
Ġdr ug
ell er
Ġwant ed
ĠCamb ridge
B ody
epend ence
ĠN etwork
ĠPr ime
Ġb us
is hes
Ġres idents
Ġmem ory
E L
Ġimp act
it ness
Ġr ural
Ġby te
Ġconst itu
f eat
Ġwork ers
à¤£ à¤¸
D et
Ġd b
ĠB ad
ĠMed al
à¤° à¤ķà¤°
Ġphot ograph
ĠS a
Re ader
ĠL em
Ġ ult
qu arters
emet ery
ĠR od
O G
C D
ac c
Ġà¤® à¤£
Ġ195 5
L evel
olit an
weg ian
Ġv oice
ce st
ĠO ffic
Ġsold iers
orn ing
ilt ers
Ġà¤ı à¤°
ik a
ĠBr ig
199 6
5 9
Ġà¤Ĩ à¤ıà¤Ĺ
Over ride
Ã £
Ġch ampion
J ul
che stra
um es
Ġvers ions
Y ou
Ġin h
ĠF ire
ex ception
Ġinter p
ĠG h
ic ed
ast ic
param eters
U P
ĠĠĠĠĠĠĠĠĠĠĠĠĠĠĠĠ Ġ
Ġmur der
est abl
g ar
os l
Ġarchitect ure
or i
ĠAnd rew
Ġreve aled
Ġdemon str
Ġbecom es
Ġsus p
ĠA venue
ĠMus lim
TY PE
Ġ15 0
Ġpar ish
Ġalong side
Ġro les
Ġra ces
à¤Ī à¤ķ
Ġtem plate
Ġcomput er
Ġimmedi ately
l iving
as ks
Ġd raft
ĠTor onto
ĠComm on
Ġmunicip al
ri e
Ġ4 2
Ġn om
Ġpot ential
Ġà¤§ à¤®à¤ķ
6 9
Ġopt s
Ġn ation
Ġmedal ists
à¥Ģà¤Ĥ .
Ġlead ers
ĠPrem ier
ĠSc iences
Ġeffect s
Ġclass es
ĠP en
se x
ĠSup reme
v an
Ġà¤¶ à¤¹
Ġg as
Ġparticip ated
==== ====
Ġcont ain
à¤ª à¤¥
Ġà¤Ī à¤°
ĠP ubl
Ġd ra
Ġpref ix
à¥Ĥà¤ģ à¥¤
Ġacadem ic
ĠC re
ow a
u ct
Ġaccept ed
à¥ĭ .
ĠL ew
ĠB usiness
port un
à¤ħ à¤§
Ind ian
result s
ig ration
Ä ±
Ġprim arily
Ġà¤¨ à¤·
O b
Ġfig ure
199 5
ĠW in
ol id
Ġsmall er
à¤¯ à¤¬
ĠD ar
Back ground
Ġass ociation
ĠWis consin
Pro cess
Ġmax imum
ĠV iet
à¤ı à¤¶à¤¨
à¤¨à¤¤ à¤®
Ġw inners
mer ge
à¤ıà¤¸ à¤ª
ĠE st
Ġprodu ce
Ġvol ume
Ġatt ribute
Ġadminist ration
ĠB ol
Ġs al
Ġsp read
ĠN etherlands
i ate
z er
n ce
f n
erv ed
Ġbel ong
Ġ4 9
ut ton
g ers
Ġide a
ĠO pt
Ġ194 9
Ġs ites
enn a
Ġl ibrary
Ġwe ap
ĠGu ard
Ġpos itions
à¤Ĩ à¤ª
reg on
ĠBo th
Ġmet al
Ġoffic ially
Ġd ial
% )
à¤£ à¤ķ
a fter
ĠB a
Ġs urn
ĠDu ke
en es
Ġw alk
o es
Ġliter ature
Ġlaw s
Ġdesc ription
ad ow
à¤¾ "
ĠS ong
lo se
à¤° à¤°
ĠT ok
ĠB ell
z o
met a
ĠD ou
J an
0 7
t c
A F
b ot
y ard
Ġsol o
T op
r ical
low er
Ġint ended
Ġact ually
os en
s id
k g
act or
du ce
I V
p ay
à¤ı à¤¡
ens is
ĠF ederal
s ql
ur ches
ĠMed ical
A wards
à¤µ à¤¹à¤¨
Ġdiv ided
Ð¾ Ð
ĠOr gan
Ġà¤¹ à¤¨
Ġà¤Ĳ à¤¤
à¤ħ à¤®
l an
Ġm ixed
ro om
{ $
à¤° à¤Ĺà¤¤
ĠD ata
sh al
Ġp air
Ġdecl ared
Ġk ind
0 2
ĠAl so
ĠP ers
ĠH an
j e
ĠH y
Ġconduct ed
Ġoccur red
ĠM innesota
ĠB on
Ġ----- --
sett ings
he im
Can adian
Ġ195 4
rel ated
Ġtrad ition
r ass
ang a
Ġre q
pon ents
Ġw rest
Q L
Ġded icated
ĠC a
Ġnot able
Ġart icles
Ġg reen
Ġprot ect
ĠCommun ity
ars ed
Ġst ars
ĠL ight
Ġsy m
ĠS om
l ib
s rc
Ġà¤ª à¤Łà¤¨
ĠSwed ish
T r
od er
ĠE s
à¤¸ à¤Ĺà¤¢
ĠIO Exception
j ob
à¤ķ à¤Ń
Ġà¥ Ń
199 4
Ġtown s
p a
ĠInd ust
C reate
Ġgrow th
G u
à¤¯ à¤ľ
à¤°à¤¤ à¤²à¤¬
Ġrespect ively
Ġd ark
m es
y al
Ġst reet
by tes
Ġf a
ĠA h
Ap p
ast y
f ort
w ater
P refix
Ar ch
Loc al
Ġ Ù
Ġtreat ment
ask a
Ġà¤ĳ à¤ªà¤°
T ypes
let ed
Ġdestroy ed
t ask
as et
b uffer
Ġ195 1
ath an
b uf
Ġquick ly
Ġg rew
Ġdat abase
ĠEth ics
Ġ( *
Ġran k
Ġtit les
b i
or ph
Met adata
Ġphys ical
Ġtime out
Ġà¤µà¤¨ à¤¡
Ġmov ing
I ter
Ġam b
Ġà¤ħ à¤Ł
ib ly
ren ce
T R
Ġd omin
Ġth ink
ĠU s
Ġfac ilities
un n
ĠJ eff
lim it
Ġcre ation
Ġplann ed
Ġsc ale
ĠW inter
m ode
ĠT O
ĠM arg
ĠS anta
ĠTur k
Ġà¤¦ à¤¯
ĠT ai
Ġsett ing
ĠIndian a
A ut
r ong
Ġ er
Ġprob ably
Ġnov els
ĠBar on
Ġsoft ware
rap per
Ġnecess ary
Se cond
Ġt al
Ġ195 3
Ġ era
( _
Ġdig ital
ed ia
Ġpromin ent
Ġflo or
à¤¸ à¤°à¤ķ
Ġlate st
ic i
ĠA k
Ġcom es
Ġcomb ined
T O
ĠFore st
Ġhousehold s
à¤ª à¤¶
d ep
Ġfoc us
ucle ar
D at
Ġla unch
ill ery
Ġother wise
att ribute
198 0
se ason
Ġconn ected
f alse
gor ith
Ġg reater
Ġcompos er
Ġill ust
Ġvot es
erv ation
) {
pro ject
Ġneed s
ĠStud ies
us ion
S O
ak i
ĠV en
8 5
p c
199 2
Ġhost ed
ĠR og
Ġfe el
Ġm ut
Ġà¤° à¤¤
ur er
Ġp al
Ġc am
ĠTh ree
Ġhistor ic
Ġà¤Ĩ à¤°à¤ķ
cl s
ict ed
à ¨
Ġent er
Ġn ar
ol is
Ch rist
M O
R ev
ĠP ass
Ġl ock
on ed
Tem plate
H P
Ġà¤µ à¤ľà¤¨
wh ich
ĠC all
Ġmount ain
in son
uss ian
ĠC ub
Ġhigh ly
à¤Ł à¤¬
ĠLeg isl
Ġg iving
Ġequip ment
ly n
or gan
d ist
ĠH uman
Ġpre c
Ġag ric
err ors
Ġatt end
Ġpl ants
ennes see
ĠAnt on
Ġà¤ł à¤¹à¤°
ĠS u
Ġestim ated
Ġag ent
ra ine
ĠEl izabeth
Ġpre mi
7 2
cl es
Ġp urs
ĠG ro
Ġà¤ħ à¤¸à¤²
est ic
S ources
Pop ulated
Ġ ir
Ġdist ricts
ĠSing h
Ġstre ng
h o
Ġinstit utions
199 3
Ġà¤¬ à¤ļà¤¨
c ow
ony m
Ġfunction s
Ġwith d
Ġoper ating
Ġeffort s
C ar
d et
Ġbl ue
Ġminist er
0 6
ro le
F unction
end ar
ann els
Ġhas h
ĠS us
Ġj oint
b s
T ask
S im
() ))
Ġre con
ru it
Ġop portun
( &
ĠMiss ouri
om ot
Ġà¤ĩ à¤°
ĠPhil adelphia
hand ler
ĠSt and
Ġad ult
Ġqu ality
Ġse lect
so le
à¤ķ à¤²à¤¨
à¤Ĥ .
ĠF ollowing
Ġchar ge
or iginal
Ġab ility
ĠRepresent atives
B ibliography
Ġresult ing
n p
a ug
I O
Ġed ge
Ġset s
Ġmot or
Ġext ension
à¤ķ à¤¦à¤®
ill ing
Ġdep end
Ġl ies
Ġsw im
Ġst ra
Ġb al
Ġco ordin
S ign
ĠB u
ĠM ain
ĠB ishop
à¤ıà¤¸ à¤ıà¤¸
( []
ĠT er
à¤¦ à¤¤
ans ion
C ent
Ġd ictionary
on ly
ĠB i
ĠSwed en
Ġcont rovers
d es
Ġch ain
Ġà¥§à¥ ®
st at
ĠC zech
Ġd oub
ĠM emor
Ġrece ive
riz ona
Ġmeas ure
Ġfin ish
ĠChar l
ĠDan iel
il ation
Ġfem ales
Ġh op
ĠT y
ĠP ower
0 4
ĠPol icy
J apan
Ġtri al
ag a
ĠD iv
ĠL ady
Ġconf irmed
L S
ag h
Ġsecond s
< ?
Ġper man
on el
Ġg irl
Ġd ance
ul s
rop olitan
Ġfav or
E S
Prov ider
met adata
Ġdel iv
Ġsim ple
Ġcommon ly
inter face
Ġà¤ķà¤® à¤²
0 3
Ġaff ili
ĠPe ak
st op
Ġm achine
Col lection
M atch
Ġle aves
Ġcitiz ens
Ġatt ention
ann a
L ink
u ous
Ġà¤Ń à¤Ĺ
Ġcor rect
Ġpe ace
Dav id
ific ate
ac cess
Ġm icro
ra ck
Ġvari able
5 6
op her
Ġà¤ı à¤ļ
Ġc ategory
ĠU N
M ark
are t
Ġmed ian
Ġreview s
un es
ĠR en
Ġw ild
con f
Ge ography
Ġsem i
Ġorgan ized
ch ron
Ġà¤Ĳ à¤ª
opt ion
yth on
ĠBe ach
Ġ193 6
ĠMary land
Ġf rame
V ID
Ġà¥§à¥ ¬
ra q
Ġst orage
à¤² à¤¡
ĠJ SON
Ã º
f ef
Ġtit led
ex pected
Ġphil osoph
pat tern
Ã£ o
Ġ{ '
Ġcomp ared
em an
clud ing
i at
A uth
Ġpurch ased
M ode
ĠAdm inist
Ġp et
ĠO regon
al o
ran ce
w eb
Ġap plied
Ġrec omm
P S
Ġà¤ĵ à¤²
Ġà¤Ĩà¤¨ à¤¨
ĠF er
Ġbeg in
N ext
à¤ľ à¤¦
(' /
st atic
ĠM aster
h ar
orn ey
Ġp iano
w orth
Ġtyp ically
Ġ1 000
od s
à¤Ł à¤ķà¤°
od ies
igh th
R oot
Ġpar liament
se y
à¤Ĺ à¤¸
Ġp ool
ol t
CA A
Ġlead ership
er ick
act er
Ġdr iver
Ġadopt ed
S ett
N orth
Ġc md
ograph ic
ĠB ridge
Ġ19 18
199 1
Ġcapt ured
ĠW alk
Ġther efore
Ġpl ot
ĠWil son
ĠB rad
ĠF e
Â °
Ph il
Ġà¤¸à¤® à¤ķ
k es
Ġpress ure
west ern
à¤ª à¤ļ
Ġw idth
M ich
ĠW ars
s chema
ap ore
Ġro t
ĠF ox
Ġà¤Ķ à¤·à¤§
Ġdise ase
8 9
Ġengine er
ĠM ilitary
Ġident ified
Ġallow s
5 7
Ġinit i
ay ers
ost er
fef efe
ĠJo e
Ġà¤¹ à¤ķ
Ġ Î
Ġc erem
ud get
A nt
20 21
Ġhead ers
Ġgener ate
W ork
à¤² à¤ª
Ġfl ight
Ġr ul
pro v
à¤¡ à¤¬
Ġexper iment
rim inal
P AR
D ev
se cond
Ġcon ference
Ġfound er
Ġest ate
Ġact ual
( {
ĠF air
à¤ķà¤¤ à¤®
Ġw indow
Austral ian
Ġ193 8
Ġà¤īà¤ª à¤¦
struct ure
b ool
Ġagre ement
d i
Ġf iction
Ġhous ing
Ġcre ating
Ġre duced
Ġterr itory
ĠCast le
Ġexpand ed
Ġd ir
Ġre ject
Ġequ al
Ġinstr ument
Ġ' %
Ġprogram ming
Ġpres ence
6 2
ĠC aptain
Ġconc ert
Ġst one
T I
Ġteach er
Ġc ells
Ġp itch
ash ion
ĠT aylor
G o
" |
Ġrest rict
Ġà¤Ĺ à¤¡
6 1
ĠD am
ĠK ir
ĠInd ones
D ebug
Ġdem and
S R
ĠBro ok
anc ing
t hen
Ġra re
ĠGold en
Ġm ill
Ġbe at
oper ation
ĠK ansas
à¤Ĺ à¤£
m ad
ĠS ee
Ġ. .
ro ute
Ã¼ r
Ġb lood
Ġà¤¬ à¤§
pass word
ol ver
Ġà¤¦ à¤°à¤µ
6 3
N ull
ch a
ĠJ on
Ġagre ed
Ġsc ope
Ġh y
ipl om
Ġà¥§ à¥¦
Ġrepresent ing
d im
Ġà¤¬ à¤®
Ġdet ails
P ass
à¤ı à¤Ł
un te
Ġra w
Ġà¤Ĺ à¤¨
' re
Ġà¤¬à¤¦ à¤²à¤¨
ĠM unicip
Ġà¤Ĳ à¤²
Ġserv es
Ġvis it
T C
Ġsom ething
Ġco al
Ġc ars
Ġjo urn
re es
à¤ļ à¤ķà¤°
{} ,
ript or
Ġv ess
Ġs oc
Ã ¢
ĠL ive
ĠN az
à¤ļ à¤µ
Ġc our
ĠF ederation
Ġm iles
Ġpaint ing
Ġcrit ical
ĠAn th
j an
ĠG ree
or ation
ellig ence
Ġcom ing
T ax
ĠRev iew
amb ig
Ġrecogn ized
Ġw ing
ĠH ay
Opt ion
int on
5 4
à¤¶ à¤¯
{} )
st ack
st ep
valid ate
F ailed
V D
atri x
Ġà¤² à¤¹à¤°
Ġ" \
Ġen em
Ġ'' ;
Ġel im
Ġsp ring
M I
T arget
vi ation
Ġnew ly
ĠR om
ĠDN PA
ic ian
ĠBase ball
à¤£ à¤µà¤¤
ĠAr thur
Ġindust rial
Ġstat ement
ol ute
v ard
Ġreturn ing
time out
Ġreg ions
Ġpri est
ĠMag azine
ploy ment
De ath
à¤ĩ à¤ª
Ġsecond ary
Ġa ctions
Ġknow ledge
c al
iec es
Ġrec ently
ĠRe ad
Ġse ats
Ġt uple
v in
) ]
ĠB udd
Ġà¤ı à¤Ĺ
et a
st rip
ĠL OG
Ġ/ **
à¤Ĳ à¤¸
Ġv ert
Ġdocument ary
af e
Ġl abor
ear s
Ġro ll
" ))
Ġc e
Ġ4 1
Def inition
Ġsqu ad
Ġsh ared
ĠL es
Con n
Ġdam age
à¤¾ ;
Ġis set
ĠD own
Id ent
Ġcont ra
ĠN ow
Ġengine ering
Ġconvert ed
n i
à¤ħ à¤Ń
List ener
Ġà¤Ī à¤®
Pro perties
Ġch o
aw n
am ing
Ġstat istics
ap h
ĠN ic
y ing
Ġregist ered
ĠG allery
ĠNor way
Ġjournal ist
7 1
P ol
ĠH o
Ġact ing
ĠW el
ĠCon nect
ĠDes pite
Ġb uffer
Ġà¤ħ à¤ľà¤¯
sc ription
7 4
M y
ĠR ad
ann ing
Ġà¤Ĩ à¤Ń
ĠMan agement
Log ger
Ġcl s
amb da
ĠM ath
5 3
5 2
Ġoff ers
ĠT ennessee
ĠE P
Ġmention ed
a ver
Ġw all
ĠW eek
Ġens ure
ĠPhilipp ines
à¤° à¤¯à¤¤
ĠM ic
T ER
Ġà¤¶ à¤ĸ
st ract
Ġs alt
ĠC reate
Ġg ained
Ġsuff ered
Ġdist inct
D ep
Ġclass ical
Ġc ore
a uthor
ĠCon f
ĠAtl antic
Loc ation
Ġwid ely
Ġran ked
Ġbeg ins
b as
e k
ÃŃ a
Sy stem
K E
ut ional
iqu es
S printf
ĠA rea
5 1
Ġlarg ely
Ġbas ic
Trans port
og s
à¤Ĺ à¤ķ
Ġà¤ĭ à¤£
he ight
Ġb ronze
ues e
à¤Ń à¤µà¤¤
ĠCol lection
Ġà¤ķ à¤ļ
ig rants
point s
f ull
sw itch
Ġcon cent
Ġm om
ĠV i
t ree
Ġident ity
ĠM un
Ġres ident
Ġs ales
Ġcolumn s
b ound
Ġfail ure
Ġfe ed
ĠMemor ial
Ġ' ,
Ġse vent
Ġthem e
Ġab and
mat ches
Sports people
Ġnomin ated
Ġpol y
wh ile
ĠSqu adron
Ġh undred
à¤¼ à¥ģ
child ren
Ġf ully
F iles
ĠM ike
it o
ig ation
Ġar ts
D S
ĠColor ado
ĠP u
Ġtw ice
em ail
in y
Ġcr ime
Ġres c
M ajor
Ġth ings
ian ts
Ġ5 1
à¥¤ à¥¤
J ames
Ġmult i
Ġen v
Ġcont emporary
ĠS on
Ġà¤ĳ à¤ķ
ĠJew s
ph p
Ġ4 3
E uro
ĠHigh way
in us
ĠMar ia
à¤¨ à¤µà¤°
ĠB all
Ġ( ),
f all
Ġcompon ent
ian g
Ġs low
Ġà¤² à¤®
Ġ} ;
h ttps
t i
Ġint ers
ĠB at
s pect
w ing
ord on
Ġà¤ĳ à¤°
is a
Ġs pons
ire ment
ĠMount ain
D A
ast ers
Ù Ĩ
Ġmark ed
s ave
put e
r Ã©
s pe
ĠM oh
Ġev al
Ġà¤ĳ à¤Ł
Ġresult ed
Ġf ell
Un lock
Ġà¤ħà¤¨ à¤¨
Ġg ives
ĠM ill
Ġmet adata
M iss
ook ie
H on
Ġcanc er
à «
j oy
Ġatt ract
Ġperform ances
f mt
Ġ193 7
t ocol
S ince
ĠMex ican
Ġvill ages
à¤Ł à¤µà¤°
Ġnot es
ol i
Ġexp ression
Ġcont ainer
b an
set s
et ic
sc ape
Ġpre m
v o
inc ial
à¤¨ à¤¬
à¤¹ à¤¨à¤¤
R ail
Ġbur ied
oc ated
Ġà¤¨ à¤¶
Ġà¤īà¤ª à¤Ń
ĠEngine ering
ĠJ unior
Ġpro pos
ole c
ĠPol it
à¤¶ à¤¸
ĠJ oh
Ġeduc ated
Ġdoes n
pl ugin
ab ad
ik i
Ġ urban
ro g
ĠPr im
Ġà¤ª à¤ļ
os is
Ġsim ply
à¤µ à¤¯à¤¨
198 9
Ġe c
t ainment
con nect
ĠE ach
Ġco ok
S m
y les
N or
Ġ19 19
Ġf elt
Ġapp ly
ĉĉ Ċ
b in
ap el
Ġclaim s
Ġser ial
app ed
Ġgrant ed
ĠD er
names pace
ĠSl ov
ĠD isc
à¤ª à¤Łà¤¨
Key s
L ong
ĠOn ly
trans l
Ġsch olar
Ġcomm ittee
Ġp ict
Ġpur pose
Ġacc omp
Met a
Ġsett ings
ĠL td
à¤°à¤µ à¤ķ
Ġ} ,
Ġb ow
Ġm is
pro perties
ĠM ember
Ġv irt
ĠT al
L ife
ĠE nt
ĠDav is
Ġch airman
ĠTur key
Ġle tt
Ġbo y
Ġcom pl
P arent
ĠCh annel
ecut ive
Ġ( ,
c ome
Ġres p
Ġf un
ĠMos cow
f red
Ġà¤° à¤®
à¤¿ .
Ġr h
Ġobt ained
ĠSec urity
Ġsup ply
Ġth ous
ĠI P
à¥ĩ ?
ĠTr ust
Ġke pt
Ġ4 6
it ts
Ġc arri
Ġà¤¦ à¤¹
ĠI V
ĠF ree
Ġenc our
Ġà¤Ĺà¤ł à¤¬
Ġun less
ĠS ervices
ĠG re
Ġdef end
7 3
z h
ĠCount ry
D ocument
Ġb it
ĠSt at
Ġà¤ľà¤¨ à¤°à¤²
ent ials
r type
ic ial
ĠâĢ ĺ
Ġre ports
Ġh abit
ambig uation
ĠQueens land
d iv
Ġn odes
Ġatt ributes
Ġoffic ials
Ġà¤° à¤£à¤¨
ec ause
ĠK el
ĠU RL
Ġprov iding
M o
ac ent
ĠL ev
Ġport ray
ĠB eng
N on
Ġthe atre
Ġform ation
F inal
ra c
à ¦
est er
Ġelse if
Ġsign al
z en
Ġap i
à¤® à¤®
Ġent ert
y es
ĠV o
u v
ast e
à¤£ à¤µ
ĠLew is
ĠDes ign
dec ode
Ġ rom
alle l
Ġcomp ar
re nder
Ġstar ring
9 6
l ife
197 0
int s
Ġd ensity
itzer land
ĠA rizona
Ġs ays
ual ity
Ġà¤ªà¤° à¤¸
Ġpr iv
r um
ĠU t
S U
arn ings
and y
Ġr andom
198 8
L eg
Time out
ĠW at
ell o
Ġent ity
Ġl osing
Ġl iber
à¤¾à¤ģ ,
ch i
cle ar
J ob
Ġy ards
Ġ19 14
St r
c at
Ġext ract
A f
Ġre form
] :
loc ation
ym n
E X
Ġt aught
Ġdr ums
und er
Ġ5 2
E p
ĠF amily
N D
ĠMal ays
Ġstr ugg
Ġfact ory
ĠAff airs
Ġp ackage
ĠS av
Ġ" %
Ġcou ple
Ġe as
ĠY our
Te levision
ach ment
ĠCol l
column s
Ġexp ress
or ro
Ġrec ip
Ġà¤¸à¤° à¤²
Ġc tx
Ġser ious
Refer ence
H igh
anc er
Ġst orm
h r
Ġb urn
al so
Ġsurround ing
Ġcamp us
Ġex change
o is
Ġreg ister
AP I
we alth
ĠSh ort
Ġinstall ed
ĠB alt
Ġch osen
Ġp y
H L
Ġsc oring
cre en
J SON
à¤Ī à¤¸
pl ies
Ġupd ated
Ġhand ler
Ġmer ged
à °
i Ã³n
Ġà¤¸ à¤¦à¤¨
er al
Ġauthor ities
ĠR ang
Ġz one
Ġsl ight
Ġà¥ ®
Ġà¤µ à¤ļà¤¨
ĠS ri
f rame
m ut
Ġdom ain
Ġus ers
C ert
ĠE lement
T S
Å «
à¤ī à¤¥
we et
it led
ab ama
Ġt alk
Ġsuggest ed
Ġsy nt
Ġra cing
Ġyoung er
Ġp aid
Ġ19 17
ĠBo oks
Ġà¤ĩ à¤¶
au x
ĠI raq
ĠMel bourne
Ġt ells
Ġcall s
R et
ĠAn other
Ġacc ident
Ġfig ures
ĠOffic er
l aw
Ġ19 29
ĠH al
Ġs ure
Ġdo ctor
Ġà¤¯ à¤ľ
Ġun able
od d
ain ts
Ġ" /
Ġ193 5
Ġs pect
Ġear th
ĠN Y
Ġ19 28
ĠK al
Ġsuc ceeded
W eb
M ult
Ġà¤ľ à¤¸
Ġà¤ķà¤¹ à¤²
Ġ193 4
t mp
ĠN orm
Ġc ab
le ts
Ġloc ations
P aul
ĠC y
c ard
Ġ( ;
ĠC le
col n
Ġà¤§ à¤®
e ast
Ġfac ility
ous es
ann er
à¤Ľ à¤¨
] ['
ĠZ h
à¤¦ à¤¦
Ġ4 7
Ġmater ials
a us
t ags
') );
Ġlo an
ot ype
Ġpro per
ĠCh ris
ĠS em
Ġtri ed
ĠSt ock
8 6
ik h
iv als
R ich
ord ers
Ġsitu ation
Ġinterp ret
-------- --------
Ġformer ly
C rit
L im
Ġtr ust
Ġim ages
ĠG reg
p et
ĠC ape
Ġw atch
Ġ193 3
Ġattempt s
O pen
c ar
desc ription
H E
Ġà¤¶ à¤¤à¤ķ
sh ot
Ġrem ote
T ree
Ġsh op
e en
t ar
Ġtw enty
Ġpain ter
198 7
Ġg overnor
Ġpart ner
Ġatt acks
com ing
m aster
` .
Ġcrit ics
Ġad vert
Ġ19 00
ĠR et
ex ecute
ĠR ober
Ġcomplet ely
Ġex am
V ill
res p
ubl in
ren cy
Ġallow ing
ur ance
dis ambiguation
F O
id ge
ĠAr k
ĠLe on
Ġvoc al
Ġgo es
B O
ĠAust ria
à¤® à¤°à¤£
R C
Ġ' ',
A li
) "
Ġarrest ed
ĠF ellow
m ake
st ants
ru ce
ateg ories
An not
R obert
ĠG er
Ġcapt ain
ah oma
Ġà¤¬ à¤°à¤¸
Ġshow ed
Ġinj ury
Ġop pos
Ġscient ific
ĠK im
ĠĠĠĠĠĠĠĠĠĠĠĠĠĠĠĠ ĠĠĠĠ
ĠBar b
Ġse lection
omet ry
Ġsuccessful ly
HT TP
Ġtra ffic
ĠC as
Ġà¤ħà¤ª à¤¡
Ġax is
Ġh all
à¥ĩà¤Ĥ à¤ĥ
ĠL abor
ĠStep hen
Ġth read
à¤²à¤ļ à¤¸
ĠPl an
ĠD ig
ĠM ethod
ĠF le
Ġph ase
Ġw ins
ĠEm peror
Ġcontin ues
ĠM iller
Ġdesign ated
b r
ĠR oss
at in
M e
ĠF ame
d ocument
bum s
ict ional
ic ut
ĠG ener
Ġn ortheast
Ġteach ing
ĠCon s
Ġadv anced
g est
ate ur
ĠR on
se ction
198 6
E ducation
à¤ķ à¤¹
Ġm ales
ĠP rad
ĠK itt
n ership
el se
qu es
Ġ193 2
Ġex clus
ĠEnter tainment
ĠL ieutenant
Ġveh icles
." )
;" |
Ġf estival
ĠSur vey
Ġà¤¬ à¤Ĺ
kl ahoma
ure au
c m
at ures
cre te
Ġs ail
ĠInf antry
Ġas pect
R oman
n ap
ĠH ard
ĠNor wegian
Ġmusic ian
Ġse gment
plic it
à¤¯ à¤¡
Ġop position
ĠL INE
Ġfe et
Ġl ot
ro it
st an
Ġjob s
Ġsurv ey
Ġdis establ
n odes
hed ral
Ġhe av
Ġu int
ĠB os
ĠJ er
ĠC ra
gorith m
Ġcandid ates
ĠL ank
ing ham
Cl ub
Ġ19 24
eng ers
Ġvalid ate
Ġinsp ired
rag on
ag u
t otal
Ġend s
Ġcommand er
pt ion
Ġprincip al
Ġrel ative
Ġà¤ĩ à¤µ
ĠA st
I L
st ic
Ġà¤ľ à¤¯à¤ª
Ġ5 8
ĠSing apore
à¥Ģ ?
Ġsurn ame
ou ston
ĠE nc
Ġres pond
ut il
ĠErr or
Ġà¤° à¤¦
Ġvis ited
re ll
com ment
Ġqu ant
u ilt
Ġal one
as ion
Ġesc ape
Arg s
ce ived
Ġ àª
ĠA M
ĠA uthor
ist ant
Ġport ion
is er
Ġt er
C ase
g raph
à¤¦à¤° à¤ħà¤¸à¤²
Ġsix th
Ġhold s
qu al
198 5
olog ists
Ġà¤Ń à¤°à¤¤
Ġmat rix
B orn
C S
Ġgrow ing
b ra
d ied
is f
Ġdeterm ine
ug u
Ġsitu ated
Ġprote ction
M al
Ġs ides
ĠIn it
Not able
Ġrest aur
198 4
ĠD or
ĠDef ault
9 3
ĠB ah
Ġtra ins
Ġtrans form
ER R
Ġb ul
Ġ19 10
Ġc art
ipp i
Ġs uit
L oad
Hel per
In it
gl as
l n
Ġà¤ĺ à¤¨
Ġpublic ation
ĠTok yo
Ġco aches
Ġold est
oc ation
9 7
Ġs ample
reate st
ĠM ir
9 4
ĠP ier
Ġsaf ety
ĠLem mon
Ġconst ant
Ä ĥ
ĠLINE AR
A ugust
er ts
Ġhand s
b ell
Ġhead quarters
F rame
ĠBill board
sc ale
ĠSt eve
Ġà¤Ŀ à¤Łà¤ķ
E ast
c or
ĠSw itzerland
ĠH un
9 2
Ġpass word
R ange
Ġme ant
ingu ished
ess ions
ful ly
Ġauthor ity
Off set
ĠBatt alion
ĠHam ilton
Ġa im
Ġ/ *
N S
ĠChrist mas
I A
Ge orge
> ();
ick et
ĠB ack
Ġveh icle
sh all
Ġn orm
ĠI owa
Ġà¤¬à¤¦ à¤®
ĠSt aff
Ġend ing
Ġmet res
Ġà¤ĩ à¤®à¤°
Ġra pid
ĠT err
ĠSpace watch
Ġsing ers
Pl ot
Bl ack
ĠGree ce
B el
w ich
g r
re tt
ĠTO DO
Ġl ayer
ĠR oy
ĠCO VID
Ġà¤ķà¤° à¤£
ĠFore ign
Ġ19 27
à¤¯ à¤¥
ch annel
Ġto wer
Ġdown load
ert o
as ure
L ast
ĠAl bert
Ġpromot ion
ĠViet nam
Ġst rip
ri ev
ĠM as
Ġno thing
Ġcall ing
Ġp arser
em ory
Ġsh ift
Ġex act
Ġr isk
Ġsubsequ ent
ache lor
F eat
Ġro yal
ĠSoc orro
ot i
Ġachie ved
z one
Ð º
ĠSt one
ĠH art
ĠL iter
S an
Ġanim als
Ġs ons
inem a
Ġ19 12
Cont roller
ĠSt ory
Ġbre aking
ef t
ĠP ict
H er
à¥ĩ )
Ġdeterm ined
Ġv erb
om ic
r ations
W E
ĠTem ple
R oute
iv a
in er
Ġf ans
à¤µ à¤£
Ġgener ation
in cess
ĠMod ern
ĠA D
ĠE arl
ol ished
Ġte le
à¤¯ à¤§
ĠK a
Ġlog ging
f ect
ĠTrans port
ional ly
w ords
off s
M ilitary
col lection
V ideo
Ġ< <
## ##
Ġ19 25
Ġshe ll
Ġà¤ıà¤¡ à¤®
Ġd a
man ager
Ġà¤ª à¤¬
pr ise
ĠIl legal
D o
n est
ĠH T
Ġs an
in th
ĠO cean
ok ens
ap es
se ud
P ool
gh an
ne ctions
198 3
Ġass ign
Ġa ired
if ically
ĠAl abama
ĠTo urnament
ĠMar c
ect s
st arts
Ġen joy
user name
Col or
n ight
Ġcop ies
fer red
Ġlett ers
B ig
Ġpol ic
9 1
F unc
ali as
ad i
ĠIn valid
ĠA PI
ĠC ur
ĠC ook
ĠP ath
Ġ19 22
secut ive
ĠAnd erson
Ġre li
Ġmem or
rid ges
m ult
Ġfight ing
Ġro of
Ġ193 1
j s
Ġbro thers
UL T
Ġn ob
ĠW ell
Ġoper a
lo ok
Ġse em
sc ope
dom ain
à¤¯ à¤Łà¤¨
ĠMan chester
n ormal
ang le
ĠHol y
ip h
Ġaud ience
Ġexp ansion
(" %
Ġly rics
Ġà¤ıà¤¸ à¤ª
g ency
Ġd aily
ag en
ut er
ĠF ord
( \
ag an
ol as
Ġs ense
Ġl ab
im ents
Ġlo op
M arch
F amily
Ġ1 20
D irectory
Ġ" ",
Ġcl imate
Ġin vent
le ton
ĠC ab
ĠF ront
ĠCh ile
Ġà¤ħà¤« à¤Ĺ
à¤¸ à¤Ń
Ġcompet itions
atal og
ens or
d d
Ġnar row
Ġp iece
Ġà¤¸ à¤°à¤¸
ĠTe levision
oc ese
p ackage
Ġà¤ħà¤ª à¤²
c hen
ĠFor ces
ival ent
Ġf r
f e
S ome
Ġaltern ative
ĠIn st
Ġ19 21
Ġtem ple
Ġhistor ian
enn y
ach ing
ĠKent ucky
ris is
sh ow
Ġb ought
Ġd iplom
Ġmat ter
Ġ Ä
Ġtre es
ĠB arn
Ġcorn er
m ath
ĠA ud
ell i
ĠJ os
Ġtry ing
à¤ķ à¤ħà¤ª
à¤ĩ à¤¬à¤°
Ġsched uled
contin ue
Ġà¤¸à¤® à¤¨
O p
ra it
Ġy ellow
W orks
Ġeffect ive
rain ian
r ine
Ġdrop ped
Ġch arts
cont ains
Ġà¤¸ à¤Ł
Ġ5 6
Ġf air
ad s
Ġs ay
ĠPhil ip
ĠB urn
St ack
Par se
Ġrel atively
Ġt rib
ĠR ose
Ġst d
Ġfrequ ently
EN T
Ġà¤ħ à¤°à¤µ
ĠT s
Ġneg ative
Ġon to
ir cle
ic ode
à¤°à¤¦ à¤¸
ph as
Ġp and
Ġm and
pro duct
Ġstra ight
ef ined
add r
Not Found
C re
ord an
iss ippi
ĠT it
Ġref used
ĠT an
ĠV is
ĠN a
Ġà¤Ń à¤°à¤¨
Ġut il
res hold
Ġrece iving
Ġsy s
Ġ il
o en
St ep
ru le
Ġan aly
Ġd ates
à¤ĩà¤¸ à¤¸
ĠRe al
h at
ot ic
rom e
Ġp ull
L C
ou red
Ġv ent
el ve
Ġnot e
Ġappro ved
ĠG il
Ġà¤® à¤®à¤¤
C lose
l on
Ġw ear
h ard
ĠD un
198 2
Ġstart s
Ġh ydro
ĠPri x
ir ation
." );
Ġdr ive
II I
] ]
Att ributes
à¤ļ à¤®
ĠC emetery
b acks
G ET
Ġb illion
Ġcrick et
ĠT urn
ĠN CAA
Ġm arg
igen ous
p arser
F ollowing
Ġperform ing
Ġs outheast
ĠG i
on omy
Ġcomm it
Ġbu f
à¤Ĺ à¤ª
ship s
m ont
Ġsett led
Ġà¤ķ à¤·
ĠW he
u y
Ġà¤¹ à¤¦
Ġle ct
Ġ5 3
De lete
ĠSen ior
Ġsex ual
Ġp ages
c ustom
ĠN ev
Ġs rc
Ġex ternal
ĠUk raine
Ġtr im
Ġhor se
ic ians
Ġà¤¨ à¤¸
c ut
à¥ĩ '
Ġbe aut
er ic
ot es
Ġ ];
Wh ile
Ġv e
d irectory
Ġdep th
el er
Ġà¤° à¤ļ
ol o
Ġr ing
sy stem
Ġag o
Ġattempt ed
ĠSim on
b oy
ĠD om
à¤Ł à¤¸
fer ences
8 4
ĠAl i
Ġadv ance
à¤¼ à¤¾,
ant e
Ġ iron
Ġm ile
ĠT oday
itor ies
Ġ19 26
out s
Ġcommission ed
ĠDie go
Ġsche ma
an es
C I
P ay
pro p
w all
Ġcont ained
Ġsch ol
Ġin her
P arser
Ġar ms
ivers ary
d am
n ie
um a
Ġbe y
Ġp le
Ġst ock
Ġpil ot
ours es
r t
Ġ19 23
S eg
Ġeconom y
S am
D F
Ġqual ified
on i
Ġb ill
id get
ĠW orks
z i
Ġt ennis
Ġà¤Ł à¤ķ
Ġent itled
Ġmay or
ĠSund ay
M ount
Ġpr ice
in ces
Ġdo ing
iam i
osl av
8 3
ie val
V AL
ist a
S chema
Ġloc omot
It alian
s v
cont ents
Mich ael
ard o
Build ings
Param eters
H ttp
W idth
Ġchall eng
Ġocc urs
up l
pan ic
Ġg irls
D P
ist ers
Ġl abels
Ġl ake
à¤ĸ à¤¦
Ġ" ,
Ġpre d
Ġf olk
Ġth ir
ĠConnect icut
Ġc overs
Ġh arm
ĠT a
ĠAmerican s
get Value
Ġl ists
S ongs
Ġneighbor hood
Ġle arning
ĠBuild ing
Ġh ers
ĠN ap
ĠH amp
ĠLin coln
Ġfound ing
Ġ5 4
ĠQue bec
ĠS ound
Ġexhib ition
âĢ ł
ene z
Ġder ived
Oper ation
à¤ĩ à¤¬
Ġpass ing
Ã© t
Ġ19 16
Ġdef inition
' ).
Ġà¤ĩ à¤§à¤°
ĠJan e
Ġra in
Ġtemper ature
k ov
h op
Ġtransl ation
ĠJac ob
B ra
ap pe
p are
ch ant
ĠReg ional
à¥Ī -
Ġde cre
ev in
ĠSh ar
ĠT ar
ĠCro at
Ġtr ig
ect ive
op es
Ġcons ult
à¤°à¤ķ à¤¤
8 7
ĠN ote
ĠRec ord
Ġcomb at
Ġ25 0
à¥Ĥà¤Ĥ ,
Ġcon secutive
ect ure
ĠTurk ish
Ġà¤Ńà¤° à¤ª
H A
Ġre ar
cept ions
ĠO klahoma
Ġbro ke
L abel
g rade
Ġman agers
ut ies
Re ception
ĠBul g
ĠHe art
ĠEx ecutive
Ġex pect
ĠMar ine
C or
t rim
Ġpre par
B U
Ã© s
Ġop posed
Ġdom estic
D om
Ġà¤ķ à¤¥à¤¨
ĠT el
v ol
Ġbey ond
Ġjud ge
Ġemploy ed
ĠSh er
ĠHow ard
ĠPh ys
n on
à¤µ à¤¡
ĠAr men
Ġb ra
Ġinc ident
à¤¦ à¤ª
Ġ19 15
L en
ĠS ix
ĠPrad esh
Ġact s
d ig
Ġattack ed
f riend
n ote
Ġperman ent
A v
Ġw inter
T H
itts burgh
res ources
Ġliter ary
196 0
Ġà¤ķ à¤µà¤°
che ll
ut ed
ĠPortug uese
ĠD ream
Ġbehav ior
Euro pe
im ore
Ġà¤ħà¤« à¤¸à¤°
à¤¸ à¤¹
An y
C P
az on
Ġà¤° à¤«
Ġpresident ial
Ġfoc used
w ick
Ġh yp
ut ils
Ġcol lected
ir us
ĠWh it
ĠAll en
Ġactress es
ant on
ang er
Ġapp arent
Ġj azz
ann ed
Ġinh abit
Ġà¤ĵ à¤ªà¤¨
Ġà¤Ķ à¤¦
Ġpro tected
Ġl if
Ġkill ing
Ġgu ard
A ng
F ootball
Ġfact or
st ar
Ġà¤ķ à¤¦
Ġm orning
Ġà¥§à¥ ¨
pl ode
Ġvis ual
p erson
ugh t
Ġdef ense
Ġview s
ra ction
olog ies
Ġse ctor
ĠN ative
Ġ5 7
Ġreason s
s um
o a
f in
à¥ģ -
Ġv ice
ĠLab our
ĠH ash
à¤£ à¤®
al ia
Ġle arn
Ġag ed
ab ilities
à¤ı à¤µ
Ġ19 11
Ġà¤®à¤¶ à¤¹
Ġf ought
Ġconsist ed
Ġb ottom
h att
Ġse ed
Ġcompon ents
ĠĠĠĠĠĠĠĠĠĠĠĠĠĠĠĠ ĠĠĠĠĠ
ĠC ost
c i
Ġrepresent ative
ĠG all
g ov
ĠG ordon
Ġà¤ıà¤ķ à¤®
ĠBr un
ĠSe ver
inc orporated
P RO
pro file
ĠG ram
ĠHar ry
S k
cont roller
ile y
Ġext ensive
Ġins ert
P AT
Ġm ask
Ġw ays
Ġshort ly
Ġoccup ied
ĠAdminist ration
Ġar ran
198 1
Ġhold ing
Ġfund ing
à¤ī à¤¦
ru th
ĠTh er
à¤² à¤ľ
Ġt or
in ate
Ġmid field
ro ke
Ġref ers
ĠChild ren
s he
Ġp ieces
ur ric
Ġdel ay
ax is
t ry
E ach
- +
am l
ĠT ony
ĠP un
ĠG ib
and ra
or ough
Ġpower ful
ĠArgent ina
ĠSw iss
Ġch urches
ĠV ice
Ġm o
ĠA ge
Ġspe ech
Ġt c
ĠN aval
com ponent
Ġrequ ires
8 2
Ġb r
ism s
ĠH ockey
St orage
ĠD omin
ĠAd v
el le
Ġl ib
197 9
ĠL ike
_ ,
J une
ĠB ureau
ĠD yn
b ind
ner gy
ĠWal ter
ate gy
emb le
S ch
ĠE c
ĠĠĠĠĠĠĠĠĠĠĠĠĠĠĠĠ ĠĠ
us al
ĠD ate
go ing
ĠK at
iss ance
Ġenvironment al
Ġà¤Ķ à¤¸à¤¤
à¤¸ à¤«
Ġà¤ī à¤Ĺ
Ġcontra st
Ġret irement
Ġs ust
ĠF inn
ĠN ag
G ER
P o
ĠL ind
Japan ese
ĠT able
B ox
ĠN FL
ĠArray List
Ġdirect ors
Ġhers elf
Ġk ick
Ġsports people
st ances
ĠT en
Ġ' "
Ġ7 2
d ale
Ġget ting
à¤Łà¤° à¤µ
Ġv ac
Ġoff ices
à¤¯ à¤Łà¤ķ
R ole
ĠBrig ade
Ġà¤¨ à¤®à¤ķ
Ġg ene
ri eve
Ġf resh
ograph ical
Ġalleg ed
Ġn uclear
R ule
ĠG ard
G en
ay an
ĠDo ctor
Ġanim ated
Ġtouch down
ab y
Ġk il
Ch annel
Jul y
ĠP M
ow nt
ĠN ich
Ġfl at
ĠSqu are
ĠM it
Ġre duce
ool s
' m
un it
ar ry
Ġf ashion
op ter
che me
` ,
Ġw ound
Ġs and
are st
Ġà¥§à¥ «
ĠF und
ov ed
ĠL ow
P e
ĠLouis iana
à¥Ĥà¤ģ ,
Ġf uel
p m
un s
ĠN O
loc ale
S ER
path s
ĠLiber al
ĠHon or
ĠĠĠĠ Ċ
ĠE vent
Ġpat ients
ĠMod el
ĠLegisl ative
ail and
ĠH ouston
ipp ing
rag ment
Ġrecogn ition
Ġ190 8
o oth
F lor
Ġro ugh
Ġtechn ical
ur is
Ġin valid
Ġre ally
Ġult imately
act s
az a
Ġcontribut ed
Exp atriate
8 1
ĠY outh
ĠS ky
Rail way
H istor
ĠW y
P olicy
ĠK y
ic ide
Ġexp ressed
Ġrelig ion
Ġsupport ing
Ġà¤¤ à¤¹à¤¸
Ġpass es
Ġsoc cer
197 8
B LE
d on
Ġch oice
pos es
He ight
all ed
Ġà¤¬ à¤ķ
el son
Ġan sw
à¥Ģ "
Ġweap ons
if ul
Sc ott
ud a
Ġslight ly
Ġhigh way
Ġ19 13
red ited
reg ister
ĠIn formation
Ġà¤ľà¤¬ à¤°à¤¦à¤¸
Ġà¤® à¤Ľà¤²
à¤ª à¤¹à¤²
à ¸
ot te
az ines
Ġin aug
uss ion
ĠEn vironment
Ġobserv ed
ry st
à¤¿ '
Ã ¥
ĠCl ark
group s
ag ues
Ġà¤ķ à¤¤
Ġcomp ris
ar o
tra ce
Ġinvestig ation
à¤ªà¤° à¤µ
ĠEx t
ĠVill age
hent ication
ĠR ol
B efore
ĠTai wan
Ġrequest ed
% .
Ã ´
ĠB rand
Ġch ampions
ĠR ow
R S
J son
P an
Ġair port
Ġst ack
wh ite
Med al
hemat ics
od ox
ĠHer itage
Ġste el
Ġappro pri
ex it
Ġdyn asty
ew ork
Vill ages
For mer
ĠC irc
Sh ort
am pl
ĠMiss issippi
in burgh
ran e
ĠEx press
Ġfind s
Ġb udget
Ġeduc ational
Names pace
ĠG irl
ĠE ag
Pos ition
Ġon es
Ġf aced
Ġord ers
clus ion
Ġt ropical
à¤ı à¤Ĩà¤Ī
ov o
Ġcent uries
ĠK am
arn er
ĠCh ampions
Ġ" .
S pace
ar ation
Ġviol ence
Ġre nder
ĠAl ber
ĠP ot
ĠD ublin
os itory
Ð »
ac count
ri k
ĠCommon wealth
V is
at ically
Mod ule
ĠAn ne
à¤µ à¤¤à¤¨
Ġsub str
pos itory
ro t
Ġpay load
Ġestablish ment
ĠLoc al
ĠP ope
ĠN ick
ĠF a
Ġ< -
Ġsk ip
Ġ' \
Ġà¥¨ à¥¦
Ġ5 9
00 00
U M
ĠC EO
ĠBelg ium
ĠW olf
ĠCh all
Ġà¤¬à¤¨ à¤ķà¤°
Ġà¤°à¤ĸ à¤ķà¤°
Ġà¤ķà¤² à¤°
m ember
Ev ents
A pril
M ost
ĠAp p
rel ation
al og
ĠD C
Ġcast le
u h
ĠT erm
ĠB ou
Ġà¤Ĩ à¤ĩà¤ı
ĠP a
ĠSt r
ĠI r
h igh
Ġ io
ĠR eb
sy nc
C ond
ĠPl ace
ĠG ab
Ġw alls
sp ace
Ġpaint ings
os er
c fg
Ġfund s
l ang
Ù Ĭ
ĠJ ay
ĠG lobal
hed ule
Ġsche me
ant asy
Ġà¤Ľ à¤ł
ĠD ur
ĠThe n
Ġ9 9
ĠAm ong
ĠBrazil ian
S earch
n ia
à¤¼ à¥Ī
Ġà¤¦ à¤«
Ġfav our
ĠHaw ai
Ġà¤ļ à¤®à¤ķ
M C
Ġf ranch
ĠSt ew
ĠP rom
d ie
ĠSh ah
'. $
Ġde leg
Ġexist ence
à¤Ŀ à¤¸
Id s
final s
ĠIn ternet
Ġget s
Ġf ix
ock er
g ments
c as
lo yd
Ġenem y
St ar
H en
Ġà¤Ń à¤¡
Ġs ac
197 5
Ġmin imum
197 7
ĠB uff
T wo
us hed
à¤Ľ à¤¡
Ġplann ing
j ection
ĠVal id
Ġà¤ľ à¤Ł
f aces
Pr int
Ġ6 6
Ġpoet ry
Ġr ival
ĠDou glas
se ct
ra cy
à¤ĸ à¤Ń
T it
Ġprogram me
Ġw ind
Char les
Ġpow ers
Se ptember
Ġem phas
ĠIn n
ĠB an
Ġst adium
19 50
get Message
Ġlaw yer
Ġdoc uments
Sett ings
à¥ĭà¤Ĥ à¥¤
Ġre ign
Ġà¤¬à¤¨ à¤µ
Ġà¤®à¤¹ à¤ľ
Ġcollection s
à¤® à¤¹à¤¤
ĠHot el
eg a
Ġregard ing
ĠSil ver
à¤° à¤ķà¤°à¤£
rick et
Ġwe alth
Ġband s
O ctober
ĠR ound
ell ite
Ġind ependence
Ġc row
Ù ħ
i ary
am o
Ident ifier
n il
Ġsh ut
Ġaband oned
Ġà¤Ĩà¤ª à¤¤
Ġà¤°à¤¹ à¤¸
Ġadv ant
Ġval ley
Ġar rang
h ol
ess ed
ap y
Ġpre v
ĠTam il
Ġgl ass
e ach
leg es
Ġs ought
c ourse
Ġb inary
c ategory
s ing
Ġform al
Ġdevelop ing
Ġgun s
ĠF ace
Ġ8 5
Ġhot el
C opy
ra v
arg o
Ġà¤ĵ à¤®
ĠM A
Ġenc oding
ĠL anc
ĠRes erve
à¤¤ à¤ķà¤°
AT ION
ĠPortug al
Sc ope
Ġt x
Ġà¤ī à¤§à¤°
ĠS in
FA ULT
j ab
Ġà¤¦ à¤¤
Ġtransl ated
ĠB ecause
Ġc as
Ġà¤Ľ à¤µ
bor ough
Ġinflu enced
Ġvari ables
Ġg rade
um ar
Ã «
miss ions
Ġcrick eters
Ġà¤®à¤¨ à¤®
ĠD a
arg uments
à¤ıà¤® à¤¸
Ø§ ÙĦ
Ġis lands
ĠK er
if er
ap plication
Ġbuild er
ĠAf ghan
Ġrepresent ation
oun ce
ĠOper ation
Ġpart nership
Ġcl in
ĠPat rick
Ġd iam
Ġe g
Ġà¤ľà¤¨ à¤ªà¤¦
Ġaff ected
P erm
od a
ident ifier
Ġrequest s
Ã³ w
ĠL eb
Un it
b urn
D C
z ip
Ġg ar
in ks
Ġarg ued
Ġid x
ĠCon fig
Ġb ond
ĠFred erick
Ġse ctions
ĠDet roit
D own
Ġm essages
M sg
à¤¯ à¤Ń
Ġpe ak
ist ing
Ġf ixed
ĠM and
en ers
Ġcor por
m illion
Ġan cest
Ġch annels
Ġtra ce
Ġw or
ĠN ig
Ġà¥¤ '
Ġca using
Ġconsist ing
re nt
Ġfin ishing
ĠD anish
ĠN et
Ġà¤ªà¤¦ à¤ķ
or f
à¤Ń à¤¦
U ID
Ġb rown
Ġsome one
v als
ĠC ensus
ĠL ast
Ġpol l
ph one
Ġra p
à¤ ³
C ap
are n
Ġworld wide
m ail
Ġbl ocks
197 6
ĠHar vard
Ġmom ent
ond er
)) :
Exp ression
m outh
ĠD al
ĠN av
ĠBo x
Jan uary
Ġpre dict
Ġinj ured
ĠPer form
be an
Ġext rem
ĠC rit
ĠT ig
Ġca uses
ĠHar ris
Ġsol id
à¤¾ à¥ħ
ĠC op
ĠD VD
ĠAb out
R ussian
V ar
Ġà¤¤ à¤ª
ĠN ik
Ġres erv
P ri
ĠRun time
Ġa id
p ubl
ĠMo ore
197 4
Ġatt ached
Ġdec ades
ĠDen mark
) ),
Ġsp ot
Ġh ttps
Ġcerem ony
ug ar
ĠIndones ia
ĠH ills
tt y
Ġà¤ľà¤¨ à¤ľ
ĠK az
KE Y
Ġà¤¯ à¤ķ
Ġà¤¬à¤¤ à¤²
level and
m ask
Ġfle et
ĠS port
ig in
is Empty
Ġprocess ing
D an
Ġ" '
Ġh our
ĠD ark
UR I
Ġinv ited
W S
ã ĥ
ĠI N
class Name
Ġbo at
ĠJes us
ĠG arden
ĠAd am
rap ped
C ore
Ġt ail
Ġb odies
Ġp un
ĠD ak
ad h
ro id
ig e
Ġstri ke
Ġm ind
Ġc ru
Ġà¤īà¤ł à¤¤
Ġm ent
ang el
ĠIm perial
ownt own
ke ep
ERR OR
Ġpublic ations
Ġrefer ences
H as
Ġste am
Ġp up
M at
Ġà¤Ĩà¤ľ à¤®
own er
ĠCol omb
Ġr ise
à¤ķ à¤²à¤¤
ĠDel hi
U ri
or ity
it als
Ġc riminal
Å Ł
Ġpro ced
ug ins
w s
n old
ĠB efore
ash i
à¤ł à¤Ń
Ġres igned
c f
[ -
Ġst ating
an ian
ram a
Ġà¤¬ à¤Ł
Ġd ry
197 2
ĠM icro
Ġv oted
Or gan
Ġ ip
ren a
Ġtrans ition
ĠÃ ī
ĠV ideo
Ġà¤Ĺ à¤¢
Ġz ero
S o
ĠD h
Ä «
ĠN umber
D oc
v ements
B en
ĠC are
ĠH u
Ġà¤Ĺ à¤µà¤°
Ġpass enger
Ġgener ated
uk i
ĠP age
and o
Ġinc orporated
Ġanim al
Ġhapp en
so ft
à¤ķà¤¤ à¤°
Ġ189 0
Ġà¤Ł à¤°
à¤¿ à¥¤
à¤¹ à¤Ł
Ġcorrespond ing
ĠR ights
Ġstand ards
Ġà¤² à¤ķà¤¡
ĠR ey
Ġeng ines
ĠComm ander
Ġinhabit ants
Ġpro ceed
Ġprom ote
Ġposs ibly
ĠArk ansas
Ġv o
Pl ace
em en
Ġt end
U K
ĠB rian
Ġmod ified
197 3
ĠP sych
ĠTh ird
ĠDep uty
ĠR est
Ġdep ict
edd ing
Ġà¤ĭ à¤¤
ĠBow l
res ents
all as
Ġeth nic
Ġent rance
if iers
à¤¶ à¤¬
ig ious
Ġà¤ļ à¤ª
Ġtra v
as a
Ġimport ance
ĠAnton io
ĠR ab
a ire
y stem
à¤Ĺ à¤ķà¤°
over y
Ġs oci
ition ally
Ġ6 3
f ather
st orage
hip s
ir i
ap olis
ĠP ref
Al though
Ġinvol ving
ĠN ame
Ġm oth
ĠS el
De cember
ent ially
ĠO d
Ġres erve
ĠE ric
Ġà¤Ĩà¤Ī à¤¸
C B
ĠTh rough
Ġà¤ª à¤¥
Ġn ick
Ġj unior
ish ops
Ġ} )
Pro ject
Nov ember
Ġm ac
á »
ĠRober ts
ĠPh ill
ĠEd inburgh
ra k
Ġback ing
ach er
Ġrow s
ĠIsl amic
id el
N etwork
ĠCh airman
Ġchem ical
197 1
Ap i
Ġh ired
ĠStud ios
Ġà¤Ľ à¤ķ
Ġdev ices
Ġde put
ib l
Ġimpro ve
à¤ĩ à¤µà¤°
Th omas
b ey
Ġconstitu ency
y ers
Ġse ems
Ġà¤ľ à¤ľ
ĠC ow
ĠT reat
ĠDis ney
ĠTh ailand
f etch
pl ot
ĠAnth ony
Ġro utes
Ġà¤ĸ à¤¨
ad ed
Lo ader
ĠF M
Ġsign ature
Ġheav ily
ist ed
Ġequ ivalent
By te
Ġan th
ĠM iami
Ġap plications
Ġcapt ure
Ġop in
st ats
ĠInd ependent
à¤¸ à¤ªà¤°
el and
ol ph
ĠF arm
oc ate
Ġbro ken
ĠR ural
return s
Ġà¤ľà¤² à¤µ
E P
Ġsort ed
iss ions
à¤Ī à¤ĵ
Ġspec ifically
Ġentire ly
I G
ĠW rest
Ġà¤ıà¤¯à¤° à¤ª
ĠAss oci
usc ript
ĠH unt
Ġprote in
th odox
Ġstr ateg
Ġs b
m u
tem p
ĠAm b
et ies
arch y
Ġext ends
Ġà¤¯ à¤¶
Ġp ed
Ġcy cle
à¤¨ à¤Ĺ
Ġdo ct
à¤ıà¤¸ à¤¸
Ġlic ens
ĠC ru
Ġl aid
bo ards
Ġ' _
Ġà¤¶ à¤°à¤£
ĠP ap
ÃŃ n
ef ul
ch ain
ĠW indows
Ġign ore
Ġ' ')
ĠMalays ia
Ġexecut ed
Ġnames pace
ĠB ry
m ph
Ġà¤ ·
ather ine
Ġà¤Ł à¤¨
ĠĠĠĠĠĠĠĠĠĠĠĠĠĠĠĠ ĠĠĠĠĠĠĠĠĠĠĠĠĠĠĠĠĠĠĠ
ĠM ult
Ġex amples
in cluding
Ġemploy ees
ĠCommun ist
Ġac id
Polit ical
Ġs printf
m ers
ed ge
Ġrecord ings
Ġdid n
? "
à¤ıà¤¸ à¤Ł
A lex
Ġsaf e
Ġ queue
Ġp ione
ĠPal est
r in
oc a
Ġin ner
Ġdescrib es
s ong
ĠD at
Ġà¤Ĺ à¤µ
Ġmaint ained
Ġf ine
d isc
Ġsqu adron
Iter ator
ĠAb d
Ġà¤ħà¤ª à¤®
un nel
get Id
Head ers
w en
ur day
On ly
Ġcon cluded
enez uel
ct ic
Ġst ores
196 8
ram ework
Ġcompos ition
'] .
M ain
Ġcl uster
Ob j
n etwork
ut f
ĠMay or
Ġp ip
UL L
ĠB us
ĠPal ace
ĠAust rian
Ġsc enes
ĠM oon
omp son
it ched
ĠHung ary
Ap plication
ra structure
' ll
t ol
à¤ĩ à¤ľà¤°
Jo in
er on
Ġà¤² à¤µ
ird s
ĠH ug
ĠB art
ra f
Ġ6 8
Ġ190 5
ĠPu erto
av i
ĠMark et
Ġcomb ination
Ġ6 7
Ġb an
Ġarch ae
Ġbir ds
ley ball
Ġtra ined
Ġed ited
in v
ĠR ugby
ĠRes ult
Ġ9 5
Ġeng aged
Ġre nd
! "
I M
ĠL as
Ġsup erv
ĠF all
C red
ĠM rs
L ou
Ġb atch
ro c
Ġà¤ı à¤Ł
ĠWel sh
Ġg ain
Ġent ries
M er
Ġà¤Ĩ à¤«
âĢ ¢
Ġad vent
Rich ard
Ġw itness
à¤ł à¤¤
ĠIsrael i
Ġpra ised
ann y
ĠAl an
H S
Ġà¤īà¤¦ à¤¯
Ġrep resents
Ġun iform
het ic
à¤°à¤® à¤¶
à¤Ĺ à¤ł
Ġbelie ve
u is
Ġjo ining
Ġdest ination
à¤ķ à¤Ī
196 9
ĉĉĉĉ ĉĉ
Ø ±
Ġatt r
Ġcom ic
ide os
Ġfound ation
ĠOr chestra
pay load
Ġm urd
ĠS ign
int end
s im
Ġstreng th
Ġwh y
ĠRoman ia
Ġin form
Ġprov ed
Ġdiffer ence
Ġwe ather
Ġ190 6
r ase
h aps
el ess
ĠMc G
ocr atic
Ġcon version
Ġreach ing
Ġrepe ated
ok es
ĠL am
M ag
P eter
ĠMed icine
Ġcompet e
fore ach
Ġà¤¸à¤¹ à¤ľ
Ġproduc ing
class es
Ġ190 7
Ġh air
P al
++ ;
GB T
Ġide as
Ġ6 2
Ġto ward
c oh
Ġà¤® à¤°à¤¨
I ST
Ġag ency
... )
Ġadapt ed
G A
Ġà¤Ĺ à¤¦
ĠO ak
ĠRail road
ĠM ake
ĠMount ains
Ġsyn chron
ĠG on
Ġexper i
Ġà¤ĸà¤¤à¤° à¤¨
b atch
Ġpar allel
Ġsecret ary
ĠM aur
Ġtem porary
Ġa head
Ġm el
ĠMc K
Ġexp ed
put er
. âĢĿ
Ġm ach
Ġhe ard
Ġpath s
Ġentert ainment
b al
w ig
e lection
Ġacc used
n amed
Ġintro duction
est ed
Ġs ale
M c
Ġb ishop
Ġhom es
ink ing
ran ches
ĠDe ath
ĠUt ah
Ġ190 9
Ġm olec
ĠC atal
. ',
Pro duction
Ġr uled
ĠF ern
? (
ĠJ ordan
ĠVi enna
ĠTr ump
à¥Īà¥¤ "
or us
g ate
Ġh its
Ġsub sid
ĠBalt imore
Ġpremi ered
Ġtw elve
v ant
Ġ' -
Ġnum py
ra ce
Ġre ality
ĠInd ex
()) );
Que ue
C R
ou ch
Ġr ating
sequ ence
Ġt ries
dev ice
St ruct
S eries
à¤¾ à¥ĩ
Ġgener a
Ġm art
ĠN ar
ĠWalk er
le ased
ess ment
ĠA re
res olve
Ġdeg rees
. (
ĠCh ampion
Se lected
Ġtest ing
Ġres olve
ĠV in
u er
à¤¯ à¤°à¤®
ug oslav
Ġun set
D ay
Ġà¤¯ à¤¤
p lement
ĠL yn
Ġclos ely
pos s
LO G
ĠGo ogle
F M
ĠG a
ĠJ uan
Ġqu ite
Ġopportun ity
Ġà¤Ĩ à¤®à¤¤
ĠC ond
ĠRe port
Ġex it
ĠDef ense
Ġlook ing
ist ent
O K
ĠF riend
Ġinv asion
Ġhost s
ĠP ur
P rim
ĠMont real
F ore
d irect
Sc ript
oc racy
d ated
Ġm ilit
ĠBudd h
on om
Ġh unt
D uration
ĠF A
ĠWh o
in ian
Ġ190 4
Pro fess
oc he
ĠOr iginal
Ġinter ior
ss on
mon th
or er
Ġal ter
Ġp od
Ġà¤¶ à¤ªà¤¥
ah n
ĠArch itect
ĠP eters
Acc ount
Ġreplace ment
Ġprot ocol
Ġadd ing
Ġsevent h
m ain
ĠHistor ical
cl osed
Ġà¤ıà¤¡ à¤µ
Ġcomm itted
d y
atter y
Ġag greg
Ġbrief ly
av el
Ġem ot
n an
B E
Ġà¤¸à¤« à¤°
ĠMP s
Pro file
ad min
if ies
og ether
ĠP ed
ĠD ance
ĠLaw rence
ĠAtl anta
ĠPl ayer
um in
Ġres idence
Ġà¤ĺ à¤¡
Ġimpro ved
um ps
arm a
Ġoper ator
A ir
ĠĠĠĠĠĠĠĠĠĠĠĠĠĠĠĠ ĠĠĠĠĠĠ
Ġrequire ments
ad ing
ĠF urther
ov ation
à¤ªà¤° à¤¸
ĠR ace
Ġland s
Å Ħ
ĠHol lywood
Ġcomp ilation
ĠF al
Ġcont rolled
ĠF il
Ġm ist
ĠN ode
Pat tern
Ġpri ze
F S
Ġadj acent
Int eger
ĠAg ency
Ġf ill
in clude
ĠA le
Ġrel ation
Ġvol unte
f ire
ĠF ight
ĠP ittsburgh
Ġlead s
ust ed
Ġà¤¥ à¤ķ
Ġdiv isions
ĠHamp shire
Ġcon vent
b ridge
ĠSam uel
Ġany thing
Ġ que
T own
erb ai
Ġass umed
PO ST
ĠCon stitution
Ġt ank
v as
Ġà¤ĳà¤« à¤°
3 00
Ġdo or
Ġcontribut ions
Ġtem p
ol ly
Ġar med
ern el
re v
Ġacc ur
ĠStew art
ĠH ans
ins ert
ĠFin land
Ġs un
on ial
ĠPe ace
M any
lad esh
Ġch ose
A uthor
M art
ĠB asketball
ĠF ac
Ġoper ate
Ġsur g
ĠS S
ĠI ron
Ġre action
Ġis ol
St yle
ĠTra ining
Ġstop ped
ĠD eb
Hand le
ĠL ang
Ġbel ief
loc ks
Ġtechn iques
Ġs ummary
Ġclass ification
Ġdra wn
Ġfact ors
Call back
ass ador
param eter
Ġgood s
h ai
Ġ7 8
ins ula
med ia
ĠU se
Ġ6 00
Ġrev olution
Ġagric ultural
ir ates
ĠY an
ch or
Ġf ly
Ġd ivers
Ġphilosoph y
err ing
n ik
ĠJ am
Ġpaint ers
aval ry
gener ate
Ġap art
ĠWh at
O ld
ch t
og en
ish ment
à ®
Ġground s
aught ers
w d
Ġr ich
iver pool
Ġearli est
i ac
ĠH orn
Ġbound ary
ĠK ings
ine a
Ġt ags
iv ated
Ġdist ributed
Ġregard ed
ĠM aine
4 00
Ġcost s
Ġpur poses
196 7
It ems
Af ric
Ġnorth west
B ur
w as
ĠLank a
enc ing
M ill
Ġde ploy
es a
in ch
l at
Ġres istance
Ġaut o
sh a
ĠPubl ishing
ob a
Ġcollabor ation
ĠP ad
Ġs amples
Ġb ed
Ġmot ion
ĉ ĠĠĠ
Ġb rain
ĠE arly
app ly
ĠAg ric
Ġcharg es
Ġmin ute
% ,
row ser
Ġmed icine
ĠP ow
ĠL et
Ġcompos ers
Ġreject ed
object s
ĠSe ason
Ġinterest s
ĠType Error
Ġmet a
Ġ188 0
W eek
ĠHung arian
ĠD E
Ġd type
(" \
Ġgradu ate
Ġhum ans
ĠR an
ia h
l ig
F ebruary
ar ks
ĠE ven
ĠO ri
Ġproduc ers
con vert
Ġrun ner
Vol ume
. ')
it able
ĠR ap
Ġcl er
à¤¯à¤¸ à¤Ń
Sp anish
Ġso le
Ġà¤¸ à¤Ĺ
à¤¼ à¥Ģ,
-+ -+
) (
T ube
s printf
ĠD ue
Ġleg end
Ġdis miss
Ġtri p
al ty
Ġt mp
È Ļ
Ġà¤ı à¤¨à¤¸
ar p
ot hes
Ġch air
N ow
Ġw aters
Ġshow ing
hib ition
ĠW right
Ġpolic ies
ĠS ud
ĠM ission
Ġschol ars
Ġà¤¬ à¤°à¤¤
Ġà¤¯ à¤®
ĠIn vest
tim estamp
is ode
Ġ6 1
Ġroad s
D ig
Con s
Ġelect ronic
Ġeas ily
f ast
à¤¯à¤² à¤Ł
Don ald
'] :
Ġ190 1
g on
Ġb in
Ġm ort
Ġhe at
Ġ ere
=" #
iv ation
Ġathlet es
duc ing
Ch ange
Ġd ie
ag ram
ĠN ob
Ġstr ategy
Ġpre ced
Ġprocess es
Ġaccomp an
ad r
ul us
à¤ķ à¤ķ
G l
Ġprom pt
ĠG rant
b ach
ĠS i
sup ported
T erm
N odes
Ġ? "
Ġà¤Ŀ à¤Ĺà¤¡
Europe an
ann on
Ġsurv ived
Ġt f
Ġsepar ated
Ġa ware
Ġfre edom
Ġm apping
Ġmeas ures
Ġà¥§à¥ Ń
# {
Ġn one
ĠAd vent
Ġdr ivers
Ù Ī
ran ean
T x
Ġparticip ate
Ġunivers ities
Ġex ecute
Re lease
os m
ĠAll iance
Ġs olution
ograph ics
ĠB ed
ar ant
ĠSe attle
Ġn arr
c ap
Ġ7 6
il k
Ġcover age
ĠM i
ĠIsl am
Ġo vers
Ġ[] )
count ry
ĠL ib
Ġsub stant
ĠT ag
ĠMet ropolitan
build er
r us
ten ance
Ġrail road
aw are
Ġevery thing
Ġmed ium
ĠC rown
ĠD aily
Ġà¤ĳ à¤ª
Ġperson s
g ow
uz z
R aw
Ġf n
d iff
à¤ļ à¤°à¤£
ĠLa ure
Ġpl ugin
Ġpl ane
ac on
def inition
w arning
ĠN on
ĠB omb
Ġr u
d ouble
i op
Ġto k
Ġtrans action
Ġà¤§ à¤°à¤¨
Ġlin ked
aly mp
a ired
Ġc rown
res et
ĠR io
ĠV ik
i ot
ĠA ction
Ġà¤Ł à¤ķà¤°
Ġdeliv ered
Ġsk ills
Ġc ourses
Ġmaint ain
Ġoppos ite
cle an
ming ham
B et
A G
Ġà¤ķà¤¹ à¤ķà¤°
Ġg reatest
ĠL ith
Ġmar ine
ĠĠĠĠĠĠĠĠĠĠĠĠĠĠĠĠ ĠĠĠĠĠĠĠĠĠ
Ġdam aged
ĠKenn edy
) ->
Ġfrequ ency
Ġf lying
at ar
: ]
Ġsing ing
ĠRob inson
pr ison
Ġint elligence
ar us
ĠH as
w arn
ina e
ĠK B
add ing
Ġà¤Ĺ à¤®
ill o
D irect
ĠB uck
Ġven ues
Rep ository
ari ables
an im
à¤µà¤¸ à¤¨
ĠĠĠĠĠĠĠĠĠĠĠĠĠĠĠĠĠĠĠĠĠĠĠĠ ĠĠĠĠ
ab et
Ġà¤®à¤¤ à¤Ń
s ch
Ġà¤² à¤²
G raph
v ars
ĠAthlet ic
ĠH om
up s
ĠMor gan
ĠMet ro
Ġà¤īà¤ª à¤®
att ers
Ġown ers
Con stants
Ġà¤ıà¤¸ à¤¡
over ty
mer ce
ĠOr d
um ption
Ġ6 9
Ġà¤¬à¤¨ à¤°
R oyal
Ġprep ared
Ġresc ue
P ackage
à¤¾ !
Ġà¤ªà¤° à¤¤
umb ent
Ġres ign
Al umni
ĠB eat
Ġj ump
ok a
Ġ7 4
Te am
E E
à¤ī à¤²
Ã¨ re
ĠOtt oman
Ġà¤Ĩ à¤°à¤®
Ġo x
ĠC ulture
f ailed
Ġstand ing
ĠG ran
Ġà¤ĵ à¤¡
Ġshoot ing
Ġre ception
ĠI mp
ĠC ole
Ġ190 3
Ã© n
Ġast ron
h ab
Ġw orth
ĠE nergy
Ġà¤Ń à¤¤
ĠDak ota
' ve
Ġw indows
à¤ħ à¤ķ
à¤¹ à¤µ
ĠN eb
uc ks
C F
N um
Ġa f
ug s
Ġund ert
Ġ190 2
ĠJ un
ĠR y
B ad
Ġpass engers
Ġlegisl ation
ĠG irls
Ġg ender
Ġcolon ial
p red
Ġà¤ª à¤µà¤¨
à¤¯ à¤Ł
duc er
Ġen umer
ĠR ot
s ocket
Ġcon sole
c over
ĠP as
ĠO ur
pect ive
ent ed
ĠA BC
ĠO m
196 6
ang o
Ġcritic ized
ĠOper a
Ġcommun ication
ĠCh amber
ĠTh ompson
ĠIn s
f older
Ī Ĵ
Ġpubl ishing
comm un
ĠSen ator
Ġca ught
Ġregular ly
ĠK o
Ġchall enge
Ġupd ates
Ġà¤ħ à¤µà¤¤
S chool
196 4
/ %
S al
Ġpre g
C LA
c rit
à¤Łà¤¨ à¤°
Ġmy th
Ġdef ensive
P L
Ġexpl ode
Ġst ored
od ge
apt ist
am ents
amp s
sh ort
ĠB ull
ĠO fficial
ĠH op
r ating
Lim it
Sup er
ol ia
ĠF ried
Ġimplement ed
ĠK arl
Ġà¥§à¥ ª
c p
Ġactiv ist
rib ed
`` .
ph an
ĠUp date
uff ix
le ans
wh o
Ġher o
C L
ĠBroad cast
f amily
Child ren
f ree
( !
ĠC ricket
ant ly
Ġg rid
196 5
g rid
ĠC leveland
ed ing
as i
Ġt ack
ou ver
AT A
ĠAuthor ity
Ġh am
ĠDon ald
Ã ł
Ġaud io
Ġfranch ise
ĠS ax
Ġro ut
h u
Ġneg oti
pro xy
Ġmer ge
ĠD ick
ĠBet ween
Ġf an
Ġstand s
itor ial
ĠK an
ĠUn it
} /
ar at
Ġw rong
rupt ed
yth m
l ie
omm od
Ġl at
Ġvar iant
Ġr ivers
à¤Ĺ à¤¯
Ġcol our
J ew
ĠR ub
ov es
ĠTr ade
ĠOb last
Ġlocal ity
Ġf it
ĠP atri
or row
comm on
Ġn aval
Ġinvest ment
ĠD ave
Ġthe ore
pl ates
M ac
Ġd uty
à¤ī à¤¨à¤ķ
à¤Ĩ à¤§
Ġre new
Ġs umm
Ġadvant age
à¥ĩ à¤ĥ
ĠRes ponse
Ġà¤°à¤ķ à¤®
S ir
Ġà¤¸ à¤¦à¤°
ĠRuss ell
ort on
Ġdesign s
Th read
Ġsom ew
th a
Ġret ail
am an
Ġfa ith
Ġd f
194 5
Ġdesign er
ĠA rena
L ater
Ġro oms
ĠBoy s
ĠUk rainian
ĠM ong
ĠP ear
Ġà¤§ à¤°à¤¤
Ġtest s
ĠK ap
Ġcomm une
Ġa er
ish ments
ĠBro thers
Ġjourn ey
requ ired
( ['
Se ason
à¥Ģ /
ic he
ĠC ase
Ġget attr
ĠBeng al
Ali as
Ġcl imb
ĠW ing
Ġdebut ed
D en
ĠB lo
b ishop
ĠN ep
ĠN atural
ĠK l
Ġ7 7
ĠCamp bell
. :
ĠT ol
Ġoper ates
Ġbo ys
ĠAg ain
orks hire
Ġà¤¨ à¤¨
iss ue
V er
t okens
Desc riptor
Ġ7 1
ĠS af
Ġbusiness es
Ġmet ers
} );
ĠN ord
Ġvict ims
Ġst ages
v ariable
ĠV erm
Ġh ill
ĠAn na
Ġpurch ase
Im pl
Ġs ell
Ġcomplet ion
N E
Ġ' <
ĠGl as
ig o
f iction
ĠW ard
ĠTh us
à¤¼ à¥Ĥ
pr im
ĠVol ume
iter ranean
Ġneigh bour
Ġret ained
Ġcirc um
qu ence
Ġann ot
Ġsouth west
. ');
Ġp ush
call ed
Ġà¤ĳ à¤¡
Ġpand emic
ag ar
ĠSt art
Ġà¤¬à¤¹ à¤¸
Ġà¥§à¥ ©
Rec ip
Ch ang
l abels
il st
Ġbusiness man
ĠMatt hew
ĠC hen
Eng ine
ĠCol onel
Ġann iversary
Ġ7 3
Ġà¤Ĺ à¤£à¤¨
mar ine
Ġcharg ed
ĠB ush
ĠK on
Ġre ader
Ġd ies
ĠKn ight
ĠC omb
ĠRef orm
Ġv eter
Ġà¤ªà¤° à¤«
Ġenc ounter
Ġman uscript
ĠChe m
J ose
à¤¼ -
hatt an
à¤§ à¤ª
K e
e enth
ĠAl fred
Al bums
ĠV iew
S em
ĠH end
Ġnot ably
Reg istry
us k
ab a
anc ell
ĠMunicip ality
ĠN ash
Ġmembers hip
b ul
Ġdec ade
Ġindic ate
j amin
St ation
à¤· à¤¸
Cont rol
nd array
ĠR u
) $
à¤¼ à¥ĩà¥¤
ast ery
Ġcred ited
ĠPref ecture
rist ol
urs ive
Ġdefe ating
Ġfinal s
Ġà¤ĩ à¤ķà¤Ł
Ġà¤µ à¤ľ
Ġint eger
dat abase
Ġtyp ical
ograph er
w right
dat etime
Ġim prison
D R
Re qu
à¤¬ à¤ķ
ev ents
à¤Ĩà¤Ī à¤ı
| }
Ġf ired
ĠAd ams
) [
Ġmon itor
P M
writ ers
aw ay
) -
ĠCont rol
Ġprep are
Ġsub urb
FI LE
ĠMarg aret
Ġend point
à¤¯à¤¨ à¤¶
\ /
Ġà¤ªà¤° à¤µ
Person nel
Ġinstr uments
Ù ĩ
Ġdesc end
Ġt error
ĠN A
op al
à¥į ,
gress ive
à¤§ à¤®
Ġreg iment
Ġpaint ed
ĠS n
ĠOr leans
Ġ[ $
Ġâ Ĥ
ĠDe ad
B B
ĠA S
Ġscient ists
Ġev olution
dis play
à¤¼à¥ĩ -
net ic
Sec ret
Ġà¤ĩà¤¸ à¤¨
Comm on
194 0
Å ¾
in itions
Ġrest ored
C ustom
à¤¨ à¤¶
Ġimplement ation
Ġv ector
ext ension
du ctions
ĠRe quest
ĠM ess
Ġd og
list ed
ĠEconom ic
à¤Ĭ à¤¦
ĠSerb ia
Ġth ick
get Class
ĠA y
Ġresident ial
ĠKel ly
ĠS ac
ĠAn y
ĠW oman
ĠMar ie
ĠCar ter
Ã¶ r
ĠBrook lyn
196 2
N G
W A
ĠB ruce
Ġex ecution
H ow
Ġà¤Ĩà¤¦ à¤¤
Le ague
Ġs urre
Ġs elling
ĠD ub
ĠP y
ĠL iverpool
Ġprov incial
ĠMot or
Ġadm itted
ric es
Ġtown ship
ĠE very
Ġguitar ist
ĠĠĠĠĠĠĠĠĠĠĠĠĠĠĠĠĠĠĠĠĠĠĠĠ ĠĠ
s ur
Ġs pl
Ġstre ets
ater n
c ussion
Ġà¤µ à¤²
ĠE ver
ĠAp ple
Mo ths
Ġstar red
ĠF ood
ĠSc ient
Medal ists
Ġcont ents
Ġ uri
urric ane
Ġass ault
Ġh tml
os es
Ġsubject s
ĠCom ics
ĠP ay
ĠDe an
ĠAthlet ics
S QL
à¤Ł à¤ĩ
Ġà¤¸à¤¤ à¤¹
à¤¹ à¤ľ
Ġsuccess or
Ġg arden
à¤° à¤ļà¤²
Ġk id
om ing
Ġsy nd
Ġr ates
Ġdr iving
Ġcom ed
ĠR yan
Ġinc orpor
ĠGu ide
ĠOr thodox
os c
Trans action
Ġus age
Ġmag n
ĠJoh ann
Ã Ł
reg ion
Ġacc ommod
ir y
Ġà¤ĸ à¤Ł
Se lect
it ro
ĠV enezuel
Ġà¤īà¤ª à¤ľ
Ġend emic
m o
Ġt all
Ġà¤ªà¤¹ à¤¨à¤¨
ĠConserv ative
Ġinterest ed
Ġwork er
Ġere ct
pro fit
B ro
Ġà¤² à¤ĺ
Ġc risis
ĠK now
ĠN elson
ĠCar ib
Ġà¤² à¤¤
Ġre put
duc ational
ĠBang ladesh
st ory
el i
ĠSchool s
Ġdiffer ences
ĠG ulf
à¤Ĩ à¤¨
Ġcons erv
Ġen abled
ĠTro phy
Ġor ient
ĠDig ital
ĠR ud
<? >
Ġdeput y
ar an
Ġpr ime
en ia
Ġam ar
Ġarran ged
M ember
ĠInt eger
if le
Ġg rass
Ġp hen
f a
Ġà¤¶ à¤®
ĠC arn
ĠA qu
Ġst ood
Ġte en
Ġsched ule
Ġmin ing
Ġs aved
ĠArt illery
en z
Ġ9 8
ĠPort land
ĠCent ury
ĠOn ce
ors es
Ġadv is
ne ur
ĠAss istant
ov iÄĩ
end ment
Ġus eful
Ñ ĥ
ĠL ane
anc el
ĠAust in
Ġdi agn
ĠCh art
Ġ189 8
as hed
à¤ī à¤¨à¤²
à¤¡ à¤ķà¤°
ĠR ick
Ġpl us
Ġvis ible
Ġun us
ĠB ud
Ġprison ers
Ġv ideos
. $
V ariable
config uration
Ġre ct
Ġw a
ph er
j u
Ġd ating
ĠB ranch
Ġappropri ate
Ġ8 2
Ġjust ice
Ġmag azines
Ġrele g
ĠJos Ã©
Ġkn ock
ĠE mer
t own
ĠT rib
Ġro se
Ġjud ges
Med ia
Fran k
Ġper mission
Ġà¤Ĩà¤ľ à¤ķà¤²
h our
p olicy
os ure
D i
Ġà¤ħà¤ĸ à¤¬
ĠJud ge
K ing
Ġturn s
Ġw ave
ĠL ower
Ġint ent
Ġmatch ing
Ġà¤¸ à¤°à¤¦
Ġch ance
c ia
st ad
asy nc
Ġexpl os
Ġw ings
ĠCo oper
ĠY orkshire
ĠUp per
re port
à¤Ĩà¤Ī à¤Ł
rand om
Pl ugin
uj ala
ĠSever al
B re
Ġg ang
Ġassist ance
Ġhabit at
Ġre in
ĠG ill
Ġf iled
ĠR ain
ĠMad rid
ĠHind u
el lect
ĠF ive
Ġun success
Ġà¤ĸ à¤£
Ġread y
Ġlic ense
Dem ographics
g i
Ġst rict
Ġsat isf
ĠCont in
ĠSer ge
Ġsignificant ly
Ġamar ujala
Ġ8 00
C am
al ar
it ime
ig ma
196 3
Ġjournal ists
om pl
Ġconcern s
Ġover l
Ġmed als
R est
à¤² à¤ĸà¤¨à¤Ĭ
dr iver
à¤¸ à¤ľ
Ġ[] ,
Ġauth ors
à¤¿ à¤¼
à¤ĸ à¤£
ĠBern ard
In ternal
Ġrat io
Ġs leep
Ġà¤¤ à¤¦
Ġe ye
Ġhead ed
medi ate
Ġsp aces
ev a
IN T
ĠYou Tube
T ur
r ity
à¤ı à¤ª
load ed
ro ps
m osph
ĠM aj
Ġbig gest
se q
sl ice
ĠYear s
Act ive
h or
m ac
Ġà¤µ à¤¶
Ġd oll
Ġcarry ing
anc ouver
c r
chang ed
b rid
Add r
Ġà¤Ĩà¤ª à¤¦
ĠAz erbai
ast rop
Ġsup ports
Ġf illed
Ġf est
Ġ8 8
ĠMov ement
en o
Ġp ian
b ad
sub string
ĠLim ited
ĠPr incess
T otal
Ġp arsed
Ġ187 0
Ġv ary
end point
C M
ĠInd ians
ul u
ĠH ell
] *
Ġref uge
Ġsign ing
Ġto ols
Ġ9 6
or ce
Ġorgan isation
ĠDef ence
Ġc ited
Ġaccount s
ens es
Ġcour ts
k t
m und
196 1
St ud
Ġass embly
Ġà¤Ĩ à¤Ĺà¤°
em on
ĠMor ris
h y
do or
iv an
Ġra cial
Ġdat etime
à¤Ĺ à¤°à¤£
(" /
ĠCon vention
Trans l
Ġinstit ution
Ġaspect s
Ġstep s
dep th
ter y
à¤¤ à¤¬
Ġres id
ĠColl ins
Ġem ail
he x
P ER
Ġwound ed
le an
att ed
à¤ª à¤µ
5 13
ĠCap ital
ev ens
U nder
ĠNaz i
s i
ã ģ
ĠOrgan ization
Ġ8 1
Ġqual ifying
End point
Ġl it
iv odes
Ġres olution
Tit le
Ġl ayout
clud es
à¤¶ à¤Ńà¤°
Ġnewsp apers
ĠSoc cer
. ",
à¤ħ à¤¤
M ah
ĠElect ric
oth ing
O wn
Ġd uties
c ss
ĠN ad
ĠU ser
ĠSat urday
Ġaccompan ied
ot an
F ull
Ġsuggest s
Ġc ous
Ġpract ices
P od
se a
Or iginal
Ġà¤¨à¤ľ à¤¦
Ġim ag
Ġuser name
ĠStand ard
L ittle
r aska
in ations
ist ical
C ategory
o i
ĠRoman ian
ĠTh ough
eg as
Ġfl ags
à¤Ĩà¤Ī à¤Ĩà¤°
Ġcross ing
ĠN am
Ð ²
Ġb rick
ĠY ugoslav
B undle
Dev ice
se cret
Ġexperi enced
ĠL anguage
I F
Pro xy
rupt ion
Ġà¤¬ à¤ĸ
ij ing
Ġpan el
Ġj uris
Ġwhe el
Ġdis appe
ĠG ray
usal em
p i
ĠC our
ĠBl ock
sh ift
Ġelect ron
rem ote
un ks
Ġa wait
ett a
Ġ189 9
B ob
ĠP erson
Pr ivate
ĠMar shall
incip al
ĠMur ray
Ġp airs
Ġcred it
F in
le tt
Ġun s
Ġ189 6
G old
m id
} }
ifest yle
N ote
R ob
im port
ĠJ azz
ĠWrest ling
O M
re ference
ri el
Ġà¤¬à¤ļ à¤ªà¤¨
ĠPar ish
Ġweek ly
Ġown ership
Ġteach ers
Sy nc
Ġvess els
ĠCh ang
u ke
oen ix
Ġb anks
S aint
Ġsec ure
à¤¸à¤¨ à¤²
Dat abase
P ack
à¤ľ à¤¶
Ġde pos
Ġm outh
ĠD allas
ult an
Ġg lob
Ġst ats
Ġsever e
Ext ension
ik o
c red
Ġrespons ibility
Ġbring ing
ĠRog er
force ment
em ale
ĠF el
Ġcl oud
ĠWeb site
arg ument
Ġ8 4
index Of
Ġflow s
ĠConf eder
Ġpict ure
Ġth ing
ul ating
Ġm obile
ivodes hip
Ġthe ater
ĠGra ham
Ġm ine
ĠT ak
ud es
ĠPro test
ĠK u
c d
ĠAng l
à¤Ĺ à¤£à¤¨
ĠH ere
ĠM ond
Ġhead s
ĠOpt ional
Ġà¤Ĩà¤ª à¤°
Ġunder standing
Ġclass ified
ur u
M apping
m ount
Ġch unk
ĠStan ley
Ġex pert
enc oding
L anguage
Ġpl ate
starts with
d in
Ġs ed
Ġvol umes
f are
T om
Ġf etch
ent ine
Ġre verse
hold er
Ġà¤Ĺ à¤¹à¤²
ĠBir mingham
Ġcam era
i ya
F OR
D b
ĠTig ers
Ġen h
f olk
is ition
al is
19 30
fl ags
Rem ove
Ġpe er
Ġà¥ ¯
Ġarr ival
à¤¶ à¤¦
D est
ĠB eck
claim ed
ĠK evin
ĠPun jab
} '.
Ġn av
ĠFrank lin
Ġm ig
ĠD og
cond ition
Ġcar bon
Ġt asks
à¤ķ à¤ľ
ĠPr iv
f ilters
it ations
Ġà¤°à¤¹ à¤ķà¤°
is ations
sub ject
Ġve get
st e
Ġpen alty
Ġdep ending
Ġsu icide
g lobal
y ll
ĠSup port
Disc ography
u ction
av an
Ġf alls
Ġcritic ism
} "
on ian
Ġmunicipal ities
ra ham
ĠU pon
Ġher itage
( ',
ĠS C
ĠS id
Ġmed ieval
ĠR ico
Ġres et
Ġim plode
ĠVo ivodeship
Ġextrem ely
Ġf ictional
à¤ľ à¤«
f ish
à¤° à¤ł
Ġc ategories
ĠPh ot
Ġindic ates
Ġthous ands
b efore
ext end
à¤§ à¤¶
ĠE ston
Ġshe l
T T
Ġà¤® à¤¯
ĠT ower
à¤ħ à¤¸
ĠIllegal ArgumentException
Ġclass ic
Ġcol leges
Cl uster
J im
f oot
C ould
Ġoff ensive
ar on
Ġle arned
Ġb ranches
ĠC ass
ĠMan hattan
o j
Ġform ally
Ġto ol
ĠD NA
aud i
ĠNov a
ĠS ite
Ġl ift
ss ai
ĠI v
ĠK it
Un ivers
à¤¸ à¤Ł
Ġpubl ish
Ġadapt ation
ie ge
De cl
Ġmanufact uring
ĠPict ures
P rom
ĠP ack
ĠSt orm
is en
os ition
Ġb rig
Ġfind ing
ĠC ert
Ġelect oral
Ġind igenous
à¤ĩà¤¨ à¤°
rate gy
Ġà¤¸à¤¹ à¤ķ
Ġaff ect
Ġemer gency
ĠS A
ycl op
s a
nt il
à¤°à¤ĸ à¤ª
Ġà¤ª à¤ł
ed ed
us ers
Ġsup posed
Ġcoast al
ĠC ultural
Pass word
Ġt ied
Ġd aughters
Ġchampionship s
à¤¹ à¤ª
ĠCat hedral
L ower
Ġprov ider
ĠNig eria
ou stic
Ġeven ing
te am
t ies
Ġà¤®à¤¹ à¤²
orn e
ver ter
ak ia
Ġchild hood
Ġm ental
Ġpo ets
U r
Un able
Ġpopular ity
u ce
I gn
Ġ18 60
ici ency
ĠL ink
à¤Ĩà¤Ī à¤¸
ĠBor ough
ro ve
ĠFI FA
u art
Ã ª
Ġcol ors
à¤µ à¤°à¤ķ
{ "
Ġà¤¥ à¤°
Ġsynt hes
f actory
Ġcol span
Ġcomm emor
Ġpo em
al ph
Ġst ret
ĠS ib
ĠGu inea
Hen ry
ĠAfghan istan
Ġpe aked
Ġrestaur ant
Ġcrow d
Ġà¤¨ à¤Ĺ
ĠLeb an
Ġà¤Ķà¤° à¤¤
Ġ ri
or o
à¥ Ĵ
à¤ıà¤¸à¤ıà¤¸ à¤ıà¤Ĩà¤Ī
St and
à¤¦à¤¨ à¤¶
re pre
ĠV el
Ġland ing
Ġpro xy
au ge
ĠH it
Ġh ip
um i
Ġro b
ĠChall enge
Ġp apers
ĠT ext
b ut
F ac
m essages
ĠH ttp
og a
Ġp overty
ĠEd ition
Ġx ml
Ġacc ompl
R adio
Ġcover ing
Ġnom ination
Ġobt ain
Ġg r
Ġman ner
ĠPer u
Stat ement
ĠMit chell
Ġa ck
DE FAULT
ip her
Res ources
ou p
Ġd uration
re hens
ĠM em
ĠZ one
à¤ł à¤ķà¤°
re po
og ram
c os
ĠEv ans
p rom
et on
ĠCon stant
195 8
ier ra
B L
à¤Ĺ à¤¶
à¤¯ à¤°à¤¤
Ġl ob
ament al
ot ion
Ġwe ak
Hon ours
ĠV ic
à¤¤ à¤¦
Wh at
kee per
Ġ189 5
Ġà¤ıà¤« à¤ıà¤¸à¤ıà¤¸à¤ıà¤Ĩà¤Ī
Ġass ass
Ġstr uck
195 7
ĠFle et
Ġme ets
E M
Ġre nt
Ġex plicit
195 9
Ġà¤° à¤ĺ
Ġindic ated
Ġc b
ers e
Ġcap able
J ust
Ġmov ements
Ġ189 7
ela ide
Ġà¤µ à¤¡
Ġle af
Ġloss es
Ch inese
à¤¬ à¤ļ
Ġart istic
ĠMe an
Ġident ifier
In v
met ric
Ġcount ies
Ġrough ly
A thlet
m aker
ĠC urrent
Ġà¤¬à¤ļ à¤¤
rid ay
Ġz ip
ĠElement ary
Ġsp in
Ġprotest s
ap se
uk a
ĠBelg ian
Ġal gorithm
Ġfilm ed
ĠB ible
ĠJ e
Ġquest ions
grad uate
ĠM ust
por ter
ĠJ u
Ġt ie
ph ere
Ġnet works
prov ider
à¤¤ à¤Ĺ
G rand
Ġal coh
à¤Ĩ à¤īà¤Ł
ĠPro cess
ĠTra il
b ucket
R ound
Flor a
x i
Ġd ated
Ġhistor ians
in f
Ġpropos al
B M
ra ctions
Ġtop ic
Def unct
ĠC A
ĠN i
Ġstay ed
nc ient
ĠC art
f ly
Ġo verse
B as
ev al
aj a
Element s
Ġt ub
Ġà¤ĸ à¤²
ham mad
ĠDemocr ats
g ame
ĠEgypt ian
enc er
Ġne ut
ott ed
Ġb ucket
195 6
g io
ĠDer by
st s
Ġs ocket
k ar
Ġà¤ £
ĠCarib bean
ur ers
193 9
m el
ow ski
Con f
M el
ĠâĢ ¢
Ġopin ion
Ġpart ial
l ater
ĠPro te
I mp
Ġden ied
> (
R T
ĠB eg
ĠL ate
Ġcon crete
Ġex pos
ress es
G overnment
ĠGu y
ĠSt ra
Ġso il
Ġtechn ique
Ġoccup ation
cel and
ĠRang ers
ĠF ssai
ick ets
à¤Ĩà¤Ī à¤ª
Ġ# {
Ġà¤¸à¤¹ à¤¨
bo olean
ach t
195 5
à¤ıà¤¨ à¤¯
à¤Ł à¤ª
Ġper fect
Ġrepl acing
ĠFace book
Ġsound track
th read
W rap
ĠSt age
Ġs now
Ġ189 3
init ial
ĠE qu
ĠM S
y nc
Ġw arm
Ġcanc el
Dr iver
ĠPolit ical
ĠNorm an
à¤Ĺ à¤Łà¤¨
ã Ĥ
Ġ8 3
k ind
d ates
ro v
Se ction
st own
Ġà¤ħ à¤£
ĠHT TP
ĠTe le
Ġl ay
Ġh ang
Ġà¤Ĩà¤Ī à¤Ł
M ont
Ġunder stand
ul i
Ġdiscover y
ĠRem ove
ĠN eg
og y
op les
ĠJer usalem
Ġpattern s
ĠGlas gow
Ġà¤ıà¤¨ à¤¡
av ailable
sequ ently
id ad
Ġtarget s
Ġterr itories
ist ani
h ook
à¥Ī !
Ġappear ing
ĠL iga
eng ine
Ġking dom
Ġexped ition
C K
re z
Ġrec ru
Ġatt orney
oth y
ĠFl ore
àª ¾
" ):
Ġ$ _
Ġoffer ing
J ean
b ow
fl ag
ĠHun ter
Ġà¤¤ à¤¹
L L
St ats
à¤Ī à¤µ
ĠThe ater
In s
cast le
Ġforest s
à¥ĭà¤Ĥ -
ĠN ation
ĠN E
ĠN ever
Ġinters ection
Ġsee k
Ġsent ence
Ġph one
Ġaff airs
col l
Ġc old
ĠMil an
Ġswim ming
mar shal
ĠL ud
Ġmon ument
Ġsup plied
Ġdescrib e
udd en
ĠFinn ish
N et
Ġg ate
Scott ish
Ġtre ated
Afric an
ĠF ab
Ġex port
if fer
ĠN BA
Ġlong est
ass ign
Ġn ations
Ġachie ve
ĠChrist opher
S at
ĠF ine
G reen
Ġper haps
X X
In st
Ġ188 9
d istance
ĠF alls
Ch ain
Ġinf rastructure
aw s
Ġ7 9
Ġ8 7
G ame
ĠM all
arri er
Ġdisc ip
Ġdat aset
G lobal
ĠP A
K ind
Tra cing
k w
Ġrom antic
Ġst yles
Ġflow ers
Q U
Ġvirt ual
e lected
m ag
t ure
Ġc ards
Ġcent ers
Re al
Ġdeb ug
ok ed
ah a
ĠSt ars
Ġà¤§ à¤µà¤¨
Ġg ather
ark ed
ĠO S
ĠVictor ian
à¤Ī à¤²
à¤Ī à¤Ł
z z
or ia
Ġchang ing
in valid
ail ure
Ġ8 6
Ġund efined
ĠCon vert
Run time
. *
ĠMah ar
Ġform ing
ĠBl ues
Ġab ort
Ġ9 2
Ġassoci ate
J P
ĠB ristol
er i
Ġà¤Ĩ à¤Ł
ĠProfess ional
V I
Ġcon nections
T ags
ME NT
Ġtrans c
ext ra
ĠEx ample
Ġs ax
st ery
Ġp ray
ĠBroad way
Ġà¤ħ à¤®à¤²
Ġà¤Ĳ à¤¶
= %
Ġam ateur
Ġf ruit
ounc ill
il ia
ĠT ob
ĠTerr itory
Ġor g
Ġ9 7
az e
Ġà¤® à¤®
et ition
Ġl iqu
ĠAm azon
Ġappro val
ĠT un
ĠK r
ĠG un
Ag ent
P ers
Ġch apter
Ġà¤Ľ à¤ª
Ġdeb ate
Ġà¤² à¤Łà¤ķ
ĠNev ada
rig ger
Ġhapp ened
in ction
Recip ients
AT OR
p b
ĠM eg
inc inn
Ġag encies
il arly
Ġtok ens
Annot ation
Ġexpl ained
cel ona
r ator
et ry
log y
Ġplan et
Ġwithd raw
à¤Ĩà¤° à¤ª
Ġpat ron
Ġremain der
ĠS ongs
ag re
ĠO t
ĠĠĠĠĠĠĠĠĠĠĠĠ Ċ
Ġelim inated
ĠV as
ĠRich mond
] +
st ers
ĠAlber ta
d rop
z ant
Ġdisestabl ished
ĠĠĠĠĠĠĠĠĠĠĠĠĠĠĠĠĠĠĠĠĠĠĠĠ ĠĠĠĠĠ
Ġlocomot ives
à¥§ à¥¦
Comm un
Ġconst ra
Ġà¤¨ à¤ķà¤²
ot ton
Ġpubl isher
ĠJim my
d type
Ġ' {
cept or
Ġ ur
Ġbenef it
Ġm al
Ġmark ets
Ġsusp ended
ĠV I
Ġmount ains
b el
r ules
Ġinst ruct
ser ial
L ive
ĠA ld
sc ore
Ġcirc uit
ĠM alt
M ary
Ġappe al
Ġà¤ĳ à¤²
Ġparliament ary
T our
Ġs it
Ġb on
Ġe yes
Jew ish
X ML
g un
Ġ8 9
Ġceleb rated
ov en
Christ ian
Wh ite
ĠSal v
Ġwood en
i ors
ĠF itz
à¥Īà¤Ĥ ;
Ġor chestra
195 3
ach i
Ġent ering
======== ========
Ġinst ances
Ġprint ed
element s
U se
AC E
incinn ati
Ġ( \
ĠB ron
) ",
Ġreli ef
oun sel
à¤¥ à¤Ĺ
m usic
Ġ189 2
Ġb at
Ġm ob
ĠS T
app y
ver b
Ġdoub les
ĠF ull
Ġdis k
Ġcontrovers y
ĠHawai i
Ġà¤ļ à¤°à¤®
Ġind uct
ĠAdd itionally
om on
à¤ĸ à¤¡
ĠE ss
oph one
f ront
mod els
Ġsat ellite
Ġà¤Ĺ à¤¹à¤¨
Ġ188 5
M usical
O P
19 20
ĠSar ah
ud son
ĠS aints
Ġrem ember
Ġtim estamp
Ġà¤ķ à¤£
à¤¼ à¥Ģà¥¤
ul er
194 9
Ġ Ø§ÙĦ
ant i
Ġpo ems
ĠV ancouver
ĠI S
ĠTe ch
ibr aries
w al
ĠR and
Ġ& $
Ġdef ence
ĠIm age
H z
iz ont
. ),
P RE
ĠC er
Pro duct
Ġà¤¬à¤¦ à¤²à¤¤
ĠStud io
Ġhas attr
as p
ig s
min ute
Ġsuff icient
l ambda
ĠM ack
Ġsk in
E s
Ġc ool
H ung
Ġhelp ing
iv ia
ge on
ĠB enn
Ġà¤ĩà¤¨ à¤¸
à¤ī à¤ª
me an
Ġactiv ists
f ont
red irect
j ust
Ġf old
ign ated
ĠSte el
B er
Ġpart ition
195 4
ĠD ouble
con v
Ind ia
att rs
Ġcons c
Ġexist ed
Ġgradu ating
PAT H
d epend
i ology
Ġparticip ation
ĠWay ne
Ġd owntown
men u
un ique
ex c
Ġdecl ined
ĠP il
Ġinter val
Wh ere
Ġvess el
M M
à¤µ à¤Ĺ
Ġinflu ential
ĠNeb raska
ĠD J
Ġsh all
Pl ay
C amp
ir k
born e
à¤§ à¤ķà¤°
Ġpercent age
Ġt ell
as hes
im ir
url ing
ĠPark er
ĠColomb ia
t z
W al
Ġ( []
Ġà¤Ĺ à¤°à¤®
Ġcr ash
s is
Ġtem por
inst all
à¥ĭ '
Ġà¤ª à¤£
RO M
Un known
ĠC BS
hel m
Ġstrong ly
à¤ķ à¤¬
ĠSe ction
Ġang le
p ine
Ġnomin ations
P R
iam ond
Ġinvol vement
ĠGh ana
B ucket
b eat
ed it
te enth
Ġsp oken
Ġ9 3
ub b
Ġenumer ate
ix el
ĠLe ad
ĠPar se
195 2
ĠAdm iral
Ġl es
Ġà¤ıà¤ķ à¤¦à¤®
ellect ual
m ate
umb ai
g om
Ġout er
En vironment
Ġmiss ions
iter ator
ĠSh ang
ĠG reater
The se
Ġappoint ment
ĠClass ic
ent er
Ġcon vention
ur st
Ġche cks
Ġf ear
Ġdet ect
Ġgovern ments
Ġrecomm ended
Ġran king
writ ten
ĠAnt ar
aps ed
ĠU g
Ġclos ing
poss ible
ĠString Builder
Ġperson ality
Ġround s
Ġthreat ened
( **
Ġsurround ed
Ġcho ose
ĠJ ama
Con vert
Ġphot ography
Column s
Ġà¤ĵ à¤Ł
L and
à¤ĺ à¤µ
Ġ189 1
à¤Ł à¤¡
E conom
Ġcon vers
ĠT rad
chang es
à¤¼ à¥ĩ,
194 8
Ġà¤® à¤¥
Ġ189 4
Ġconf ront
ue z
Sw ed
l ayer
ĠH um
Ġcompet ing
Ġstudy ing
ĠH old
Ġà¤µà¤° à¤¨
ĠAtt orney
Ġident ify
ĠS alt
ĠMed iterranean
b us
ĠO k
Ġsynchron ized
str ong
J ack
ĠF r
ĠW ind
à¤ıà¤¨ à¤ıà¤¸
Ġplatform s
ang erous
ĠM essage
g am
sh aped
uss ia
ĠO range
greg ation
ĠSerb ian
ul um
Ġrele ases
194 6
im ation
ĠCommission er
et e
Cl oud
O x
à¤Ĺ à¤¦à¤°
ul ator
ult ane
ĠP ra
Ġà¤ĵ à¤¬
C ur
Ġf ishing
Ġm us
av or
G P
Ġ! $
Ġag ents
Ġland scape
ĠCarl os
S il
Ġper cussion
Ġà¤ľ à¤¹à¤°
ace ae
194 7
L D
osp itals
St op
ĠS r
ĠG iants
Bra zil
Î ±
Ġs we
Ġel der
ĠA R
W ar
195 1
Ġhon our
Ġen able
ĠLu ther
à¤° à¤¬à¤¨
Ġs ql
ĠF ind
S ocial
ac re
ens ional
Ġt y
Ġà¤¸à¤® à¤Ĺ
Ġpro f
Ġsuc ceed
nap shot
f ill
Ġwrit es
dom in
Ġil legal
ĠB und
riev ed
Ġà¤° à¤¥
Ġne uro
u ated
am pton
ĠE ug
: "
à¤Ĩ à¤®
ster dam
Ġthem es
ĠL iving
qu er
i able
ig ible
Ġ9 1
ol lywood
ĠB ey
Ġà¤¸à¤¹ à¤¸
en berg
get Key
X T
ĠMar s
Ġterm inal
Ġminist ers
ub le
Ġexper iences
ĠB illy
W ait
lo op
ĠBe ijing
hem atic
cre ated
Ġcanc elled
B ean
ĠB achelor
Ġthe at
Ġ[ "
Ġphot o
Q ual
ap pro
ah o
Ñ ı
Ġdecl ine
ĠL ag
ore n
A ud
ĠS outheast
Ġe cho
Ġ188 8
Ġbatt les
Ġwrest ling
ĠCr ime
Ġabs olute
ĠS R
Ġdraw ing
Ġl ifestyle
Ġex erc
Ġrelationship s
h us
Ġsil ent
Ġsent enced
umer ic
ĠPar alymp
Ġhor ror
Ġw ire
à¤ī à¤¸à¤ķ
ĠV ersion
ĠG rad
Profess ional
Ġhigh light
ĠL ad
Ġsh ares
E st
Ġc fg
ĠCh ron
Ġwhere as
ust ers
ĠSing les
ĠN BC
ĠCl ar
ĠB aker
ĠDe ep
Ġabs or
b inary
Ġar c
at ible
Ġelev en
ĠAl aska
Ġpr on
Ġprofess ion
s ample
ĠHar rison
h ill
à¤ ĭ
Ġdis pl
Ġà¤ħà¤² à¤°
Ġre un
B al
at che
ST R
Valid ation
Ġas sets
ĠI ter
ĠSy mph
Ġe ighth
ip ped
Ex ists
ĠR acing
Ġvis itors
L eft
ĠM D
Ġà¤Ĺ à¤ľ
uck land
Ġà¤¹ à¤°à¤ķà¤¤
Fl ag
Ġconv icted
qu ote
v m
w orld
ĠA P
Ġsurv iving
l ayout
ĠI ce
ĠBarb ara
Ġelev ation
Ġload ed
v ia
Ġext ent
Ġportray ed
ĠY am
à¤¶à¤¨ à¤ķ
an ne
ĠR aw
ĠTr inity
Film ography
à¤ª à¤¹
Ġtext s
Ġf s
ĠL ions
Ġcorpor ate
le e
Ġrec re
ĠAd elaide
Ġequip ped
AC T
194 2
Ġgen re
id en
Ġprov ision
Ġh uge
and al
Ġspec im
In f
ĠR E
ip er
Ġline ar
Jose ph
n ed
M ore
Ġdisplay ed
Ġw arning
Ġb es
Ġtransport ation
Ġm anga
Ġmain tenance
Ġà¤¸ à¤¶à¤ķ
ĠC ov
Ġmet ric
are a
Ġv ic
Ġspe ak
Ġdon ated
\ "
') ->
US ER
L P
ĠP ut
li er
Ġinj uries
get Type
itar ian
Ġh olid
Ġpre dec
Ġcr imes
M ass
ĠM aced
() ),
Ġlim its
Ġcous in
w inning
Ġf oss
ak u
as er
Ġcont ribution
ĠPhil osoph
Ġpredec ess
r ub
z eg
Ġopt im
p ower
enn ial
h um
ĠL P
os hi
cl oud
Ġas c
Ġà¤ħ à¤Łà¤²
ent e
ĠT ree
ĠF uture
ah l
Ġann ually
R ivers
à¥Ģ ;
ĠAp pe
Ġreput ation
à¤Ĩ à¤¯
p read
print ln
ĠS ett
S ur
Ġ{} ;
Ġ9 4
s eries
ĠSystem s
Ġat mosph
arch ive
Ġperiod s
Ġearth qu
ell ion
à¤°à¤¹ à¤µ
Ġpro port
log in
Ġpres erved
f am
ĠD ra
Ġpre gn
Ġà¤¸ à¤¤à¤°
Ġj unction
Ġlast ed
P resident
ro ph
om i
Ġdet ail
ĠBar ry
ĠG ot
ĠB aptist
ag ent
ĠOn line
Con nect
ĠGr iff
ĠCub a
E lect
b es
á º
Ġà¤īà¤ª à¤ķ
ick er
ass et
ĠCommun ications
s ys
Ġut ils
m atrix
Tim estamp
Ġmod er
ĠPol y
ut ter
Tracing Enabled
Ġ( _
Ġe le
M a
n b
re ck
in os
ĠFre edom
Ġincreasing ly
ĠSp irit
ĠK umar
ĠAlex and
Ġc od
Ġà¥§à¥ §
ĠJ ason
p arsed
Ã ¦
Ġà¤ľà¤Ĺ à¤¦
à¤Ī à¤¡
ĠAl bum
ides pread
Ġbroadcast ing
Ġmarg in
ĠU E
Ġà¤ł à¤Ĺ
Ġconsider able
Ġcom ments
is Any
Ġven ue
h s
trans form
F red
Ġà¤Ń à¤¦
ĠMor oc
Ġg rown
Ġcomp iled
Ġdist inguished
T est
ĠJohn ny
Ġagric ulture
on ies
âĢ ľ
ĠCon n
Ġbenef its
194 4
ĠLiter ature
ast s
struct or
m apping
Ġart illery
M ale
f r
ĠG ary
ĠW arner
ex ec
Ġ[] *
ĠX ML
Ġdet ailed
type of
Ġw ants
ĠAd vis
Ġbelong ing
D ouble
Ġà¤¡ à¤¬
F ree
Ġimmedi ate
Ġà¤¶ à¤°à¤¦
Ġ18 50
Ġbo ats
ĠD ocument
Ġunder ground
Tax a
S ION
Ġmap s
Ġsomew hat
(' %
sy mbol
Ġack now
ing en
Ġd ream
ĠĠĠĠĠĠĠĠĠĠĠĠĠĠĠĠĠĠĠĠĠĠĠĠ ĠĠĠĠĠĠ
( ?
ĠF ather
elf are
194 1
Ġenc oded
ĠSocial ist
mer cial
Ġ18 64
ĠBroadcast ing
Ġp seud
Ġcons umer
Ġed ges
ĠPier re
ro ck
ĠIn v
Ã¡ s
Ac adem
G O
Ġcal endar
l u
ĠM ak
Ġarchitect ural
isAny TracingEnabled
à¤ĩ à¤Ĺà¤°
ph al
Return s
l ift
Det ails
ok er
)) );
Ġbe ar
Ġcont roller
w rap
Ã ī
à¤® à¤Ń
An n
Ġc inema
à¤µ à¤¥
Ġà¤§ à¤ķ
ĠCost a
F older
ĠAl ger
Lou is
Ġg olf
Ġcons ervation
à¥ĭ ?
ers et
ĠK ath
Ġparticip ants
ĠB ert
en os
Ġdef ine
G allery
Ġarch ive
Ġal ias
ĠB ris
Ġcred its
ĠD B
ĠMont ana
ĠJ a
Ġsold ier
193 6
193 8
i w
ĠD rag
ĠFran ces
Ġcontin uing
ex pr
ĠCh ap
He alth
Ġtrig ger
ĠTra ck
Ġmar ry
E r
ann i
Ġann ounc
hol m
Ġf ighter
ĠPhilipp ine
à¥ĩ ;
Ġsuff ix
ĠJ ava
ĠZ e
edd ed
tt ar
ĠPl ant
d t
it is
Ġman ifest
ĠBar celona
default s
Ġw orship
Ġdem olished
not es
u uid
ĠT ib
ĠSt ore
Seg ment
c are
Ġsc ores
ryst al
ĠG and
Err ors
Ġ188 6
ash a
Ġà¤Ī à¤¡
v ideo
Ġext end
it i
194 3
g art
ur ring
Ġcab inet
L y
R ock
** **
'' '
Ġwh ilst
Ġcon gress
Ã¶ n
Ġconcern ed
ĠGon z
} .
Ġ ~
ĠI van
Ġpop ulations
Al low
pre vious
At l
al am
Se quence
Ġs essions
id o
Ġe asy
sl ug
Date Time
Ġd rew
our g
Ġà¤ļ à¤Ł
ĠY e
Ã¼ n
ĠBen jamin
or p
L iter
Ġt ribut
Ġmeet ings
ĠWar ren
Sing le
ter ior
ĠE lection
Ġse gments
Ġp ub
Ġto w
sc ar
Ġà¤ī à¤Ń
od ore
Ġfriend ly
ĠSt re
std out
Ġsurg ery
ĠD raft
Ġ186 5
C ity
Ġprop ag
ĠMic hel
' d
Ġann ounce
LE CT
ic us
ĠC S
The y
Ġà¤¨à¤ķ à¤¦
Ġ( ).
ĠPh oenix
ĠKey Error
Ġeffect ively
Ġoccas ionally
ĠR AF
sub str
Gener ator
ĠOb serv
M aster
Ġbir d
inter val
ĠTurn er
ign ore
atch er
H ome
Ġse es
Ġun cle
feat ure
ich i
à¤² à¤Ŀ
allow ed
ĠB A
Ġrecover ed
Ġà¤¸ à¤ķà¤²
ĠG rey
ke ley
Ġsh ore
ĠEnc yclop
em it
Ġw ine
Ġ188 7
Ġcoordin ates
Ġpr inc
b ane
ĠTreat y
Ġatt ributed
ar c
ĠS E
ĠL is
ĠMon te
Loc ale
Ġchar ter
Ġ186 3
alle st
on ical
en abled
ĠW WE
Ġrul ing
ĠM ol
Cent ral
int ers
Dist ribution
at on
Ġst able
ĠD ays
Ġcol le
Ġà¤ĺ à¤Łà¤ķ
Ġbe ach
ĠPri or
ĠPr ice
Ġà¤® à¤°à¤®
c b
à¤¿ )
ĠV ari
ĠP att
Ġautom atically
tol ower
ash tra
Ġà¤¨à¤µ à¤®
ĠArt ist
P res
Ġvis iting
is ch
ĠG rade
ing ly
ĠIn put
Ġmer chant
Ġdiam eter
Ĩ Ĵ
il ty
D raw
Ġbu y
6 00
8 00
t wo
Ġrecomm end
Ġg one
Ġcharacter istics
A GE
w idget
e ctions
ĠM embers
AC K
Ġcontrovers ial
Ġill ness
Ġspirit ual
ol ves
ond a
Ġne arest
ĠAtt ribute
Ġact ed
ĠIndust ry
L ayout
b ank
O T
ĠDiv is
b en
Ġc up
Ġà¤Ĩ à¤¸à¤®
B ill
Ġg allery
ĠMu hammad
S erv
ĠA ND
ag ger
Class Name
Ġ186 1
Ġret ry
em a
Ġkey boards
S ort
i u
ac o
Ġt ribe
Ġlist ener
Ġf urn
Ġcre ative
ĠMunicip al
oc c
Ġl ap
Crit ical
Dom ain
} '
Ġp ython
Ġthir ty
Ġt ab
ĠHe b
ac cept
à¥Īà¤Ĥ -
ĠF ish
up per
ĠG oth
Ġ' :
ax y
ĠMun ich
Ġvot ing
G S
re ader
ĠSh a
193 5
Ġexperiment al
ancell or
Ġp ure
leg iate
Ġfl u
Bo oks
Ġtrib es
Ġdes ired
b est
ĠRa ises
ĠUr ban
for Each
Ġmart ial
P arts
H ER
ĠGerman s
Ġpost ed
Ġwait ing
Ġhe x
Miss ing
Ġ188 4
193 7
ĠPrim ary
ij i
Ġb ridges
Ġresearch ers
ĠMan ager
FF FF
p in
Ġab road
ĠUnivers al
ĠD ictionary
Ġafter wards
ĠAnd re
omm y
Ġ7 00
Ġ188 1
g t
ĠM ind
ĠP ython
ew ay
à¤¨ à¤ľà¤°
ist ence
Ġyoung est
Ġscient ist
m ill
onym ous
S W
à¤Łà¤° à¤¸
à¤ħ à¤ļ
Ġà¤¦ à¤£
et he
Ġrepresent atives
ĠIran ian
ĠCh and
Ġt act
pre v
Ġà¤ī à¤¬
ĠW a
Ġtrad ing
ĠMuslim s
Ġcol ony
u its
Ġab use
M ad
ĠU til
Ġsupport ers
th at
Comm unes
Ġjourn als
d ays
Ġch apel
cont rol
ON E
ip ur
Ġrapid ly
z es
p reg
An other
Spec ial
Input Stream
Ġansw er
Ġhon ors
âĢ İ
Ġemploy ment
ur se
Ġcrick eter
() ]
at ra
Ġà¤® à¤¸à¤²
ĠRes ource
dir name
Ġg ram
Ġà¤¬à¤¸ à¤ª
F uture
Ġl ieutenant
ch unk
OR Y
Ð ´
S uccess
ĠE sp
Ġt orn
ext ract
mod ules
ĠL ook
Ġsp an
Ġdrug s
S H
se par
re leased
ĠM ans
ĠW ang
Ġsub t
ĠNor folk
Ġl oyal
ro at
Ġw idespread
Ġ11 0
Ġinc idents
Ġh idden
ĠB uch
Ġà¤® à¤Ĺ
Ġexc ell
Ġphys ics
S en
ĠI celand
ĠP and
Ġkn ew
ĠEx change
Ġunus ual
25 6
Ġvers us
à¤Ĺ à¤®à¤¨
Ġmat hematics
ĠCroat ia
Ġstat ue
Ġrecip ient
s uch
Ġpat rol
D utch
ĠEx p
Ġsuff ering
ath on
ĠCl are
ĠM L
Ġ' *
Ä Ł
r v
Ġsp ending
Ġdel ta
Ġv ision
Ġlaw yers
ĠCharl otte
Ġbut ton
à¤¨ à¤ļ
ĠG ate
S plit
ĠR ic
Ġà¤ªà¤¤ à¤²
Ġemer ged
is an
Ġloc ally
dis patch
C arl
ĠAm sterdam
Ġoccas ions
ĠS eg
est yle
ific ial
Ġcompet itive
m ina
ĠL loyd
à¤¾à¥¤ "
cert ain
Ġmemor ial
Sc hedule
Ġcontest ed
Ġd ress
lo ader
w alk
m ates
ĠS even
ĠT oy
Ġbal ance
ĠInst ead
Ġ10 1
l ate
Ġmiss ed
l iga
u int
Ġà¤°à¤£ à¤¬
Ġturn ing
Group s
C annot
p x
Ex ecution
ĠAnd y
g it
ĠKen ya
W rapper
Ġran ks
Ġviol in
Ġc able
ĠCan al
Ġsn ap
Ad m
Ġthous and
ĠC urt
ab i
Ġà¤¦à¤° à¤¬
Ġnorm ally
m aking
ĠS ah
Ġà¤¤ à¤µ
Ġform ations
Ġattract ed
ĠN ext
ru ctions
ab ul
) /
ĠB ass
anth rop
Ġfl ed
Ġà¤ĵ à¤ª
( __
Ø§ Ø
ĠIndust rial
à¥ĩ "
ĠJ enn
cond itions
Ġcomp ute
à¥Ī '
Ġform ula
ĠCl inton
ĠHe avy
ĠN ature
Id entity
former ly
h ere
Ġà¤¨ à¤²
ĠT on
Ġ186 2
ĠSpring s
C ell
Ġreported ly
Death s
li k
Ġdim ensions
Ġfest ivals
ĠUE FA
L et
Ġsim ultane
à¤§à¤¶ à¤¤à¤ķ
Ġop ponents
file path
Ġlicens ed
Th ree
D ict
ĠM other
ĠK os
à¤Ĺ à¤µà¤¤
19 18
Ġem igrants
f eld
Ġf ont
H owever
Ġ ],
th rough
ĠN ULL
ĠMov ie
ĠAzerbai jan
ĠP C
ĠH amb
urn aments
Ġà¤¸ à¤¶à¤¸
Ġh a
Ġmuseum s
ĠArab ic
ĠS now
ir s
ĠForm ula
Ġt s
i est
ĠY u
Ġaffili ated
d iction
pl an
Ġoper ational
MA X
à¤Ĩ à¤²
Ġcl ock
Ġmass ive
Z E
Ġsp oke
à¥§à¥ ¬
ĠG ang
Ġdel iver
ĠR ange
ol ition
Ġsup plies
Ġabs ence
Ã© l
V A
r ative
Ġpart ially
Ab s
Ġan ime
ĠEx amples
à¤Ĩ à¤°à¤¸
Bl ue
Ġconnect ing
ine e
ĠC E
Ġà¤¤ à¤²à¤µ
Ġch amber
Ġran ges
t ical
Ġ+ +
ĠBe h
Ġpat ient
clus ive
à¤² à¤«
ĠB ath
Ġart if
ĠCharl ie
Ġsuit able
Ġsignific ance
Ġ] );
p p
Ġ urg
let ion
Ġsettlement s
Cond ition
ĠC ob
ĠI an
id al
Ġdepart ure
L uc
re lease
à¤² à¤ĸ
à¤° à¤ľà¤¨
à¥Ī "
ag i
ĠN iger
à¥Ģ !
ĠM ix
ĠR ing
ĠW atch
ĠPen insula
Ġ'/ '
ĠSm all
Ġb its
p ol
Ġne ither
f old
ĠS P
ĠAb bey
Ġevery one
Ġrele vant
Ġd ub
th on
N C
Ġ ).
ĠA uckland
m ir
ar se
ĠBy zant
ĠTra vel
irt ual
Ġgreat ly
Ġinstrument al
à¤ŀ à¤¤
B usiness
à¤ī à¤¡à¤°
sect s
Ġcon j
ĠJ oy
Inter val
v et
Ġis n
se gment
ĠEx per
Ġs udden
ĠS z
ĠB av
ber ry
Ġr ub
Ġweap on
à¤Ī à¤¯
iven ess
Ġmag ic
ĠSpe ed
I R
ĠC old
ĠAl ice
ĠCra ig
I rish
ĠD esc
Ġtrans mission
Ġmov es
Ġinf antry
il is
Ġtra il
e lect
ish a
ĠArgent ine
Sing les
Ġtop ics
Ġ12 5
Ġsol ar
ĠL ock
Ġà¤ıà¤« à¤Ĩà¤Īà¤Ĩà¤°
à¥Ī )
à¤Ĩ à¤µà¤ľ
it ure
Ex ecut
ĠProte ction
Ġà¤¶ à¤¶
Ġm ail
Em ail
Ġm ath
Ġphys ician
Ġro ots
ĠPers ian
ro se
Ġsign s
Ġbeg un
Ġe arn
Ġex cess
Ġp ul
Ġh ook
à¤¼ à¥Į
hemat ical
à¥ĭ )
app oint
Ġapparent ly
ĠNich olas
ĠVerm ont
it ual
ĠD ol
ang ular
'] [
ĠC ad
get Instance
Ġins urance
Ġtravel ed
Ġà¤ĺ à¤¬à¤°
stit utional
Ġclaim ing
art a
Ser ial
Ġindic ating
Ġvalid ation
ĠM ey
Ġg all
Ġerect ed
eng ths
d n
Ġmount ed
ĠK un
Ġb id
Sec urity
amp a
Ġreb uilt
ass y
Ġcontin u
ĠAt hens
Ġmarket ing
ĠMin or
ĠOl iver
ĠBaron et
ĠCirc uit
L ove
ĠV egas
ha us
Ġpremi ere
ov ich
cl uster
th lete
ĠB rew
Ġ188 2
Ġbeh alf
Feat ure
à¥ ĳ
SE T
Ġconc erts
Ġn urs
Ġà¤Ĩ à¤¸à¤¨
Ġup grad
t uple
ĠE g
s n
exp ression
] [$
Ġch rom
Ġpre ferred
à¤Ĩ à¤¦
Ġed itions
Ġsub stitute
Ġpar ks
Ġamong st
Ġinn ings
l arg
as ia
end a
(' \
the less
Ġb inding
Ġex posed
ĠJeff erson
Ġv ow
ĠBe aut
s alt
Ġc ursor
S port
ĠM ason
Ġdis able
stra int
Ġà¤®à¤¹ à¤°
ix on
ĠSh aw
Trace Component
oc al
ĠPh D
t or
Ġre vers
Ġvol leyball
Ġcons p
à¤ıà¤¸ à¤Ī
ĠG round
Ġdef ending
S end
à¤ļ à¤¤à¤®
pre pare
o ons
ra ise
p air
Ch arts
pl oad
Ġproduc es
Ġconcent ration
ĠH av
ĠH udson
ĠR ight
repre neur
L aw
ĠP i
Ġà¤ħà¤µ à¤ķ
ĠT ask
Ġadvert ising
M or
w eek
Ġlow est
Com ment
Ġà¤ľ à¤¬à¤°
Ġcustom ers
Ġc ul
Ġmov ies
Ġt ruth
hold ers
w indow
ĠC incinnati
ĠSh ip
ĠF err
Ġacc ord
Ġd ual
H y
à¥į '
Ġb ind
T or
Ġà¤« à¤¤
O C
F T
Ġcoach ing
Ġdu o
ĠBulg aria
à¤® à¤ļà¤¨
19 32
ĠSy ria
Ġdest ruction
comm it
en burg
au er
r m
W in
ĠM oz
ĠKir k
onom ous
V P
ĠJ osh
iv ery
ith ub
< >();
run ning
Ġclos er
Ġwid ow
Ġw el
Ġà¤ħà¤¤ à¤ıà¤µ
Ġinteg rated
m un
p us
eg in
Z one
con st
Ġset up
spec ies
Ġcas ual
u able
er as
Ġre duction
Ġhe aring
Ġo cean
Ġà¤¤ à¤ªà¤¸
az i
Ġop ponent
K n
ie g
Comp anies
or ous
writ ing
Ġbi ography
Ġcou ples
Austral ia
ĠL an
ĠComm ons
L ondon
Ġc argo
over e
ĠC row
Ġg ymn
Ġdeliv ery
à¥ģ .
ĠM asters
I l
Ġm atters
Ġsl ave
ĠHer bert
b inding
R aj
ble m
ist ered
Ġdis put
Ġgrand father
Ġopportun ities
t l
S ocket
Ġpick ed
p ow
Ġinaug ural
d st
ĠL ov
à¤ĩ à¤¶
ĠChe l
Ġgrad ually
ĠVin cent
) ).
Ġs oul
V ir
19 29
att en
à¤¸ à¤¬à¤¸
SER VER
ã Ģ
à¤· à¤ª
Ġfac ing
Ġtre nd
Ã± a
Ġb ases
Ġdefend ers
Ġt anks
ĠM ig
Ġcl ick
Ġfrequ ent
o ard
ĠCh air
if ts
: %
sw ick
ĠW es
Ġplay offs
Ġorgan isations
Ġcompar ison
ĠSymph ony
Rem ote
B utton
c z
Ġt ables
ĠFin ance
ul ner
Ġg rey
rehens ive
call able
ĠHol land
à¥§à¥ ¨
H am
Ġgu arant
Fl ags
Ġhundred s
H ouse
ĠT u
ĠH em
cy cle
R ight
as m
ann ah
ĠVenezuel a
Ġbe et
b ie
Ġà¤¬ à¤ĺ
ĠLe ader
r b
Ġb orders
ull ivan
Ġth reshold
Ġà¤²à¤Ĺ à¤µ
Ġrel ocated
ĠLu is
Ġdefault s
ri en
ĠSt evens
193 3
Ġf antasy
ĠIs a
ĠP le
ĠF riday
se lected
à¤¨ à¤ľ
av ia
ĠR ou
ab e
Ġà¤°à¤£ à¤µ
p ag
à¤ĩ à¤¡à¤°
Ġt ur
Ġmat hematic
D D
à¤ª à¤°à¤®
S M
ĠEag les
au kee
iss a
T ri
Ġres emb
son s
ĠĠĠĠĠĠĠĠĠĠĠĠĠĠĠĠ ĠĠĠĠĠĠĠĠĠĠĠĠĠĠĠĠĠĠĠĠĠĠĠ
ĠCl ay
Ġrest oration
Ġà¤¢ à¤ķ
ĠM ut
Ġign ored
re pository
Ġcommand ed
izont al
ĠS eb
D ial
ĠM end
ĠMicro soft
Ġfor wards
Ġdim ension
Ġconstit utional
ĠAl t
F our
Ġsub mitted
ĠC N
Ġà¤ī à¤§
Ġcert ificate
ĠBuff alo
Ġind ices
ĠT ang
Ġexc av
M ex
Ġvert ical
id ency
ush ing
B ul
ĠL ear
Ġgu ide
Dan iel
ĠB urg
ĠD ragon
Ġencour aged
à¤°à¤¤ à¤®
com b
P ak
et ing
ĠLOG GER
S ever
ĠB ird
ab ric
F ar
Ġsee king
rypt ed
em ed
ĠV lad
D im
R h
Ġd upl
Ġcomp ound
ĠShe l
ĠG or
Ġcom ics
à¤¸ à¤«à¤°
qu arter
build ing
in ite
Ġman age
ari us
string s
Bet ween
Ġcl ar
à¤Ń à¤Ĺà¤µ
193 4
ĠArmen ian
Ġphen omen
M att
Ġà¤¬ à¤¦à¤¨
own ed
ig g
ath ers
ĠB lood
s ites
Ġà¤ħà¤µ à¤Ĺà¤¤
Ġdescrib ing
Ġtest ed
ĠA x
ĠCo ach
end or
ong o
ops is
b its
ĠFl ight
Ġcomment ed
Ġdiscuss ion
J ud
ĠBer g
Ġt ort
Ġkeep ing
Ġw et
im iter
sh op
Ġà¤Ŀ à¤¡
ĠTechn ical
ĠS oul
Ġposs ession
Ġà¤Ĩà¤ļ à¤°à¤£
ĠP el
Ġkey word
Ġm ines
r ary
Ġany one
second s
Ġhel ic
R ules
st age
as ant
à¤¥ à¤¤
Ġfac ilit
Ġaim ed
Ġà¤ıà¤ķ à¤ľ
ah an
Ġsm ooth
ai ro
ĠC P
Ġver ify
Ġnob le
P ubl
script ions
Is rael
i ated
ĠS audi
Ġsy nc
iz ers
Ġà¤ķà¤ª à¤²
Rep ublic
Ġmix ing
ĠHor se
Ġdecor ated
c aster
ĠChrist ians
à¥¦à¥¦ à¥¦
ĠEth iop
ĠSo ft
Ġspons ored
Ġà¤ĩ à¤¬
B ook
Ġw at
ĠS earch
Ġg od
Ġtri als
Ġprincip les
r ates
Ġra c
Col l
ĠB ond
Ġde leted
Ġtra p
rag ue
ed a
Ġadult s
Ġret rieve
Ġk it
Ġà¤ħ à¤µà¤°
Ġpublic ly
t ic
`` ,
Ġstat ements
ĠD iamond
Ġcharacter ized
Ġà¤¤ à¤¡
Ġreg ime
b utton
Ġ" -
ĠN HL
S oviet
à¥ĭà¤Ĥ ?
pro tocol
Ġrep orter
Ġcrit eria
ĠCont emporary
ih ar
Ġbound aries
ĠSt ein
Ġmar ks
Ġà¤ħ à¤µà¤²
ir th
Ġf older
Ġgener ator
ĠBer keley
Ġcivil ian
al pha
ub a
Ġst ress
ĠW u
w aukee
ĠOper ations
ov an
Ġrep air
Ġexact ly
ĠQu ery
Ġten ure
ĠT R
ig ion
à¤Ł à¤ħà¤ª
Ġà¤ī à¤®à¤°
Ġdise ases
Ġap artment
Ġalcoh ol
() ).
à¤ī à¤§à¤°
aut o
mar ks
R ender
x x
Ġfarm ers
West ern
Ġg ift
ĠN at
ĠB og
trans action
à¤ľ à¤Ń
Ġpro hib
Ġadv oc
Ġà¤ī à¤Ńà¤°
ĠHis panic
ĠAcc ount
ĠC atherine
Ġimm igrants
ra ud
RE CT
Ġrespect ive
Ġlegisl ative
à¤® à¤ļà¤°
Ġleg s
vol ume
H ouses
k an
ĠH ob
ĠRepresent ative
Q UE
t ool
Ġposs ibility
Ġview ed
ĠS ierra
19 19
Ġsk i
C aptain
Ġl ingu
Ġfile path
Ġ' )
ĠP ont
ag g
Ġrun ners
Ġre ven
Path s
Ġpre domin
Ġfund ed
Ġsculpt ure
Ġf rag
[: ,
Ġà¤Ľ à¤¨
Ġhand ling
ĠF eat
19 22
W ater
st rap
ĠL ion
ĠL GBT
" ],
Ġto mb
Ġatt ending
à¥Ĥà¤Ĥ .
A h
Ġh orses
Ġmake up
Ġmechan ism
L ook
ĠE mb
Ġ187 6
ĠCo al
p iece
Ġt icket
L es
O l
ok u
S D
ent o
ĠSt ream
Col lege
ĠD od
ect ors
Spec ies
Ġn inth
Ġexcept ions
V E
Ġ- =
Ġsurv iv
Ġqual ify
iv ic
Ġweek end
Ġas ks
ĠEn s
Ġexpl o
ĠCamp aign
vel t
ling ton
M D
Ġplay wright
Ġind ent
Ġ185 7
ĠA viation
per iod
C N
ins ky
Ġass emb
S ong
p k
VAL UE
Ġsubstant ial
K O
S un
h al
Ġac oustic
Ġdomin ated
Ġliber al
L ieutenant
ĠS Ã£o
Ġ187 8
ĠPeters burg
ĠRev ival
Ġà¤² à¤¦
19 14
Ġsong writer
Ġleg acy
EN D
s b
W R
Ġconserv ative
ĠS ultan
arri ors
Ġarrang ement
d al
c ookie
M ur
ĠDi ocese
à¥ĩà¤Ĥ ?
ĠG len
im g
ĠK i
Ġpart ly
Ġdeploy ed
ĠNep al
Ġag ree
ĠH ope
ĠKer ala
ĠD im
Ġà¤ıà¤ķ à¤¡
fl ush
Ġthr one
à¤¡ à¤ª
ex isting
Ġà¤īà¤ª à¤¹
opt ional
h istory
Ġnovel ist
ĠPerform ance
Ġcall able
add ed
ĠE U
Ġcomp ens
ĠM ann
Ġcommun ications
Ġpal ace
t f
ra ge
Ġprov inces
Ġsubsid iary
Ġdep ression
Ġrest ore
Ġon going
Ġtrad ed
ĠMag ic
St rategy
Ġenjoy ed
Ġim perial
] ),
Ġs ampl
Ġvot ers
Ġc url
Ġp ale
Ġà¤ħ à¤·
Ġdr ummer
roll ing
Pl ayers
OR T
ĠRob in
Ġnot ice
Ġà¤¸ à¤Ĭà¤¦
ĠCon cert
Ġins pect
Ġdisc rim
Ġpart ners
ĠF if
ĠJ ob
19 28
Ġt um
à¤ı à¤ľ
ĠA C
Ġoccas ion
g reen
ĠU P
Ġclos ure
ip ino
Ġà¤Ŀ à¤²à¤ķ
Ġrespond ed
TI ME
M AT
Ġl ose
Ġadj ust
F ind
ul ates
à¤° à¤¬à¤²
or ient
ind ices
Ġà¤īà¤ª à¤µ
ĠEngine ers
Ġce ased
ff ield
am ics
g ot
Ġcontin uous
reg ex
Ġident ical
Ġsec ured
ĠE li
ĠS or
Ġdiscuss ed
Ġconstit ution
ä ¸
Ġmurd ered
Ġdismiss ed
Ġdis band
ĠF ighter
ex port
Ġev ac
Ġorgan ised
ĠFac ulty
ĠWell ington
Ġast ro
#### ####
gom ery
Ġe mp
ens ively
Ġ13 0
ĠO il
ist ration
ert on
rel ations
p g
ĠA ber
ĠG ay
rec ords
ĠMer c
l ass
ĠK ash
ĠCon struction
Un incorporated
b one
ĠR ah
ĠY ang
ĠCh apel
Ġtw in
ĠEconom ics
Ġf itted
Ġto urnaments
end ers
Ġcommand s
ĠNot able
tx t
Ġal tit
f i
ĠJ ar
ĠEd wards
Ġphotograph s
Ġcoal ition
Ġt unnel
ot ing
à¤ĸ à¤µ
ĠR efer
Ġà¤ĳ à¤¨
ĠRel ations
Ġstrugg le
19 27
Ġcap s
Ġt on
à¤¦ à¤¹
Ġd rag
Ġprior ity
ĠCru z
ena issance
ĠNew castle
ĠJon athan
C y
ĠP ast
Id x
Ġà¤Ĩà¤² à¤®
ĠI gn
Ġb right
Ġh at
f eed
Ġdis pute
spe ed
T reat
ĠP O
Ġà¤ħà¤¸ à¤¹
ĠS ox
ĠF am
M r
et o
Ġbel ongs
ĠUl t
Ġpass age
ĠScot ia
J ac
el ia
ĠC red
Ġfall ing
Ġf ilters
Ġexpos ure
v ariables
Ġview ers
Ġdec ode
ĠAngl ican
AN D
Ġm asc
ĠS QL
Ġs ending
ov sky
Ġv ast
tra cks
à¤ıà¤® à¤ıà¤ķ
et ary
Se lector
ĠMc L
ĠCom puter
2 50
g eneral
Ġint ellectual
L ike
iz z
ĠRepublic ans
Ġwear ing
ĠS ask
ran o
SC O
Ġto ured
Ġpl ain
Sim ple
Ġw edding
ĠH erman
Ġst em
ĠSt uart
ĠBrun swick
get Config
Ġreve als
Ġà¤ľ à¤¶
Ġstand ings
ĠDr ive
ĠM Ã©
Ġreg ulations
Ġadv ice
ĠP ic
ĠCh ange
ĠJ erry
iv o
Ġal t
193 1
Ġp it
Ġe at
Invalid ArgumentException
à¤¨ à¤µà¤¤
ĠS uz
Ġfoc uses
Ġdeb t
à¤¶à¤ķ à¤¶
ĠRog ers
as man
ĠS um
ĠD est
ath ered
Ġhy per
19 21
Ġposs ess
Ġconv inc
Ġdisestabl ishments
Ġcomplet ing
t m
Ġcircum stances
= >
Ġre venue
Ġr ide
Ġth erm
ME T
Ġanim ation
Ġtal ent
ĠRuntime Exception
ĠB ald
/ ',
L ayer
Ġà¤¨à¤¹ à¤°
Ġel dest
ĠHug hes
Ġhonor ary
Ġclin ical
ry s
Ġext reme
ĠArch bishop
Ġà¤ħ à¤¥
Ġe arning
Ġw inds
ĠB ach
Pol ish
Ġv el
dest ination
ĠL ost
ĠQu arter
ĠP HP
__ ,
ĠFlore nce
Ġprinc iple
ĠS uch
M ut
Ġ20 24
à¤« à¤¨
pro t
S L
ĠC ou
ĠL ux
à¤¼à¥Ģ -
Leg acy
Ġbeaut iful
he el
à¤ĸ à¤¬à¤°
ose velt
Ġspe aking
und a
M T
ĠEx pl
sk ip
Ġn est
20 22
ra h
Ġatt ractions
Ġ187 9
Ġres ort
az y
ĠGra ce
ĠB right
ĠI ss
Ã© r
ent ries
Ġ188 3
Ġestablish ing
Sign ature
ĠT ax
ĠJ ess
ov ina
Ġup load
C ard
S yn
Ġattempt ing
g us
Ð ¼
ic ates
ul y
Ġ187 5
w ent
Ġr id
Ġcl an
d one
Ġin fl
ĠM old
Ign ore
Ġsc en
Ġacc eler
à¤ıà¤® à¤ıà¤¸
s q
Ġjuris diction
Ġm os
ers hire
ĠV iol
ĠY ale
cent ral
Ġgu ilty
Ġrh ythm
Ġsust ain
à¤¦ à¤Ń
Ġà¤¤ à¤¹à¤°
Ġà¤Ł à¤®
ĠCal c
ĠDen ver
ĠÅ ł
Ġmach ines
an ion
Ġminor ity
Ġlab our
à¤§ à¤¡
W AR
Ġà¤ĸ à¤ľ
is Entry
Ġb anned
prim ary
Ġà¤Ń à¤Ĺà¤¤
ĠWars aw
ĠL en
ĠShang hai
h aw
st able
ĠBuddh ist
ff bb
ĠSab ha
Ġà¤ĸ à¤¨à¤¨
av ier
Ġ15 00
Ġincre ases
ĠOtt awa
à¤¼ à¥ī
ĠR ams
Ġinc omp
Ġb ishops
ĠH ugh
Ġexclus ively
ĠInd ependence
u ador
Ġc ash
Ġà¤ı à¤¬
Ġem peror
Ġst im
cl i
Ġdis abled
B it
Ġdec isions
Ġbelong ed
isEntry Enabled
Ar thur
âĢĿ .
Ġaut hent
à¤ļ à¤¸
Writ ers
Ġphot os
Ġsuper ior
ĠM umbai
ĠAct or
Ġaccess ible
ip per
c ursor
ĠSt op
Ġà¤¨ à¤«
Ġ" [
unc redited
Ġbl og
Ad apter
S pe
ol en
ind a
Ġbo ot
Ġà¤¬à¤° à¤ķà¤°
Ġesc aped
Ġà¤¬ à¤µ
ĠKe ith
Ġsym pt
song writer
S u
Ġto uring
ĠH D
sk a
P et
ĠL ok
l ay
R ay
g ie
Î ¿
miss ing
b et
Ġdr iven
ans k
Des pite
Prim ary
go ogle
Ġpay ment
ĠMean while
ĠHeb rew
ĠS ad
os ity
ĠAll ied
Ġexclus ive
ĠDat abase
ĠBris bane
ape st
Sh ow
ĠChristian ity
it ars
Ġdes ire
if inals
V ictor
} ".
arm s
Ġà¤Ľ à¤²
IC E
( /
c ached
g ence
Ġout standing
Ġ186 8
Ġreport ing
Ġremov al
ĠConfeder ate
ĠPro ductions
Ġred irect
j ar
Ġw rap
isc opal
Des ign
Ġelectric ity
à¤ķ à¤ķà¤°
Ġdraft ed
Ġge ometry
Ġchar ity
rypt o
Ġmanufact urer
G N
Ġb ay
ent le
ia o
Ġdec ides
Ġ186 7
M arg
o om
ro e
Ġà¤¡ à¤¬à¤²
Ġg ay
Ġren ov
h ot
Un ion
ĠA round
Ġg ross
apt ers
Ġcl othing
Ġport rait
F loat
Ġg ard
ĠDel aware
ab il
Ġelect rical
Ġà¤° à¤¶
ĠAir lines
NO T
Ġdial ect
ĠC elt
l ag
Ġpro ps
Ġm ir
Ġl ambda
inc eton
it ol
Ġc emetery
19 25
B atch
P resent
ĠP od
Ġgen etic
iff s
Ġ18 00
Ñ ĭ
Ġc ircle
ĠMad ison
comp are
ĠWat son
m ay
ĠR idge
à¤°à¤µ à¤£
à¤¦ à¤°à¤¤
Tax onomy
al er
ĠM ort
Ġid s
U k
h istor
ars ing
AR T
ĠAng lo
à¥§à¥ ª
S ite
à¤Ī à¤¨
str ument
Ġtim ber
ĠN AS
Ġtrad itions
" >
IT Y
Ġà¤ļà¤² à¤ķà¤°
Ġwithd rew
ĠLat ino
ĠSom erset
ib ilities
Ġorig ins
Ġiniti ated
Ġmer ger
19 26
iz ard
ĠTh or
eth yl
Ġd st
ern e
sign ature
Ġaltern ate
oc us
19 24
Ġsett lers
Ġengine ers
ĠPr int
ie u
Ġpe oples
Ġs ailed
Ġas set
Ġflo od
ro oms
Ġacqu isition
Ġunsuccess ful
Ġà¤§ à¤¡
Ġinst ruction
Pro tocol
s d
ĠN y
ath i
ĠGro ve
Swed ish
Ġb io
Ġal pha
Ġsequ el
Fran ce
Ġà¤Ĩ à¤ĩ
Ġr ig
az ar
ili ary
t ab
à ±
ĠK ra
Ġlo oks
id i
Re port
Public ations
Ġdes ert
conn ected
à¤¤ à¤¯
om o
Ġun icode
Ġeff icient
Ġr ising
PAR ATOR
Ġch ron
Ġun certain
Ġide al
Ġt ons
à¤ĵ à¤²
m other
Ġm d
Ġg iant
Ġ3 60
ĠBro ther
Ġ187 7
F oot
Ġn a
Ġcalc ulate
Ġacknow led
ĠMal ay
Ġg ap
ĠCh i
Ġsequ ences
á ĥ
In formation
Ġall iance
S ervices
à¤¸ à¤ıà¤¨à¤¯
ĠG lob
C ities
ĠTher efore
à¥ĩà¤Ĥ )
Ġdr um
Ġrecover y
ĠM ul
iz a
ĠBos nia
Ġsk y
or um
Ġcl one
W F
d em
feat ures
n orm
ĠStud y
Ġliqu id
à¤® à¤ķà¤¤
an j
ĠI T
ĠEr nest
Ġprepar ation
H tml
ĠT erry
M B
Ġ3 50
ĠS ak
Ġ187 1
pro duction
il o
Ġ) );
Ġesc ort
Ã§ ois
Ġbatt alion
the me
Ġle agues
Ġà¤µ à¤§
ĠLe eds
Ġr ated
Ġinstall ation
Ġsup plement
Ġacc um
7 00
Ġà¤Ĩ à¤ī
s amples
Ġstr len
ĠB S
ass ert
f urt
ick ing
ĠĠĠĠĠĠĠĠĠĠĠĠĠĠĠĠĠĠĠĠĠĠĠĠĠĠĠĠĠĠĠĠ Ġ
ĠBut ler
ĠG P
Ġhel ps
sing le
Ġto ler
na issance
HER E
Ġc odes
s ince
akes pe
Ġstreng then
ĠHar old
R ugby
Ġinvol ves
U I
Ġ ib
Ch ief
us a
ĠK rish
Ġà¤ħà¤ª à¤¹à¤°à¤£
ĠPer ry
ĠRay mond
ĠS ide
19 23
Method s
Transport ation
Po inter
ĠM atch
uc he
ĠCong o
ĠS ang
ir ms
Ġart work
ill es
Ad min
ĠB es
og g
ord ered
log ging
ĠCard inals
Ġess ay
U int
l ic
Ġp or
Ch ris
Ġt urb
Ġscholar ship
p ip
Ġc ached
is che
ĠS ay
Ġcl ients
à¤Łà¤° à¤ª
Ġsign als
ID s
Ġess ential
p aces
Ġs ight
lin ks
Enc oding
M iddle
Ġt el
ac a
à¤ıà¤¸ à¤Ĩà¤Ī
Rev iew
Ġiniti ative
ĠJ in
i eth
") );
Ġn am
Ġun incorporated
Ġà¤¨ à¤¬
Ġ{ $
H ol
p res
hel p
ĠMer it
ĠValid ate
Ġw ard
SE PARATOR
Ġconstitu encies
Ġisol ated
ĠM ills
ring ton
Ġ0 1
Ġrestrict ed
um ing
Ġm or
Ġbe ating
At om
ar ator
Ġc atalog
Ġb orough
Ġcon ven
t imes
Ġal ive
ĠMur phy
l ights
spect or
C ounter
ĠG as
h l
ĠB ear
con cat
requ ire
ĠProtest ant
IO Exception
Ġbeaut y
Ġrep o
Ġsl aves
Ġ186 6
Ġinn ov
Ġ187 3
ĠV e
ĠÃ ģ
Sm ith
Ġ187 2
g b
Ġvict im
Ġearthqu ake
ĠO ct
Im port
Ġse ct
ili ar
B i
p el
p rec
ĠT ogether
ĠL ar
Ġex ceed
Ġr itual
ĠR ivers
Ġà¤īà¤² à¤Ŀ
à¤¹ à¤¡
ier archy
An th
Ġen forcement
oir s
ĠDivis iÃ³n
ĠSer ver
ĠAcc ess
pl ant
ĠArt ists
r ise
Ġdebut s
pl atform
Ġcount s
Ġrad ical
t ail
Ġcou p
Ġenc ode
ĠHel en
ĠHamb urg
Ä Ļ
ira cy
Ġassist ed
Ġ187 4
W indow
ĠTh ai
Pl an
Ġà¤Ĺà¤£ à¤°
ĠWork ers
ĠU RI
à¤Ĺ à¤ªà¤¤
ĠConserv ation
ĠCom merce
Ġmidfield ers
F ilename
à¤¥ à¤¶
Ġà¤ļ à¤®à¤¤
Ġinher ited
am ount
Ġsurv ive
Ġà¤¹ à¤¸à¤¨
Ġcle arly
ĠP av
Ġass ume
Ġcon clusion
Ġ' $
Ġg al
Ġres olved
Ġtreat y
ĠBulg arian
ĠVen ice
Ġà¤² à¤ĸ
dat aset
Ġl ayers
ĠK le
ĠRh odes
ĠJ son
Ġsh ock
R ad
i our
in ternal
à¥§à¥ «
Ġd angerous
z ero
} ;
ĠTib et
G C
Ġobject ive
à¤® à¤Ł
ÅĤ aw
Ġt ill
Ġv irus
Ġ> >
Ġre aches
att a
Ġdist ribut
Ġdec ide
Ġmanufact ured
Ġrep ly
at om
ĠUn like
om eters
ric ks
ĠHar vey
ĠWrit e
ĠEs sex
Ġprodu ctions
e or
Ġplay off
p ages
Ġel igible
HT ML
ur as
Requ ired
B r
P ut
Ġdo ors
atche wan
Ġp ole
ep hew
akespe are
ed itor
Ġà¤ĩ à¤Łà¤²
ĠL oad
pr ising
Ġpict ures
A z
ĠH ad
ett i
ĠM achine
File Name
Ġb aby
Ch an
f ilm
W il
leg raph
__ ['
Ġinput s
ff cc
ph abet
Ġrel ay
Ġ186 9
Ġint ention
ĠG ust
xy gen
Mult i
U l
ens on
ĠTw itter
Ġdepart ed
ver ts
Ġcross ed
comp lete
Ġwe ights
Ġdelay ed
F ellow
N a
Ġj ury
Ġmod ules
ordin ate
Ġcre ates
Ġmult ip
ĠArch ive
en vironment
Ġw aste
Ġpro fit
F K
G ood
ed o
ĠArab ia
Ġgen es
ĠGil bert
c ott
get Property
Ġdomin ant
ĠW ells
Ġman aging
ache l
PT ION
h all
Ø ¯
Ġpack et
ĠHen ri
Ġw al
ac ional
uk h
Ġà¤Ī à¤µ
eng u
Ġph arm
Ġport s
LE TE
Ġviol ent
Ġexhib itions
Ġpurs ue
Ġa qu
Ġout break
OR D
Ġf ramework
à¤°à¤¶ à¤¸
rypt ion
Ġthr iller
Ġhy brid
Ġstrateg ic
Ġoverse as
ch arg
Ġmeas ured
En v
] ):
Ġread ers
Ġproced ure
Ġtrav elled
Ġà¤ªà¤¹à¤² à¤µ
ĠAl ong
ĠD I
Ġsim pl
F ire
Ġn ucle
Ġconcern ing
Men u
pl ugins
Ġsee ing
ĠFin ancial
= {
Ġb attery
by ter
for ced
com ponents
Ġcond em
à¤¶à¤¨ à¤°
ĠM es
Ġà¤¸à¤° à¤ª
C r
rec ated
R oad
e ing
Ġmon astery
ĠSh adow
ĠTre as
ĠA er
Ġco operation
Ġdivers e
DI R
ĠR av
reg ular
Ġf ragment
ĠW onder
Ġpro of
ĠF lying
min ster
st ates
Ġp d
Ġà¤Ĩà¤Ī à¤ı
J on
Ġ{ "
Ġcomp are
Ġà¥¨ à¥«
Ġcampaign s
ĠSw an
P UT
h ome
S ummary
uch i
Ġcompet itors
ly ph
ĠAnt i
ĠGuard ian
z ig
à¤Ń à¤¨
agon ist
p od
Ġinflu ences
E ducational
s creen
ĠB uc
Cert ificate
Ġb uff
Ġco ff
ĠSim p
Ġmanufact urers
Bo olean
â ĪĴ
ĠInd ies
ĠFriend s
b eta
up load
M inist
Ġn eck
L iber
Ġas ync
" ])
ra wn
Ġrow span
oy age
/ '
h is
Ġmidfield er
m embers
Ġcarri er
ĠAr nold
h m
Ġà¤Ń à¤ľà¤¨
ap ur
lo or
Ġrecogn ised
ĠF ig
ĠW alt
std err
Ġpitch er
ĠA ires
Ġneut ral
Ġexerc ise
Ġmechan ical
pr us
ĠInt elligence
Ġ à¨
Ġs isters
ott ingham
serv ices
à¥§à¥ ©
ĠC ustom
B road
er k
Ġh ope
à¤ı à¤Łà¤°
As ian
Ġinternational ly
Ġà¤® à¤ķà¤¸
ĠCon c
ĠR aid
ĠG raph
ĠPr ivate
Col onel
re ason
el o
Ġeconom ics
Ġm arch
ĠDemocr at
19 17
ĠEncyclop edia
Ġg ran
Ġop ens
oid es
ĠFried rich
M essages
Ġbut ter
Ġathlet ics
Init ial
ent in
ĠS ic
Ġexp ensive
ĠLeon ard
oc y
Ġpro c
ĠAgric ulture
ĠP ul
ran k
Ġ12 8
Ġmin i
ĠHe in
ĠC H
Ġse q
ov ing
, '
Ġre organ
umber land
Ġdist ingu
à¤°à¤« à¤²
ash ire
G reat
\ '
n eg
B ound
Ġhous ed
ĠNash ville
det ails
S ep
st ed
ĠTh ir
Ġpract ical
ĠDel ta
h im
ĠF ly
Ġnovel ists
à¤°à¤¤ à¤µà¤°
Ġ18 40
b uilt
à¥§à¥ ¯
Ġre act
Ġadd r
Ġmat ched
R R
ĠS oci
Ġ10 8
ator ial
ĠMont gomery
Ġin ternet
ĠS ource
Ġfif teen
Ġpromot ing
Ġf ee
ut o
Ġas k
Ġt ies
Ġs ugar
Ġor n
Ġro ster
Ġfl ights
19 10
Row s
ĠX I
osp el
ĠRo osevelt
Ġa thlete
on na
ĠLeban on
/ {
ell ation
ett ers
Ġp rices
om es
ie v
Ġrece ives
ĠÃ Ĺ
A E
Ġt ribute
ĠF ro
Ġhe ar
à¤Ĩ à¤ĩ
Ġà¤ľ à¤²à¤¨
Ġconsist ent
ĠWil helm
Ġaggreg ate
á ¹
ĠS urre
ĠJ unction
sc ribe
ok ing
oy e
Ġdis contin
h agen
r if
Ġre plic
cs v
Ġgrow s
Col umb
ĠPhill ips
t ax
CO L
Sy mbol
Ġà¤ıà¤ķ à¤²
Ġus ual
F ort
à¥§à¥ ®
ou ter
à¤ĩ à¤®à¤°
Ġph rase
Ġbelie ves
osl ov
Ġnegoti ations
ys ical
l ia
Ġà¤µ à¤¯à¤¸
ĠW inn
Ġimp ress
Ġconduct or
Ġs ang
ĠDev on
Fore ign
Ġh o
ĠR oche
Ġ10 5
ub er
ĠPed ro
M ike
Ġpredecess or
ĠS oon
ĠT ry
oid s
BU G
ĠPro duction
Ġdesign ation
uck er
g ra
Ġdemonstr ated
Ġà¥ ¦
Ġev il
ĠHigh er
ĠAh med
ad ier
Ġno ise
Ġpoint ed
à¤¶ à¤ª
Ġorigin ated
Ġdepart ments
Ġinc umbent
Ġindust ries
ĠScient ific
Ġspe aker
E very
f our
Brazil ian
ut a
L at
ic ia
ĠA T
get Path
ĠC B
Ġsc an
:` ~
Ġpers u
ĠG T
Ġben ch
Ġc attle
Ġterm inus
Ass ign
G reek
ĠC ant
ĠStud ents
Ġp atch
ĠR at
Ġsub marine
ĉĉĉ Ċ
Ġrot ation
H ind
n ell
Nor thern
ĠL ex
cal c
ym ph
Ġà¤Ĩà¤Ĺ à¤®à¤¨
ĠYugoslav ia
ĠAct ress
à¤¯ à¤µà¤°
Ġrece iver
Ġlook ed
H or
file Name
Ġb undle
D epend
ĠCh a
Ġfight ers
ĠKn ights
Ġpet ition
P oly
f p
Th rough
sequ ences
ess a
ĠCh an
Ġà¤« à¤²à¤¸
ĠL arry
ĠG uild
ateg or
ĠNe il
Output Stream
Ġper mitted
F ictional
Ġto urs
ĠM ach
ĠAr c
Ġc yl
Ġbi ological
Ġp ill
ra ises
Ñģ ÑĤ
Ġ( %
Ġsl ot
Ġequ ation
ar u
it oba
Ab stract
Ġdiplom atic
publ ished
ĠJ oint
ĠRe ed
ĠRo om
zeg ovina
ĠP aint
Ġsymbol s
ĠĠĠĠĠĠĠĠĠĠĠĠĠĠĠĠĠĠĠĠĠĠĠĠĠĠĠĠĠĠĠĠ ĠĠĠĠĠĠĠĠĠĠĠĠĠĠĠĠĠĠĠĠĠĠĠĠĠĠĠĠĠĠĠĠ
ĠM orning
l ane
b at
Ġh ospitals
Ġelse where
Ġpers pective
P ier
Ġg auge
ĠNew ton
ĠRail ways
O UT
d ot
work er
Art icle
Ġb ott
Ġthere after
ĠFor um
ĠPal mer
J oe
ic ing
Ġn ut
Ġ ):
Ġpow ered
Ġphotograph er
s cheme
Ge org
Ġrare ly
à¤ĩ à¤ķà¤²
en eg
Ġpro x
à¤ĩ à¤°
Ġstream s
act eria
ĠS ex
Ġbirth day
C U
d eg
ĠE mp
ic ity
Ġpres erve
E qu
Ġà¤¨ à¤°à¤ķ
à¤¤à¤° à¤¦
crit eria
P air
Ġà¤¬ à¤Łà¤¨
ĠK arn
O h
ĠC ec
Ġhunt ing
S ar
ath a
ĠMar x
Ġrem ix
Ġfarm ing
Pay load
ĠRes ources
Ġcontrol s
ĠW as
Ġaddress es
O L
ĠBob by
ĠK rist
duc es
à¤°à¤¨ à¤Ĺà¤°
Ġland ed
ĠP rest
em e
Ġn inet
ov anni
ot he
Ġfund amental
Ed ward
ump y
VER SION
at ial
ĠL ac
W arning
l oss
Ġdev oted
Ġst ops
à¤ıà¤¸ à¤ı
V M
à¤ĩ à¤Łà¤°
S ol
ĠP in
s afe
19 00
Ġread s
Ġra ising
Ġpre st
list ener
R ate
ĠP rague
M unicip
ĠR oll
ĠFilm s
UT F
ch arge
art et
ĠWith in
Ġrev ised
à¤· à¤¯à¤ķ
ĠBab y
Ġillust rated
ia st
Ġrad ius
! !
Ġr iding
Ġ14 0
ĠMan uel
Ġparticip ating
ĠC lient
M emory
d ump
ĠK ay
f ol
M ock
Ġà¤µ à¤Ĺ
s uffix
a ude
Ġcomp act
Ġproper ly
Ġwealth y
Ġcoll apse
Ġnarr ative
ĠTun is
Ġa ux
ĠR alph
ĠPro perty
Ġmet ropolitan
Ġcontribut ing
Ġs id
def ined
Ġspecial ized
check ed
on ce
ic z
Ġà¤Ķ à¤ªà¤ļ
IN FO
Ġsp end
Ġlist ings
uss els
Ġp ending
ĠS old
ĠChe ster
aur us
Us age
ĠG am
Ġrun time
Ġrestrict ions
ĠOut standing
Ġeg gs
A mb
Ġguest s
at em
ĠH im
ĠPro file
âĢĿ ,
Ġinduct ed
ro d
Ġlog ic
ĠRh ode
stat ement
Ã ½
oy s
Ð¾Ð ²
Ġà¤® à¤¦à¤¨
ĠL ess
ind ent
Ġ16 0
Perm ission
ĠK id
ĠAnn ual
ĠByzant ine
à¤¥ à¤¸
Ġwas n
Ġcons olid
Base ball
ĠCroat ian
ent on
Ġstruct ural
Ġvent ure
Ġth in
umb ers
à¤¶à¤¨ à¤¶
Ġregist ration
S on
Ġdep icted
exp and
Ġw rapper
Ġ icon
Ġass ists
ĠEnvironment al
oc ity
av ior
ij a
Ġt ight
omet ric
Ġtemper atures
ir ts
à¤ī à¤®
Ġà¤īà¤ł à¤¨
Ġinterpret ation
ĠDe lete
c ity
ed ges
ro duction
Ġfin ance
ĠGreg ory
Ġchalleng es
esc ape
-> $
P y
Ġf il
ond o
Ġlook up
W ashington
ev ille
Ġcamp s
Ġf ib
ĠWall ace
ĠS ul
Ġà¤¸à¤® à¤¤
get Attribute
ĠSib Tr
g ary
Ġf aster
Ġde ck
qu is
ĠBel arus
sec urity
à¤ĩ à¤¤
ĠSus sex
Ġfun eral
boy s
it us
ĠS ep
app ings
v s
Ġin formed
Ġfem in
UT C
ĠSt even
Ġm amm
ĠR ank
ĠBro s
Mart in
f d
ph ib
Ġresign ation
ĠPhilosoph y
Ġkey board
Ġan chor
W arnings
ĠR enaissance
à¤¦à¤° à¤Ĺ
Ġconvent ional
Ġthe ories
U pload
is ons
r h
ĠB ag
L ists
el ly
Ġhe nce
Ġinterview s
Ġlegisl ature
ĠQ ual
Ġf aces
ĠC M
Ġat om
act ers
Ġfilm ing
Ġattend ance
St an
ST AT
ĠSus an
Ġsumm it
Ġà¤ľ à¤¨à¤ķ
oc ent
Ġà¤¨à¤µ à¤ľ
ĠC ON
Ġ18 48
ĠFor mer
ĠStan ford
ĠDe uts
Ġadvent ure
Ġm it
ĠR overs
Ġen viron
ĠCam eron
t re
ĠBu enos
Ġ" +
ĠSecond ary
= (
ĠO cc
p ad
ĠC ork
Ġà¤µ à¤¨à¤¸
Ġtr uck
g ithub
Ġà¤®à¤ķà¤¸ à¤¦
De ep
Ñ Į
ĠRevolution ary
Ġfle w
ID S
oc ene
Ġcop per
Ġun like
ĠMar vel
look up
Ġarr iving
Ġhand led
ĠRead ing
Ġf ulf
ĠD rama
ap ing
Ġnick name
Ġt ip
ĠG az
b ig
ĠG olf
Ġinsp iration
Ġspirit uality
Ø ¨
ĠPaul o
i ago
ĠS oph
Ġbon us
Te chn
Ġautom atic
Ġb uses
Ġà¤ĩ à¤«
os opher
ap a
ph is
ĠLe o
method s
Ġcollabor ated
Ġf asc
Ġprint ing
tern oon
Ġtrans formed
bo at
ĠAb raham
Ġshop ping
Ġsimultane ously
Ġà¤¨ à¤µà¤°
à¥ °
ĠS ession
Ġ1 18
ĠV II
ĠId aho
Att r
ĠWeek ly
ĠMalt a
) }
Ġcont ribute
ill on
ish i
in as
quest ion
M atrix
Ġsound s
Ġexhib ited
S qu
Ġà¤Ĩ à¤¡
SE LECT
ĠPer th
Ġà¤¸ à¤¯
ĠW ald
ĠS yn
reg istry
H C
ĠMil waukee
ĠHer zegovina
Ġvis its
ĠM az
im ages
Ġ18 30
Ġman ip
tt o
uan ian
Ġreleg ated
à¤°à¤¹ à¤®
Ġwrit ings
Å Ļ
Ġc raft
Ġlog o
il ian
ĠShe ffield
Ġà¤Ĩà¤Ī à¤¡
ĠEc uador
Ġtempor arily
Ġh orn
Ġdef ended
Ġspec ify
ĠSud an
w yn
ĠV ict
u ania
Ġb ell
host s
Ġtribut ary
F re
Ġprote ins
NotFound Exception
ĠT ed
ĠW ag
Ġdis aster
ĠOriginal ly
19 12
Ġà¤¨ à¤®à¤¸
Ġtradition ally
R en
f ix
ll a
oper ator
ĠK ill
à¤§ à¤¸
g al
a a
ĠS uff
Ġfl ash
L in
à¤ª à¤¬
Ġcompos itions
Athlet es
ĠD ame
ĠPan ama
ĠJama ica
ĠF unction
b ors
Ġcommer c
Ġf ails
ĠD ennis
? )
cl one
Ġco at
Ġsympt oms
m em
ch ing
ĠOther wise
Polit ics
qu et
Ġext ensively
ĠArch ives
Ġà¤Ĩ à¤°à¤¤
ail ability
comp ile
L ee
Ph one
Ġà¥© à¥¦
Ġà¤Ĩà¤ķ à¤²à¤¨
Ġac res
ĠO g
tern ative
Ġinteg ration
Ġde emed
ĠPlay ers
c ounter
en able
ĠO R
FI X
Ġco inc
Ġ" )
Ġbe am
Ġcur ve
Ġburn ed
Ġs ke
ĠC ore
Ġà¤Ĩ à¤ĩà¤¸
Ġco ins
Ġaff air
ĠR us
St eve
ĠMethod ist
Ġhyp othes
Ġà¤¬ à¤ķà¤°
Ġà¤¶ à¤¸
Met ric
bas ename
stit u
M ic
ĠL ot
Ġcharacter istic
à¤ĳ à¤«
Ġj u
Ġminist ry
Art icles
I reland
Ġà¤ķ à¤ļà¤°
am y
ĠA I
om ber
om orph
ĠN ak
Ġco oper
Ġappro ached
K A
Ġh ills
Ã ¯
ĠT asman
ĠK ur
Ġâ ĨĴ
Ġrul er
K ar
pro duced
ident ity
Ġà¤ħà¤ľ à¤®
ĠC R
âĢ ¦
Ġor bit
15 0
ri ke
Ġdoll ars
m emory
ĠG y
ab we
ĠSh akespeare
ĠC ycl
Ġà¤¶ à¤¹à¤¦
S erb
à¤¤ à¤¹
ro les
ĠL or
Ġder iv
ks h
A sh
ĠN athan
Ġass essment
d raw
Ġf ur
ĠT ong
Ġcert ified
ĠF ROM
Ġà¤ªà¤² à¤Ł
sen al
Ø ª
Ġf ro
19 15
velop e
ĠS umm
ĠLanc ashire
om ar
Ġ0 5
ĠE ld
Ġent ities
Ġtechn ologies
Ġbrand s
( -
h n
sm all
Ġmag netic
Arg uments
Ġthink ing
s outh
ĠB ened
Ġback up
Ġtax es
ac le
off icial
ĠHash Map
Ġà¤ī à¤·
Ġpost s
Ġw ider
Ġb ull
user id
ĠB our
Ġpop ulated
ĠStud ent
ĠL ie
Ġprocess ed
Ġcred entials
i q
un its
Ġg ear
ĠJ ak
ĠFurther more
à¤ķ à¤µà¤°
claim er
Ġn ephew
ĠA ncient
Ġà¤ı à¤¥à¤²
Ġà¤īà¤¤à¤° à¤¨
Ġsh a
Class es
Ġvocal ist
Ġb ath
Ġatt rs
Up per
Ġfast est
v ision
à¤« à¤²à¤¤
app a
CLA SS
Ġ{} ".
ĠSask atchewan
SP N
Ġpian ist
b undle
p u
19 16
Ġc ow
Ġà¤Ĩà¤ł à¤µ
. (*
ats u
ĠAr med
ĠDist inguished
ĠSerge ant
Ġreg istry
Ġtrans m
Ġre public
Ġrestaur ants
urn ey
V ert
Ġà¤ħà¤« à¤µ
Ġ185 9
à¤¼à¥ĩà¤Ĥ à¤ĥ
Pop ulation
st mt
cl ip
Ġann ex
z ed
er os
à¤ĩ à¤¸à¤²
M u
row able
atter ed
h orn
ĠS ullivan
aj i
Ġà¤ħà¤ķ à¤¬à¤°
intend ent
s per
ol ine
Ġvari ation
C ath
R a
d ivision
ĠLu ke
Ġcarri es
Ġm igration
ĠIn ternal
Ġbehav iour
names e
Ġp ushed
Ġdyn amic
ĠA j
G M
Ġa viation
ig rated
ull ah
Ġpione er
Ġcom fort
Ġro cks
Ġbomb ing
view s
Ġà¥¨ à¥ª
ke es
Ġr um
ĠEag le
in ery
Ġchem istry
à¤¸ à¤°à¤£
Ġn s
Ġexpl an
Ġf at
Ch ina
ĠMot ors
ĠB eth
Ġspe akers
Ġphys ic
st ood
Ġf ault
Ġinter action
Ġar bit
ari um
Ġvar iants
comm ands
imb abwe
Ġdiss olved
Ġassign ment
$ {
ĠM uch
w oman
ĠD in
Object s
ond s
ĠH ale
Ġun expected
-- -
zh ou
ĠĠĠĠĠĠĠĠĠĠĠĠĠĠĠĠĠĠĠĠĠĠĠĠĠĠĠĠĠĠĠĠ ĠĠ
im ated
Ġassoci ations
à¤¸à¤® à¤¸
Ġunivers e
ĠNap ole
en ess
à¤¤à¤° à¤¹
ĠT ab
ĠSh in
Ġprot otype
M ath
Ġm eat
col s
ĠF actory
Ġpull ed
ĠN g
uc ed
ĠUr ugu
P P
ĠO ber
à¤ĩ à¤¸à¤®
unc an
C md
Ġex clude
lev ard
b locks
Ġ' {}
ĠV illa
Ġwor st
ĠParalymp ics
à¤¶ à¤¹à¤°
ĠO wn
Ġab olished
ĠFinal ly
à¤µà¤¨ à¤¸
Ġobserv ation
S ave
à¤® à¤¬
ĠV oice
ĠFran co
à¤² à¤²
Th at
sy n
' "
Ġref ere
Ġelement ary
Ġcent res
Ġres umed
bl ack
Ġdiffic ulty
C ookie
Ġà¤ıà¤¸ à¤Ł
Ġgu itars
F E
Ġg ro
ĠV and
ĠVol unte
Ġrequire ment
ail ing
Ġen rolled
dim ensional
ut down
Ġra bb
Ġdis order
cl osure
Ġà¤« à¤Ł
Res earch
ĠAb u
Polit icians
ĠLabor atory
Ġdescend ants
() [
Ġtri ple
ĠT all
Ġcross es
Ġprob ability
ĠPalest ine
Un marshal
ĠOver all
ge bra
Ġà¤Ńà¤Ĺ à¤µà¤¤
Ġadvert is
Ġb achelor
A B
n umeric
Ġap plic
Ġab oard
Ġran ging
Ġlog in
ĠHar bor
ĠPak istani
So ft
is Debug
Ġsp ell
ĠCond itions
Ġ ic
Count ry
ĠI b
ĠE sc
à¤Ĩ à¤Ĺ
ĠTerm s
Ġarrang ements
($ _
Dist rict
C itations
av ian
ĠT rip
Ġtrans f
Ġcustom er
g rim
ag le
ĠLiber ty
Ġwalk ing
ĠIndones ian
Ġà¤¤ à¤ķà¤°
ĠM usical
Tur k
ĠE ar
Ġcon fess
ĠCon nection
AL L
a very
Å Ľ
ĠLe ic
Ġverb ose
G R
ĠS D
ĠTransport ation
top ic
ĠGand hi
Ġmark er
run time
pri ority
Dec ode
Ġcons umption
SI ZE
W N
Ġre pository
Ġcr uc
col span
Char acter
Ġcollect ive
Ġc avalry
ĠLeg ion
ĠJ en
Ġ 00
à¤£ à¤ª
ĠBo olean
ĠArt icle
orm an
ĠCo x
QUE ST
st ock
ĠÃ ł
Ġhousehold er
ĠSp encer
Ġiter ator
play ing
Point s
Pri or
Ġarchae ological
19 13
ĠNad u
ĠD aw
se lector
Ġà¤ıà¤® à¤ª
Ġexper iments
à« ĩ
Ġs itting
Ġ" ";
Mod ern
py thon
Ġt ier
Ġp ist
Ġencounter ed
Ġ rib
ut i
Ġbre ast
c ano
Ġf o
ĠE le
bor o
hel per
h ow
ĠC ircle
ĠG Ã¶
ĠGab riel
Ġpl astic
to Array
op ened
Ġan alog
Ġcalc ulated
Struct ure
Ġr ifle
Ġdocument ed
Ġgard ens
pt s
Ġther apy
fam ilies
ĠComp etition
à¥¨ à¥¦
Ġmer ch
ĠCy prus
z ing
ĠM ull
Ġprom ise
Ġ185 4
Ġtr ump
Ġret ain
Ġsl ice
B asketball
c am
Ġs iege
ĠStock holm
s ig
as se
ĠF oster
Ġr ice
V ector
h alf
in ating
Ã Ĺ
ĠOb ama
m akers
Ġp ipe
ĠB rid
ĠGrand e
ĠCl oud
t rigger
à¥ĭ à¤ĥ
Ã© m
Ġà¤¤à¤° à¤²
el ing
Ġ' \\
Ġsh aring
ĠTh om
Pr ice
D a
d uration
Ġb oss
ok o
Ġfunction al
amb ers
doc s
Stat istics
ab out
Ġclose st
à¤¸à¤° à¤¸
R out
ick en
Ġent ers
Ġm oral
Ġl iv
ĠF uj
ĠL eft
Ġwrest ler
ĠUg anda
in ator
Ġà¤« à¤°à¤®
ĠK ol
Ġl akes
ĠV ar
Ġà¤¤ à¤°à¤ķ
ast ics
get Request
bo oks
anc ers
ĠCol lections
Over view
bro ok
ĠCab inet
ĠC lose
Ġv acc
Ġev olved
Ġbank rupt
iat ric
ĠAmb assador
intend o
Ġf ert
Ġbas in
Ġqual ification
Ġcomm enced
ĠCorn wall
Ġsw itched
Ġfe ud
ĠMag n
Ġslow ly
on so
omp ass
Ġà¤ħà¤ª à¤µ
Form atter
Ġform ats
Ġco eff
AT O
E th
S F
l ive
Ġt enth
ĠPriv acy
Ġdepend ent
Ġaware ness
X ml
Ġpro ve
ĠV id
Ġshe et
Ġinh ab
ĠMan itoba
D evelopment
ic ator
à¥Ĥ .
Ġre ward
ĠComp lex
Ġhard ware
Ġde ployment
ĠSt ill
Ġarchitect s
Ġcler gy
ĠâĤ ¬
byter ian
e i
an z
ĠD j
Ġrel ating
ĠDur ham
Ġastro logy
_ .
and ro
op a
sy m
Ġatmosph ere
od ia
ĠS ony
qu iry
Ġconf irm
Ġun ions
pr ises
HO D
ĠMond ay
à¥Ģà¤Ĥ -
ĠRe ich
Ġre ducing
Ġst y
And rew
ĠC F
ĠN ear
Ġgu id
ĠĠĠĠĠĠ Ċ
Ġsust ained
Ġw orn
c atch
à¤¹ à¤Ĺ
Ġh ind
Ġà¤ĩà¤¸ à¤ªà¤°
à¤ĵ à¤Ĺ
st roke
Ġm ilk
ĠThe ory
ĠMoroc co
Ġaltit ude
B us
19 11
Ġexpl ains
Ġw arnings
K h
ĠM idd
ĠW ait
ĠSh op
ĠFran z
Ġanth rop
à¤ķ à¤¦
B ank
ĠS end
ĠSt ef
ĠIm port
c amp
is o
Pro gress
Ġt ar
ĠM ang
ĠCar r
E qual
Ġto x
ĠEd die
play er
C ross
ĠS che
s an
ĠJo an
v y
Ġtrans formation
Ã© g
ĠArchitect ure
à¤Ń à¤¯
ex ceptions
est one
Ġphil anthrop
Ġp ap
Ġcontract s
Football ers
p ub
Ġdifficult ies
ĠKaz akh
al m
Res olver
ĠM ik
Ġag es
Rel ations
ĠE ight
Ġsc iences
Ġso ap
ĠWh ere
ĠHer o
Ġb low
Ġsh ops
Ġ185 8
D one
M useum
G reg
ar ison
form s
ĠColumb us
t w
Ġ5 000
ĠIs le
Ġb old
ped ition
b ranch
Ġs a
ie ve
Ġall ies
Reg ion
ĠInvalid ArgumentException
Ġà¤Ĩ à¤°à¤¸
ĠSt ories
ĠR uth
man uel
à¤² à¤ªà¤¤
ang ered
Ġext inct
s ent
Ġs av
open hagen
od or
ĠSc ar
stra ints
h p
ĠM BA
ĠB ru
back end
Rel ation
Ġpl acing
Ġcook ie
J eff
Ġs ung
Ġdist inction
ĠJac ques
L ang
all ing
à¥§à¥ §
Ġà¤ĸ à¤¦
Ġà¤ĳ à¤¯à¤²
G er
Nor wegian
le z
ĠT ommy
Ġind epend
Cont ents
Ġà¤īà¤² à¤Ł
à¥§à¥ Ń
Ġà¤² à¤¹
im o
d irection
ur ated
ĠK il
Ġoper ators
Ð ¹
Ġà¥¨ à¥¬
Ġg athered
ĠN ottingham
ĠS ou
Ġpro spect
Ġart ificial
ac co
andid ates
Ġfail ing
---------------- ----------------
Ġcur rency
= [
In c
Ġbre aks
ĠAg es
Ġà¤ı à¤¹à¤¸
ĠL amb
ĠSt akes
Ġ185 6
Ġcitiz en
Bel g
Ġor che
ast han
iff e
Ġsol utions
ret ry
Ġdisband ed
SS ION
en i
Ġà¤Ĩ à¤®à¤¨
Ġrat ings
R am
ĠC inema
Ġtor ped
H uman
P ac
Ġà¥¨ à¥¦à¥¦
oun s
à¤® à¤ķà¤°
Ġp kg
à¤ģ ,
Ġun con
Ġappro aches
Ġgener ic
U UID
ĠM ine
sort ed
Ġend ors
dist rict
Ġs oph
ĠT ow
arri or
B inary
Ġb one
Ġin hib
ĠE ff
Ex pr
ĠChar ter
Ġmonth ly
Ġc ave
ĠJ ung
v c
St age
TE D
Ġb ats
Ġfound ers
itte es
Opt s
Que en
r f
oy a
for ward
Ġconflict s
anim ous
Ġgraph ic
Ġref erring
ĠUnivers e
ĠÙ Ī
1 000
ĠQue st
Ġrespons es
ordin ates
ĠS aw
ĠP ract
nt ax
set ting
W ild
Ġunder lying
S a
m al
Ġdef ender
Ġinter change
pl us
Ġrec alled
ĠAnd rÃ©
oca ust
W alk
m ove
Ġfeel ings
Ġman ual
ĠGard ens
ĠC raw
Ġm orph
ser ialize
D T
oc on
s igned
Ġo ct
ĠS creen
ĠF isher
erv es
Ġpriest s
B Y
ĠD y
Ġà¤¨ à¤¡
ĠT ir
Ġveter an
T w
Ġaccomp any
Ġf lex
ĠW ed
Comp lete
S um
c odes
Ġgradu ation
D ou
Ġ10 2
ĠClar ke
ĠBenn ett
Ġprogram mes
Ġdem ands
Ġhistor ically
andid ate
Ġpsych ology
at aka
ut ing
Ġse eds
c url
Ġt elling
à¤¯ à¤¤à¤¨
Ġmet rics
Ġgrad es
Hung arian
W el
Ġp unk
iz on
air y
pl ed
ĠSp art
annot ation
nd ez
Ġà¤¤à¤ķ à¤²
vious ly
h ra
Ġmain stream
Ġcor ruption
Ġtal ks
D er
m ade
Ġw ish
ib a
Ġà¤ħà¤Ń à¤¯
ĠGu ang
Ġmagn itude
k dir
Ġà¤ī à¤Ľ
ĠL A
ript ions
Sup port
ĠIn stit
ear ing
ĠC ort
found er
Av ailable
I ss
Ġo xygen
Ġra id
-+-+ -+-+
ĠSeb ast
ĠForm ation
hab ilit
ol ics
Ġà¥¨ à¥¨
ĠTrans l
Ġsus pect
Ġemot ional
k u
s ummary
Th ird
ĠSalv ador
Ġamb assador
Ġim possible
Î ½
à¤¯ à¤ľà¤²
op ed
Ġthan ks
ĠShort ly
W inners
Ġch oir
Ġà¤ħà¤¸ à¤¤
à¤· à¤Ń
Dis claimer
b ins
Ġmon arch
ĠSl av
ĠC yr
Ġà¤Ń à¤Łà¤ķ
ter bury
Ġcan al
ĠHar per
S outhern
Ġà¤ħà¤¸ à¤«à¤²
ft en
ose x
( :
Ġt one
ĠG mina
Ġà¤¬à¤¹ à¤¤
N atural
land ers
Ġsculpt or
cf c
bor g
Ġexhib it
ibl ings
M em
h arm
l ain
Ġthrow n
M ot
r n
ĠAl bums
Ġche ss
fort un
Ġc ogn
Ġtem ples
ĠHit ler
ĠS ig
Ġà¤Ĺà¤£ à¤¤
Ġgl ac
p df
p kg
Ġed itors
ĠBy te
Ġconcept s
er ie
Ġà¤¬ à¤ľà¤°
à¤ĺ à¤Ł
Add itional
Ġfr ames
L ines
ater al
ĠSy rian
isDebug Enabled
Ġà¤ª à¤¤à¤¨
ĠC LI
ĠT ake
Ġtour ist
Ġv ulner
Ġbl ues
Ġapp rec
Ġpil ots
atin um
ĠA B
ĠH ost
ĠLuc as
ĠB ody
Ġstud ios
Ġconnect s
zy me
Ġreserv es
Ġh yd
Ġremov ing
uis ine
F low
I ll
Ġback end
Ġcomed ian
Ġst ead
ec a
Ġfeel ing
Ġstd out
d l
Ġc inem
Ġl ibraries
um my
Ġout door
Ġà¤Ī à¤¯à¤°
ĠDec ision
B uff
H ot
Ġcomp rehensive
Ġemploy ee
190 8
à¤¹ à¤£
ĠS pect
any on
Ġà¤° à¤¬
Can ada
Ġfoot age
Ġsoci eties
Ġt ube
ĠL ig
pt ic
Ġt ape
ard ed
ĠC avalry
din and
K im
Ġtour ism
Ġamount s
Ġemphas is
ĠPsych ology
ĠLith uania
is cher
ĠV ent
Ġa w
ĠP ent
ĠY ellow
U V
ĠB od
att ach
Ġpriv ile
Ġ_ .
Ġenc ompass
Ġ{} )
ĠMon th
Go ogle
n ai
Ġret reat
Opt ional
Ġexcell ent
G r
AL SE
ĠS O
Ġà¤ı à¤¨à¤°
int o
Ġent hus
ĠEx cell
Ġphil osopher
Ġnam ely
Ġc ouncill
ac l
à¤µà¤¨ à¤ķ
Ġ185 5
Ġinstit ute
Ġm ess
ĠA w
ae us
ĠM Ã¼
ĠRe con
ĠLeg end
ĠMig uel
Ġfre ight
ĠProv incial
Ġnormal ize
Ġrecip ients
ĠNorth west
found ed
à¤¯à¤® à¤¨
Ġque en
ob s
ens en
pro gress
IV E
ĠK in
Ġ{} ,
Ġb otan
Ġà¤ľ à¤ĸ
Ġà¤ķà¤² à¤ķà¤¤
Ġc iting
ĠB orn
iv ities
Ġf raud
az ard
Ġdr ink
Ġelev ated
ĠWild life
à¥ĩ !
ĠF un
Ġimpro vements
ĠO w
à¤ĥ ,
FI G
m igration
ref resh
ĠFinal s
ĠMaur ice
C zech
B R
L os
M IN
Ġn an
Pro p
ĠHer ald
Rec ords
o auth
à¤¦ à¤ķà¤°
ĠCh apter
Ġair line
place ment
valid ator
ÑĢ Ð°
Municip al
es is
ĠPr inceton
Aut o
Ġexplicit ly
uch y
Ġà¤¬ à¤Ĺà¤²
add y
ĠCont ent
ĠB it
Ġinitial ize
Ġcolon ies
e a
set up
ĠMan ila
ĠC av
Ġfavor ite
Ġholid ay
W ood
Ġquarter back
Ġsusp ension
Ġbul k
Ġst ake
ĠV ern
ĠPr ison
Ġà¤¸à¤ļ à¤®
met rics
ĠK em
Ġrem ark
Ġà¤ħà¤¸à¤® à¤°
Sever al
ĠNot es
ĠGoth ic
à¤ı à¤¨à¤¸
P sych
ĠA ub
ĠF iction
Ġdis appoint
RECT ORY
S ound
ĠTh ose
Ġexpl ain
à¤¸ à¤Ĺ
m iddle
n Ã©e
ĠM ales
à¤ī à¤¡
ĠS ey
ick y
ĠĠĠĠĠĠĠĠĠĠĠĠĠĠĠĠĠĠĠĠĠĠĠĠĠĠĠĠĠĠĠĠ ĠĠĠĠ
ĠAdv anced
( @
uk u
Ġ185 2
ĠK as
Ġà¤¬à¤°à¤¤ à¤¨
ver ify
Sl ice
Ġlif etime
ĠL akes
file Path
A sync
Ġas king
be k
Ġex ha
à¤ī à¤ľ
Ġent repreneur
Ġdist urb
ĠOtt o
Ġsynd rome
ire ctions
ĠBr as
w art
Ġlabor atory
ĠPolit ics
Ġà¤ª à¤Łà¤°
Ġin scription
Ġcomp lement
Ex it
Ġqu iet
N ic
Ġacadem y
ou x
Ġarr ives
Status Code
Ġà¤° à¤ľà¤¨
Ch arl
ĠDomin ican
agon al
spe aking
Ġf abric
Nov els
ĠCook ies
Ġseem ed
Ġcompris es
p end
ĠHol mes
ĠSing le
he art
Ġà¤ľ à¤ª
pro ps
à¤¤à¤° à¤ª
ric ulum
Ġhapp y
ĠBat man
Ġy ard
ll er
Ġà¤ıà¤® à¤ıà¤¸
Ġrev ision
ĠFa ith
Alex ander
Ġpip eline
n al
Ġed it
ĠG overn
emb ourg
Ġ1 21
P rem
Ġelect ro
ĠPlay Station
amm ad
F ont
à¤ıà¤® à¤ĵ
l ies
à¤ķ à¤£
Ġs overe
Ġpost er
Ġpo ison
ĠLi u
Ġshel ter
ĠEd ge
ett ing
W idget
à¤ļ à¤¢
b ird
ĠW inds
plic ated
Ġannounce ment
enc ia
Ġà¤ıà¤¸ à¤¯
Dis play
ĠWy oming
> '
à¤µ à¤ļà¤¨
Ġbrig ade
Ġà¤ª à¤ª
Ġ! !
50 9
ĠU ttar
ĠAng els
O B
ĠR i
L ead
M icro
Ġrad iation
Ġph osph
str len
ĠAlb anian
c apt
ĠN as
Ġfl ank
ĠC itiz
Ġest imate
Ġbre eding
Valid ator
Music ians
n one
à¤ħ à¤®à¤°
ĠO scar
ex ecut
ob i
ish ers
stan bul
Ġab stract
ĠL evel
o que
Ġconf idence
Ġd ogs
Ġà¤ıà¤¸ à¤ıà¤¸à¤ª
US A
M id
n ative
Ġgold en
Ġconsc ious
Î ¹
ul atory
Ġinterest ing
Enc ode
C RE
Ġd ump
Ġcor on
Ġste ep
ĠP ick
Ġab ilities
ĠArch ae
C at
ĠF oot
Ġimm igration
Ġdem ocracy
re ement
ar ians
Ġà¤¨ à¤µà¤¨
Ġdet ected
Ent ries
D U
ist le
og o
Ġgrand son
Per iod
Ġmaint aining
ĠPo etry
ev o
- %
h art
n st
à¤ª à¤°à¤¹
ĠS weet
end um
ec ca
Ġbl ind
Sh op
Ġvo iced
u pt
ĠM TV
ĠF ilter
Ġ9 00
lector al
Ins ert
Ġw rapped
m g
St e
HE AD
N P
', '
Ġà¥§à¥ §à¥
ĠSaf ety
ĠB ears
Ġ10 4
Ġcre ator
col lect
n ut
le w
à¤Ī à¤ľ
Ġcart oon
Ġmyth ology
Ġpr ince
Ġorgan ic
ĠV il
al in
Ġex ec
Ã© d
Ġdistinct ive
Ġreg ex
Ġfre estyle
ĠTr in
R on
ĠS elf
ĠM oney
ad os
Ġunder graduate
i ens
Ġà¤® à¤ł
Ġres erved
unt ary
à¥¤ "
à¤¼ à¥ĩà¤Ĥà¥¤
Ġcommun ist
Ġconfig ured
Ġbroadcast s
Valid ate
H F
ĠGram my
c in
Ġmand atory
D ATE
ĠM obile
ri ber
Ġdr inking
char At
mont on
à¥Ģ ),
Ġhe ir
ĠBre ak
Ġenem ies
Ġc ir
un ion
Ġal phabet
à¤ĵ à¤¸
bo th
A x
Ñ ĩ
Ġarray s
gener ator
D ATA
Ġathlet ic
B inding
ĠMe chan
Ġvers e
ĠHT ML
St d
Ġrend ered
f ail
t n
cre ment
Ġqu oted
Ġaff ord
ĠFour th
ĠR af
ĠCard inal
ĠArmen ia
Ġtheat rical
r ina
Ġn aming
Ġ' .'
ĠO wen
iz able
Ġpat ri
Ġarr ive
ĠContin ental
Ġbeet le
Ġd rain
ĠS ave
C ivil
kin son
ĠPhys ics
Ġkil ometers
W atch
ĠC un
ĠL oss
ĠG ren
ĠK ate
pt r
Ġco ached
k ok
Ġfif ty
: \
Ï Ħ
ol in
Ġe mpire
ĠHe ights
act ivity
Ġimport ed
Ġcut s
Ġh ist
ĠP ep
ri er
it an
Ġb ars
ch ief
Ġà¥¨ à¥©
Ġdial ogue
on ing
Ġceleb ration
Ġsport ing
Ġlocomot ive
ur ations
el ist
ĠA chie
Ġbel t
Sub ject
B ind
ane ous
Ġaccur ate
Ġs weet
om ed
Ġst roke
Ġ' --
re ply
ĠC openhagen
Ġext ending
amb a
Met rics
ĠTw enty
M il
ra cks
à¤Ī à¤ª
ĠIndian apolis
Ġauthor ized
ĠTra in
normal ize
k ers
Ġin tern
Ġper m
Ġess entially
VAL ID
ĠD raw
ĠSh ield
Ġvict ories
ĠP irates
ĠJ erem
ric a
CT ION
Ġmolec ular
ĠH es
Ġper ceived
Ġsculpt ures
ĠF ras
Ġover ride
à¤¸à¤² à¤°
le ston
ra its
im mer
Ġgra ve
Ġchalleng ed
Ġà¤ª à¤ŀ
ard i
Ġaffili ate
up dated
Info f
ĠOak land
he ld
Ġ185 3
L ab
ĠE k
ĠSe an
i ott
Ġsp okes
erm ine
unk nown
b f
ra z
Ġà¤¤ à¤¦à¤¨
Ġj ail
M oh
à¤¤ à¤¸à¤°
Ġp s
ĠF u
g lob
Ġ10 3
ĠGl ass
E V
Ġc ann
il ion
Ġgra v
del ta
per mission
ĠSc out
T L
Ġannot ation
S hips
ĠT iger
Ġput ting
ĠLegisl ature
transl ation
Ġà¤ķ à¤¯
Ġl ar
à¤ĩ à¤¤à¤¨
load s
Ġgraph ics
is i
ĠT odd
Ġh alt
get Data
Ġimprison ed
Ġà¤¨ à¤°à¤¸
Ġfor cing
190 9
Ġpot entially
on ica
ĠL iv
Ġhand ed
ĠCom edy
S us
n av
Ġadminist ered
ĠGl ou
Ġcirc ular
ĠCh oice
Ġtack les
ĠB ak
Ġst ere
à¤¨ à¤«
an ch
ĠV eter
Log in
à¤ĳ à¤ķ
Ġcasual ties
ord e
ern ess
Ġen act
ĠBro oks
ĠInt eg
M achine
Ġfor ty
ann es
P red
or rect
Ġp m
str pos
ĠJul ian
ĠInit ially
ĠGib son
Town s
Ġpre lim
Ġmain land
Ġpresent ation
Ġh al
ĠH ub
ex clude
Ġprov isions
Ġob lig
ĠDes ert
spec ific
Ġarg ues
à¤ī à¤°
Ġimpro vement
Ġadd ressed
Ġreform s
à ©
ĠA ur
à¤¥ à¤ª
Ġpark ing
ĠIsa ac
e per
à¤¾à¤Ĥ -
Ġà¤ĭà¤· à¤Ń
pl ane
ĠEx pedition
ĠWrit ing
ĠMahar ashtra
ĠF low
Ġ18 49
Ġflow er
or ig
à¤¼à¤¾ .
RE QUEST
D ie
s pl
H ook
Ġs ick
Ġà¤¦ à¤®à¤¦
ĠB elf
Ġ3 000
te chn
I sl
es ar
pe er
Ġunivers al
Ġs in
que z
FI EL
Ġres iding
Ġdep ends
Ġdocument ation
Ñģ Ðº
Ġinter mediate
à¤¯à¤¸ à¤µ
ĠAp pro
Ġsh ipping
Ġab und
ĠSh arma
Ġcap ita
en viron
Ġcult ures
K en
Ġà¤¸à¤¤ à¤¤
ĠÃ ĸ
S ide
Ġab bre
Port ug
ĠW HERE
ĠTest ament
Ġdiplom at
Ġf er
ĠM ade
m ith
Ġtrans it
ruit ment
> ';
Ġà¤ĩ à¤·
ĠH us
ĠH arm
à¤ĩ à¤¡à¤²
eb ook
Ġrock et
w p
ĠA ch
ous ing
P ower
ĠCl in
vert ed
MET HOD
à¤ħ à¤¦
Ġel abor
let ter
value Of
c od
} \
is or
ĠW ool
ild a
Ġ0 8
Map per
Ġiter able
Ġf inger
Ġre nown
ig i
Ġwid get
ĠSant iago
Ġd iet
ĠT i
Ġsh orter
ĠChe ss
ĠCamp us
Ġdevelop ments
Ġimm un
Ġà¤¹à¤® à¤¸
à¤¾à¤ģ à¥¤
ĠT ennis
Ġreg ulation
p ot
ĠEx hibition
isc ount
Ġalleg ations
Ġdiscontin ued
ond e
ĠWest minster
Ġà¤ľà¤Ĺ à¤¨
Ġreb ellion
v or
Ġm emb
ĠPro duct
Ġw ars
ere k
Ġsp ots
Ind ividual
Ġd t
ĠI F
Ġsuccess ion
/ "
Ġlist eners
IN D
Ġattack ing
Ġbound s
We ight
zer os
ĠZh ang
f actor
ad al
ro uter
ĠT alk
Ġpro secut
ell ar
.. ."
Reg ular
L Y
p al
Ã °
nt on
ĠTh read
ĠRod rig
Ġd eter
Ġnumber ed
ĠMar io
Ġdoct ors
Ġb ollywood
Ġà¤ĩ à¤£
ĠAg ree
Fellow s
Ġà¤® à¤ķà¤°
Ġf iring
ad apter
b oot
Ġ ray
Ġthe sis
de cl
s qu
Ġas h
aid en
ator ies
ĠLa ura
Ġrecru ited
V an
190 5
h ou
Ġsub scription
des ignated
á ¸
ik ip
ĠCal gary
Ġident ification
ĠVir t
sup er
Ġneighbor ing
ĠBlo om
t ables
Ġ( ($
Ġcomput ers
sign al
G ate
à¤¾ ),
ĠH at
ĠSm art
Ġtravel s
um ble
Ġr iders
ph ant
ĠBl ake
Ġ{} '.
part ition
ech o
Step hen
+ "
à¤¯à¤° à¤¨
ĠAh mad
Ġà¤¨ à¤°à¤®
ĠDav ies
à¤¨ à¤¡
ĠC lement
ĠL LC
iss ues
ĠBou levard
B rian
Ġc ad
am ar
ĠR ice
Econom y
com es
Ġmin imal
Ġpack ages
Ġtouchdown s
Chang ed
Ġsh ield
Ġpass ion
UR LO
ct uary
Ġ" {
ĠN urs
URLO PT
L abels
Ġfa una
Ġrap per
m n
ĠBr ussels
Ġbox ing
Ã§ a
ĠSol omon
East ern
aw i
Ġdispl ays
U ntil
à¤Ŀ à¤ķ
ĠPar ks
à¥į -
Ġh ub
ach ers
ĠR ush
ĠGu itar
it ic
Ġhon ours
ĠCelt ic
Ch art
field Name
ĠTan z
ĠPear l
L ow
ĠA L
ĠAbd ul
Ġc rop
az ing
ĠMod i
Ġliter acy
b idden
iment al
% ),
N ING
Ġ0 9
ĠGe off
Ġrev ival
Ġjournal ism
Ġdeal ing
Ġsax ophone
om atic
ĠU nd
Ġwill ing
Ġrepeated ly
b ottom
ĠE ve
Ġ14 4
Ġconvinc ed
Ġà¤ªà¤° à¤¦
ĠK ab
ĠK oh
à¤ħ à¤µ
ĠPr incipal
Ġaf ternoon
Ġinter vention
Ep isode
ĠB M
verb ose
ĠC anyon
Ġv ir
ĠHe aven
ĠNew port
Ġput s
Ġtele phone
Ä Ľ
Ġref resh
ĠCr us
à¥Ĥ )
ĠK ob
ett es
Dis patch
Ġhead quarter
Ġrad ar
Ġvolunte ers
in ia
it ches
Cal endar
ĠG ael
Ġrequ iring
ĠW or
Arch itect
ĠCub an
b ian
Ġp ad
ĠIn spector
Ġà¤Ĳ à¤ķ
Ġth rew
ĠV a
Ġkill s
Ġp itched
ĠR ut
att empt
ĠAttribute Error
Ġthere by
Ġdram atic
ĠHend erson
ĠBelg rade
ĠArm strong
sc an
Or d
Ġfor th
ĠD ob
Ġmurd ers
separ ator
and i
D ue
O s
od o
B attle
Ġpup ils
stad t
Ġj ew
ĠCont est
Reg ister
Ġachie vement
Ġsail ing
Ġw elfare
ol ation
ĠPl ate
inn ed
Ġadv ocate
Ġlaws uit
Ġcolle agues
à¤ľà¤° à¤¨
Ġcirc ulation
Ġsitu ations
ĠRem ix
L ight
ĠP erm
ag raph
à¤¦ à¤ľ
am as
ĠG ene
Ġproced ures
Ġpredomin antly
ĠP S
à¤ĺ à¤ķ
Arg entine
at um
ĠH ur
ĠPlan et
ub ern
Ġà¤Ĩà¤¯ à¤ķà¤°
H ard
or igin
ab ol
Ġatt ach
ĠTrans it
You ng
Ġr is
land o
Ġobserv ations
inst ances
step s
ĠNiger ian
Ġa ims
Ġman s
Ġeff iciency
E val
ĠFellow ship
U RE
Ġdoub t
Ġa est
oc hem
Ġpro to
ust rated
LE D
Ġ185 1
'] [$
sc ious
Ġà¤Ī à¤¦
ĠAndrew s
ĠAl f
f name
k al
ĠA A
Ġdiv or
Ġfoc using
ĠRon ald
F n
ĠW ant
ab lo
ĠO z
TE XT
ĠVlad imir
J os
à¤¼ à¤¿à¤Ĥ
Ġà¤¬à¤ľ à¤ķà¤°
Fran cis
c n
o an
if etime
oy le
ĠLe op
ĠPol l
Ġd rove
Ġbo ards
Ġbl ank
Ġà¥§à¥¯ à¥ª
ĠN acional
Ġbusiness people
ĠWood s
, âĢĿ
mer ged
File Path
IT E
ĠAgain st
y aml
Ġval uable
Ġpres ents
Ġtorn ado
A rab
let te
atri ates
ĠEvent ually
um ped
W ord
Ġà¤īà¤¦ à¤¯à¤ª
à¤Łà¤² à¤°
Ġleg it
ĠS ter
se p
Ġact ively
h urst
ĠS of
ĠB un
Ġ18 47
Ġprevent ed
Ġaccommod ate
F ailure
Ġp in
Ġmiss ile
Ġsurviv ors
ed e
hand ed
am med
ĠAb stract
ĠC u
Ġk ernel
Ġgener ations
Ġred es
ĠEv angel
Ġsurn ames
dig est
ibl ical
se ed
Ġ0 3
Ġ0 4
Ġà¤®à¤¨ à¤¸
190 6
vis ible
Ġperman ently
O F
Ġcut ting
ĠA F
ĠV III
Ġreview ed
Ġcomp ounds
Ġfollow ers
Ġfew er
he nd
if les
if ax
ograph ers
Ġalleged ly
ĠSurre y
Ġcomment ary
. -
per m
ĉĉĉĉ ĉĉĉ
ĠK or
Ġc ounsel
ar ity
Ġs print
Ġachie vements
d an
up les
Ġwar fare
ĠAll an
n ick
Ġb are
th ree
ĠN ine
Ġimprison ment
Ġf atal
Ġà¤¦ à¤¸à¤µ
ĠH ass
Ġcon ferences
all a
e u
Ġà¤ªà¤¹ à¤¨à¤ķà¤°
omet own
Ġexper ts
B eh
h idden
Ġf ame
A rr
Ġret iring
Ġload ing
c ats
l ined
à¤¨ à¤ı
il io
ĠP lease
ĠF ul
Ġdevelop er
Histor ic
u pe
ĠF ast
ĠZ imbabwe
DE BUG
Ġd ancer
et ics
ĠEd mund
ĠĠĠĠĠĠĠĠĠĠĠĠĠĠĠĠĠĠĠĠĠĠĠĠĠĠĠĠĠĠĠĠ ĠĠĠĠĠ
Ġ0 7
Run ning
s leep
es ian
ĠS erv
Ġle x
Ġdel iber
Ġvari ations
ĠC ut
Mill is
Ġà¤ľà¤¬à¤° à¤¨
Ġs izes
ĠSp ider
SC AR
Ġgoal keeper
Ġswim mers
ad ers
à¤ĺ à¤®
ien ne
ĠEston ia
à¤· à¤ķà¤°
Ġib n
A le
f ight
Ġà¤ıà¤® à¤¡
Ġle ase
ĠPalest inian
im er
Ġà¤°à¤¹ à¤®
has Next
ĠD uncan
Ġwe aken
Sw iss
ĠGal axy
Process or
È Ľ
ĠH IV
ĠPar ad
Ġs ig
Ġh ide
ate ver
ia z
ĠD as
C ultural
ic ious
Ġprogress ive
ĠNAS A
ul ous
ĠD anny
Ġall ocated
à¤Łà¤ķ à¤Ł
. ;
Ġà¤ļ à¤¹
ĠCred it
Pier re
ĠS ons
ĠUs ing
à« į
Pe er
Ġindepend ently
Ġfam iliar
Ġà¤ĵ à¤µ
Pl ayer
Ð½ Ð¸
I ts
t asks
ĠGu atem
ĠNe ed
ĠGeorg ian
op ing
à¤« à¤¡
ĠWith out
ar ound
Sup press
ĠStaff ord
ins k
Ġdecre ase
Ġperform ers
ĠKing ston
ot yp
ĠAb original
Ac cept
h ad
ro tt
ene ath
S ql
W indows
Ġpat ent
ĠJohann es
ĠA aron
à¤ļ à¤¡
ĠAn a
Ass et
ĠFrank furt
ĠStat istics
Ġa ster
he ll
ro utes
ost ic
C le
op ic
sh ore
g g
ĠB ark
Ġeng agement
Ġconf used
Ġtheore m
ĠCurrent ly
Ġch ore
ĠMet al
ĠM ater
ak ov
ĠGu ards
alt ies
Con struction
Ġà¤Ĭ à¤¨
ĠB ased
ri um
ver age
valid ation
Ġadministr ator
à¤¤ à¤°à¤ķ
Ġref lected
Ġshift ed
Ġà¤« à¤¡
Ġkil omet
f ive
Ġh ole
Ġn ic
ĠM ira
ĠSch olar
Ġfriend ship
cur rency
ical s
Ġdecl aration
Ġtravel ing
Imp lement
Ġmoder ate
Con stant
Ġcivil ians
ĠOut put
. ).
Ġsk ill
utt le
Ġb rowser
Ġg rants
ĠE SPN
Ġacqu ire
Ġexam ination
h ref
n umpy
Ġt ile
uls ion
190 2
Print f
a que
er als
ĠK re
Ġup coming
ĠUS SR
à¤ķ à¤Ĺ
Ġb rack
ĠPict ure
l ar
Ø ³
Ġord inary
à¤¤ à¤¥
Ġpart icles
parent s
ĠCzech oslov
ĠDyn asty
l iter
à¤¸ à¤ıà¤ª
Ġà¤² à¤ľ
ot ypes
Ġprom ised
ĠAlb ania
ss l
Bur ials
à¤Ŀ à¤ķà¤°
host name
ĠSim ple
ch in
ĠSy lv
M R
Ġkid n
ul ative
Ġexp atriates
ster ious
ĠC eleb
Ġor b
is le
Ġp yl
ĠN an
Ġmult ipl
Ġro bot
Ġ------- -
am ma
ĠM I
Ġpro l
ĠEm my
ĠCa uc
B ern
ĠJust in
à¤¶ à¤¹
Ġà¤ľà¤¬ à¤²à¤ª
Ġend ings
input s
Ġax es
ĠEngine er
ĠMont eneg
Ġment ions
( `
1 20
im an
Ġ'. $
à¤° à¤ªà¤°
ĠH aving
ri o
trans port
Tem p
ĠTri ple
ĠPres byterian
Ġdiscrim ination
Treat ies
A I
Ġeditor ial
à¤ľ à¤ķà¤°
H aw
Ġpl ates
Ġlocal ities
190 7
Ġm oll
ĠE state
ĠAd ult
Al so
Ġcap abilities
ĠTable t
ĠLuther an
Ġà¤ľà¤¨à¤¸ à¤Ń
j ava
l ived
ĠK w
ĠCont ext
ipe g
Ġsub sc
ĠA N
Ġl ights
sh ould
Ġexecut ives
Ġprec ision
Ġloc ale
Ġint ensity
Ġà¤ľà¤² à¤¸
Ġtro uble
Ġcoordin ate
( %
Â ·
Ġare na
col m
Ġcul min
s ix
ĠF olk
Ġsepar ation
Ġspecial ist
Runtime Exception
D iff
Ġint ense
Ġunder stood
ĠBir th
L GBT
ĠInter ior
Ġjud icial
Ġ? :
ĠPl us
Ġhead ing
Ġw reck
enc oded
Ġfl uid
ikip edia
ce ive
ĠP or
ĠEll is
) '
B ir
Ġ0 6
Ġregard less
B oth
R an
re verse
Ġsc andal
Ġà¤ħà¤¬ à¤¤à¤ķ
Ġsm art
ipl oma
Ġf ung
Ġcons ent
Comm it
ĠAdvis ory
Ġc rops
un ter
ne apolis
Ġgovern ing
Ġ: -
C over
Ġc os
Ġà¤ĩ à¤Ł
ra j
H a
Ġdisc overs
Ġà¤ĩ à¤ľà¤°
ĠH ood
ric ia
Ġ? ?
ĠIn stitution
à¤ıà¤ļ à¤¡
Ġenviron ments
Ġaut hentication
Ġtarget ed
Ġpsych ological
ĠFil ipino
à¤¯ à¤ļ
Ġà¤° à¤¤à¤¨
Ġà¤¥ à¤®
Ġen roll
isc al
Ġcommit ment
C ost
ĠDe cl
Arch ive
I ce
w ind
w hen
Ġl ad
ĠAp ost
ĠRichard son
Ġin ject
ĠB oss
à¤Łà¤° à¤Ł
Ġmix ture
T oday
he ng
F etch
Ġm a
Ġorient ation
w rapper
ent ieth
PAR AM
on al
ĠPro t
Ġfoss il
ĠS isters
Ġdesign ers
arian t
oub les
Ġbring s
Pack et
j in
Ġdem ocratic
Ġà¤ĸ à¤ªà¤¤
iers hip
(' -
ĠFl ag
b ing
à¤¤ à¤¶
Ġbeat en
190 1
Ġwrest lers
all i
qu in
Per form
Ġthir teen
Ġcompris ing
ĠF emale
ĠCath olics
ĠSlov enia
Ġmonitor ing
Ġunder went
Ġeng age
Ġeval uation
c art
as an
im ize
Ġr ally
Ġcl ay
ĠLy on
uzz le
st ation
à¤ı à¤¬
ĠAssoci ate
à¤Ĩ à¤µ
Ġ18 46
Ex tra
Ġ" <
ĠG host
Ġà¤ķà¤® à¤²à¤¨
String s
ites pace
Ġmer c
nold s
S om
ĠW orth
ĠMar in
Ġhe m
Ġ0 2
Ġz ones
V irtual
ro us
Ph oto
Ġquant um
ĠI sh
Ġob sc
Ġsurv ival
ĠPet e
Gen us
ert y
pe ction
Ġsh ots
IP L
ĠEp iscopal
( ""
Ġhor izontal
ĠFight ing
w t
Ġco in
Mar shal
Ġrecogn ize
Mat ches
Ġà¤® à¤°à¤£
ĠRoman ized
down load
ĠOs lo
ĠIn g
es liga
Ġport ions
ch at
ĠGer ald
Ġconvers ation
Ġl ie
Ġex ile
(' _
ref lection
T am
Ġ' ;
ĠCol onial
Ġcor ps
ĠLou ise
ĠRefer ence
J E
ath y
ĠTh r
Ġsus pected
190 3
Ġm ock
ĠS I
am ation
ĠF ut
ant o
che m
ĠPl anning
Ġreal ized
Ġeas ier
Ġdies el
ĠH ull
ĠHol ocaust
hand lers
ĠCle ar
à¥ĭà¤Ĥ /
ay ette
Ġj et
à¤Ĩà¤Ī à¤ıà¤®
Ġm m
Ġevent ual
ah i
ĠX X
ĠGener ation
ĠRol ling
ĠF BI
Ġgu ards
ĠParliament ary
ĠAntar ctic
ĠCh ase
ch y
ĠB anks
Ġinter actions
ĠNob el
ĠMaced onia
T er
ĠA way
ex cept
à¤¼à¤¾ -
Ġinf ection
Ġmeasure ment
M us
ĠSer ie
Author ization
ur ai
Ġal ien
Ġdig est
Ġd iversity
ian e
Ġfl our
ĠRe qu
ce ased
ĠG ol
spec ial
ĠViet namese
Adm inist
L ib
c ross
ĠM is
ord ination
Ġà¤¹à¤® à¤ķ
iffer ent
Ġgener als
B rien
Ï ģ
Ġc atal
Ch icago
Ġhydro gen
b egin
Ġo d
nd ered
ar in
Ġen zyme
w ings
à¤µ à¤Ĺà¤¨
im als
Ġ10 6
Ġscreen writer
T y
p ending
ĠW ak
ber ger
ĠSt atus
Ġà¤· à¤¡
g ression
Ġbelief s
Ġupgrad ed
ad ors
rid es
Ġman ages
Ġsum mar
re ne
Ġà¤¸à¤®à¤Ŀ à¤ķà¤°
ĠLiber ation
d yn
Ġb er
ĠU FC
Ġpun ishment
ĠC rist
Ġh ull
ol lo
Ã¨ s
Ġrefuge es
à¤¤ à¤Ń
Ġv m
ĠK ann
Ġstr conv
Ġinterpret ed
p es
Ġf irms
ps y
Ġg aining
ia e
tem plates
h ops
Ġw arn
ĠBrad ley
P HP
h ist
Ph ot
found land
Cal ifornia
ĠÙ ħ
d ater
H D
Ġch ronic
Ġext ensions
::$ _
Us ing
B ounds
à ²
eli hood
m inton
ĠK urt
ĠHop kins
ĠBas ic
N L
à ´
st ead
Ġind oor
Ġconj unction
ir ie
Ġas p
Ġel ite
ĠKenn eth
Ġvo ices
ĠG ur
ĠSt ruct
ĠF at
Ġmathematic ian
à¤ľ à¤°à¤¤
à¤¥ à¤¡
Ġ10 7
au f
ĠMar shal
Ġ11 2
m achine
Ġon wards
ĠO v
Ġexp ired
ar is
E ll
Ġs unk
ĠCan terbury
Ġeduc ator
Ġsim ilarly
ĠAm endment
cest ershire
Ġt issue
EX T
T okens
à ¯
pe z
Ġà¤ķà¤¹ à¤°
ĠCl if
format ter
Ġens emble
ĠL ey
ĠG rim
any a
Comp et
B uf
Ġc ust
aw an
Ġrenown ed
190 4
ĠYan kees
at ivity
ĠH od
ros se
Ġinvestig ate
M ask
S napshot
ĠD w
Ġconsider ing
Ġh urricane
Ġà¤¸à¤¨ à¤¸à¤¨
C a
Ġfour teen
ĠAir craft
rit z
ix els
Ġà¤°à¤ľ à¤¤
Ġmission ary
Ġb orrow
end ra
ĠGen eva
ell ers
tra in
ĠWrit ers
CON FIG
ĠBened ict
c ock
ĠFer dinand
à¤µà¤² à¤ªà¤®
arg v
ae a
Ġrenew ed
Ġpre tty
Ġch apters
con sole
ace ut
Ġd ot
Ġown s
Ġabs ent
g ender
s ized
ch ars
og an
Ġcons ensus
ĠEd itor
fol io
ĠA my
ĠT oken
Ġdemand ed
Ġspec ification
Ed ge
E lection
Ġb atter
Ġre actions
Ġhar vest
Ġb icy
Ġst olen
ĠCh o
Ġceleb rate
un til
ain ers
av irus
Ġout come
Ġjo ins
Ġpredict ed
ĠL omb
ĠN ortheast
s u
ĠR D
ern er
mark et
ĠLes lie
starts With
Ġ18 12
ĠMad h
ĉ Ċ
Ġin fer
ĠH off
ighth ouse
à¤Ĩà¤Īà¤ı à¤ıà¤¨à¤ıà¤¸
à¤¹ à¤®à¤¨
Ġnational ly
Ġvert ex
Ġcont em
ĠAgric ultural
M ir
Mar c
ĠAut o
Ġserious ly
ĠP orter
ĠIraq i
Ġalter ed
B ut
N ick
Ġd ock
ov i
ĠSt ay
Ġà¤ħà¤« à¤°
A UT
m ime
à¤¸à¤® à¤°
Ġstr pos
J oh
Ġà¤¬à¤² à¤µ
mod ified
Ġstation ed
Ġpresent er
ĠCurt is
G od
Ġà¤ª à¤¥à¤°
am ine
ĠC ome
rel ative
Ġte eth
asc ar
Ġut ility
à¤ıà¤¸ à¤ıà¤«
ĠL ah
ĠN C
ĠWhe ther
ĠBav aria
ĠC SS
Ġk ings
ĠBa iley
Ġprofession als
m eth
ĠI SO
Ġà¤ı à¤¯à¤°à¤²
um ers
g ang
che z
Ġsyn onym
ĠSil va
Ġbur ial
Ġc uisine
Ġse lector
rit ion
ext ensions
à¤ĥ -
Ġmanuscript s
T ab
T ony
ol ith
Ġadvis or
Ġass ess
Turk ish
m ology
ĠV ers
ĠB il
Ġr ational
oc o
Ġtow ers
Ġd ancing
à¤ĸ à¤®
ĠR ule
ĠNot re
ĠAlger ia
H o
ĠBed ford
Abs olute
im ming
Ġrele asing
ele m
ĠSpe aker
et les
ĠL etters
Ġup grade
Ġadd s
Har ry
Ġinter act
Wal ter
Ġst ability
ĠL ic
oot ing
Ġstr tolower
ĠFif th
P aint
à¤ª à¤°à¤¤
à¥« à¥¦
ĠR out
S id
Ġto ll
ĠP resent
Ġv in
ik ing
ĠMan or
sm outh
mid t
Ġ" _
Ġfall en
re ens
Ġs iblings
ack ed
ĠZ amb
Ġneighbour ing
Ġsurre nder
Ġdisappe ared
Ġtransl ations
ĠResult s
ĠAchie vement
d umps
im et
Ġà¤ļ à¤¶
rit e
y ou
V ers
at ibility
ĠP Ã©
ĠL odge
Ġper pet
Inst all
re ction
ing o
Ġpl ural
C omb
E c
E lections
ĠCol in
V ars
à¤° à¤Ĺà¤°
ĠP ink
ag ne
Ġsh arp
Ġbi ology
ĠBas in
T F
e o
Ġw aves
ĠJ i
Pro gram
Ġaud iences
Ref lection
ex ample
Sc hed
Ed it
del ay
Ġw ore
Ġ11 5
Ġfind ings
ut or
A st
ĠM ail
à¤Ń à¤²
à¤¯à¤¨ à¤ª
End emic
enz ie
w ill
ĠK ang
Ġnot ing
Ġresearch er
Ġprison er
à¤ĳ à¤¸
fin ished
Ġh ometown
Ġprelim inary
CO DE
an an
Ġrevolution ary
Ġl engths
Ġor ange
gar h
Ġmut ual
Û Į
orm s
fl at
ol ving
I p
ĠE ye
Ġrefer endum
Ġalign ment
ĠRh ine
Ã± o
Ġf erry
Ġch orus
Ġà¤ıà¤¸ à¤¸
Att empt
ĠPublic ations
Ġ11 1
ĠFer gus
H al
v iv
Ġv ault
efer red
Ġsur prise
Ġcan vas
Ġ11 7
__ )
Ġneighbour hood
à¤Ń à¤°à¤¤
equ al
à¤ħ à¤ľ
Ġnation wide
ĠP os
sc hed
g rand
i ade
ĠSt yle
Ġà¤ħà¤¨ à¤ľ
Ġcle ared
Ġprem ier
c atalog
pro b
anc a
ĠLear ning
ĠSlov akia
ĠF ont
Ġex cluded
ĠJul ia
Ġdeep ly
ĠBur ton
Ġpan els
Ox id
ĠEug ene
N av
Ġconsult ant
r ice
Ġb read
ĠHe ath
Ġim g
Ġrain fall
ĠRuntime Error
Ġd anger
ĠM iles
get User
ĠR ib
Ġor th
Ġspect rum
ograph ies
D iv
Ø ¹
Ġà¤§ à¤¨à¤°
K S
m ons
Ġbet a
Ġdepos its
Ġà¤µ à¤¤
Ġst aged
ry ing
Ġmy stery
ĠBrad ford
Cred entials
R oy
l am
ri ans
eg al
ĠFras er
ĠH ait
à¤¯à¤µ à¤§
co ords
Ġhelic opter
Suppress Warnings
Ġc otton
Ġd iver
Ġcl im
Ġconc urrent
Ġstat istical
Ġspecim ens
Allow ed
) *
V ari
pos al
Ġph on
Ġmaint ains
Ġremember ed
ĠH ab
ĠL oren
Ġà¤Ĩà¤° à¤Ł
ax es
ĠBurn s
Ġb out
ĠS M
ĠMar sh
ĠĠĠĠĠĠĠĠĠĠĠĠĠĠĠĠĠĠĠĠĠĠĠĠĠĠĠĠĠĠĠĠ ĠĠĠĠĠĠ
DE LETE
ch annels
ĠG iven
Ex ist
Ġencour age
Pay ment
S n
Ġl os
Ġe lem
ĠN intendo
Ġcon quest
Ġte a
Ġsever ely
Ġhost ing
ĠD O
act ual
Ġhapp ens
mun ition
à¥Ĥ '
ĠH aven
ĠH urricane
Ġdis patch
Serv let
he et
Ġc types
ĠLuc y
ĠPow ell
Ġf Ã¼r
ne z
A k
En ter
w heel
Ġà¤īà¤¸ à¤ªà¤°
Ġun ve
Ġsix teen
nes day
ĠAdvent ures
ĠAr senal
u o
ĠR ash
ĠF o
Ġse ized
Ġpre fer
ĠBud apest
U nd
ĠI M
Ġex terior
Ġcr ashed
Ġfarm s
ĠPrest on
Ġexplos ion
ĠSett lement
ĠP aper
Ġdef initions
ĠFran c
Ġperson ally
UN D
Ġst eal
ud o
Ġdiv orce
Am ong
en ames
ĠM uk
ĠI g
ĠH az
Ġconstra ints
Ġcol lector
New s
Ġconduct ing
ĠProm ise
t ri
Ġinst ructions
lin ary
ĠP ere
Ġ4 50
ĠTh under
ĠAn alysis
com pute
Ġtype of
W C
MO DE
Ġdepend ency
Ġ'* '
P a
log ical
Ġpost hum
Ġinher it
pr ice
de ep
State Exception
Ġguitar ists
ĠB ot
ĠN ATO
ov sk
(' .
ĠClass ical
ĠComb at
By Name
s elling
ĠS ister
ĠD und
Ġv ars
ĠFl ash
ly mouth
ĠĠĠĠĠĠĠĠĠĠĠĠĠĠĠĠĠĠĠĠĠĠĠĠĠĠĠĠĠĠĠĠ ĠĠĠĠĠĠĠĠĠĠĠ
Ġmer ely
Dest ination
ĠSimp son
z on
ĠC os
urs day
Pl aying
Ġw ickets
ĠK iss
Ġinter cept
ĠĠĠĠĠĠĠĠĠĠĠĠĠĠĠĠĠĠĠĠĠĠĠĠĠĠĠĠĠĠĠĠ ĠĠĠĠĠĠĠĠ
ĠBry an
f ts
per cent
Cath olic
Or igin
Ġheadquarter ed
ĠU ntil
Ġche st
à¤°à¤Ĺ à¤Ł
Ġpra ise
Ġsnap shot
Ġstream ing
Â »
Ġà¤ħà¤¨ à¤¦
sh an
Ch urch
Ġtri o
ĠAlb any
ĠMarc us
ig raph
Ġà¤¡ à¤ķ
Ġflo ors
Del hi
Ġserv ant
Data Frame
ĠT ropical
we ights
histor ic
ĠT ampa
ch air
Ġà¤ľ à¤ĺà¤¨
ass is
à¤ī à¤ļ
Cont in
Ġp id
ĠC anton
Ġc ategor
ur able
ĠF an
ier i
à¤½ à¤ª
ĠMem phis
abul ary
ĠGlob e
ĠV oc
L ord
Ar ts
B rown
R os
V C
per missions
Ġblock ed
ĠGram mar
Ä ħ
ant om
Ġmin eral
Ġm ouse
ir ate
Ġ10 9
Ġdoctor ate
Ġt un
à¤ıà¤¨ à¤ľ
Ġdram at
ĠMat hematics
le af
Ġtransl ator
ĠL isa
Ġv oyage
Ġimpro ving
Back end
Columb ia
Ġà¤Ń à¤¸
Ġm eter
ak k
pons es
Own er
R og
ĠB ee
int eger
Ġsh allow
Ġrel atives
s ome
er ion
Ġà¤ļ à¤¹à¤²
Ġsc hem
Cre ated
F ilters
à¤Ľ à¤°
Ġâ ĪĴ
STAT US
Ã¡ r
flu ence
Ġpract ition
Ġreven ge
C ong
ĠC ool
Ġr ivals
Ġlect urer
y t
Ġ18 45
pro to
ĠBang kok
ay e
Ġactiv ated
L INE
Ġbatt ing
Ġperform s
ĠWe ather
ĠFern ando
im p
On ce
Ġrest art
Ġc ock
ic it
ug a
ĠLiter ary
C orn
Ġde als
ĠAmeric as
Ġvolunte er
ĠC ourse
Ġcon gregation
Ġ' #
Ġinvest ors
ĠGi ovanni
B on
ac les
ĠAg reement
Ġconstruct or
Ġreb ounds
Ġdub bed
Ġdivor ced
k n
Ġh i
S hip
ĠM C
ĠD ew
Ġcitizens hip
à¤Ĺà¤ł à¤¬
Ġpregn ant
Ġsur f
Ġcopy right
ĠRoberts on
Vir gin
ĠP engu
ĠH els
part ial
ĠHead quarters
el ong
Ġl ig
Ġinvent ed
Ġcoff ee
D yn
Ġb ug
Ġsw ord
Ġguid ance
ĠPar agu
.... ....
ĠM ing
Ġat omic
ĠLux embourg
à¤ľ à¤¯à¤ª
ĠR iv
ort ic
ĠAr d
Ġsepar ately
Ġreve al
s ources
à¤µ à¤ķà¤°
Ġn ested
Ġsub mit
ĠPro gressive
ott a
ĠCom put
Dep th
raf ts
ĠD ale
à¤¯ à¤¸à¤®
Ġà¤¹ à¤°à¤¦
um ph
ĠK ot
à¤¾. ..
ĠCar p
ĠWinds or
/ *
G al
Ġst ones
à¤« à¤°à¤¨à¤Ĺà¤°
Ġun em
Ġind eed
Con serv
Ġmen u
B N
à¥ĭ !
ĠAdd itional
ĠDev il
Ġthreat s
à¤ĵ à¤µ
ission ed
Ġdecor ator
ĠPubl ishers
Cent er
Ġà¤¨à¤« à¤°à¤¤
M s
c ategories
un al
ĠSher iff
ĠM O
id ay
get Parent
Ġloc als
Ġmission aries
Sett ing
in ology
Ġb ash
ĠL al
ĠO st
set Attribute
ĠMinist ers
le igh
Ġprest igious
l ore
ĠB erm
ĠG row
Ġà¤īà¤¨ à¤ªà¤°
igh bor
Ġenh ance
q a
Ġover w
enn ium
Ġnom inee
J ava
R o
ĠC ell
Ġmon uments
Ġ ion
à¤¡ à¤¤
ath am
rid or
N ative
ĠH erm
ĠWes ley
un i
ĠL av
ĠEthiop ia
L AN
Ġà¤ı à¤²à¤°
Be etles
ĠHeavy weight
ĠL t
ĠN ames
m ile
p it
Ġà¤ħ à¤®à¤¨
Ġprot agonist
Ġant icip
Pr ince
table Name
Jo urnal
Aut hentication
S elf
v card
pe at
ĠNew foundland
Qu arter
D eb
ip zig
Ġsh aped
Ġcons ort
ĠPl aza
ĠRe id
h yd
el n
Ġex pr
ĠSh ore
ĠCar roll
< >(
Ġà¤Ĩà¤° à¤¬
Ġhon ored
Ġwatch ing
ĠNever theless
Ġsudden ly
Mex ican
Ġà¤ĳ à¤²à¤°
C ycl
en ary
Part ition
Ġmat hematical
Start ing
Ġfair ly
Uk rainian
M ake
P s
S K
Ġc er
Sc ience
ĠH alf
Un ique
ĠN R
à¤ħ à¤«
Ġw ww
Ġc ant
can ic
ĠPop ular
Ġnav ig
Ï Ĥ
ar ag
Ġs aving
Ġor al
ens itive
ott i
Ġvar ied
init ely
Histor ical
ĠP iano
Ġcon qu
ĠRoche ster
p ret
Ġcat hedral
ĠM om
ĠBelf ast
ĠC ord
ain es
Israel i
ĠB end
Ã¡ ndez
D ave
ĠMor rison
Ġsoutheast ern
Ġcomp atible
Ġà¤ľà¤¨ à¤Ĺà¤£à¤¨
dir s
f ootball
Ġline up
Al an
S Y
ĠE RA
Ġper mit
Ġaver aged
Ġknow s
Ġthe olog
Ġp ump
Ġà¤² à¤¯
ĠR ica
al an
Ġstre ak
T ok
Ġc um
(' :
ĠPro gress
Dem ocratic
Stand ard
g overnment
un set
(" [
Ġdec omp
F a
cred entials
ĠR s
ik es
Ġhold er
ĠW ord
Int o
ĠCap itol
Ġà¤ļ à¤¡
ĠAl pha
Ġrev olt
Cons umer
Ant on
ĠEnt ry
R at
Ġà¤īà¤ł à¤ķà¤°
ĠPal m
Ġcur riculum
ĠMin neapolis
Ġlect ures
Foot notes
Ġf p
ĠCh ad
ink i
Ġreb els
ch urch
em in
De ad
ĠConstant in
ord inary
sec ure
Ġal ert
ĠY a
ĠW arriors
op us
ĠHand le
Ġaccur acy
ĠN ormal
Ġ3 70
à¤ģ à¥¤
s in
es ch
Ġm ic
ys ql
àª °
ĠCle an
A rea
Ġt ensor
Ġf raction
ad ia
ĠB JP
get C
ĠV ij
ĠBul ld
ĠEston ian
{ {
Ġà¤ĺ à¤£
ah u
Ġ25 5
A K
Ġà¤ķ à¤Ľ
Ġo w
Ġsuggest ing
ĠIndust ries
I ran
f ac
ĠI de
roll ers
Ġpray er
Ġo dd
ĠD um
Ġatt raction
p olit
Ù ĥ
ed ar
à¤Ĺ à¤¬
om ial
Ġex empt
ast ed
b order
h uman
Ġà¤¬ à¤¬
Ġvar ies
Ġch ains
Dep artment
le en
ends with
Ġfar mer
h in
99 9
à¤ıà¤ļ à¤ĵ
is odes
ĠH i
ĠLe one
Sc ale
process or
Bas ic
STR ING
F e
P ark
pe i
ant es
ĠAnd ers
ĠLin ux
D anish
ĠCh ancellor
eb o
Ġord ained
Ġcorrect ly
Lower Case
M ixed
Ġ) {
ĠV ale
Ġà¤Ĩà¤Ĺ à¤®
Mon th
Ġinhab ited
k ernel
ap o
Ġim posed
Ġep id
à¤¶ à¤Ńà¤ķ
ĠN ancy
ĠM ale
Ġan ch
à¤ķà¤² à¤ķà¤°
Ġep it
ĠB Y
ĠSh ir
1 10
l it
ĠDep ression
al ore
Ġinc orrect
Red irect
" ].
met ry
EO L
D ar
B ang
L u
S uch
Ġ å
à¤ĵ à¤®
Ġinst ant
t ures
ĠH ack
ĠR achel
uc a
Re place
Ġsol ve
Ġvel ocity
re ts
is Valid
Not ification
ĠHar bour
Ġaer ial
Ġc ov
ĠC riminal
Ġl i
ĠMc Donald
Ġinteg ral
F ish
st ud
Ġ18 37
man y
Ġmom ents
it ative
Ġsail ors
at ics
Ġpro sec
Ã¤ r
ĠBas el
Ġs hed
ĠS hen
Ġmotor cycle
à¤¨ à¤¹à¤°
ro b
ast ore
Ġbass ist
18 90
T rim
Ð ·
ĠM ob
Ġbe aring
requ ency
Cal c
ĠJane iro
E ric
p oly
Ġf ires
() ):
c ourt
ĠB agh
ĠR ac
Ġby pass
M ust
t ers
Ġcollect ing
Ġpurs ued
à¤ĩ à¤«à¤²
Ġà¤¡ à¤°à¤¤
Ġrem n
Ġcheck ed
B ecause
ĠS event
im ony
ĠEm ma
Ġrecon struction
Ġcompens ation
ul ic
ĠAm ateur
Sc an
Ġaccess ed
H ong
c ancel
Ġà¤ĺ à¤°à¤µ
ĠChel sea
Ġà¤Ń à¤µà¤¤
ĠD ow
pl ain
Ġsup porter
j ud
Ġlight ing
ĠChile an
B and
G h
à¥Īà¥¤ '
ĠMar ion
col ors
Ġpar ishes
Ġflo oding
Ġhop ed
ĠÄ Į
N amed
Ġper former
o ine
it udes
rac use
cks um
Ġexpand ing
Ġstret ch
re present
ĠSax ony
ĠLud wig
Ġ18 20
Se lection
Tour ist
v oid
an che
Ġm ast
ĠK om
Ġkn ee
Cl imate
Ġfac ade
Ġgirl friend
T rad
ĠSe oul
abl ing
ĠEd monton
d ial
Ġsn ake
Ġstri king
Es ales
Pac ific
Oxid Esales
Ġdet ection
" à¥¤
y cle
Ġg rab
P enn
m ajor
By Id
pay ment
im us
Ġnot ification
Ġcl azz
à¤ī à¤ªà¤°
Ġman or
Ġpropos als
Ġphenomen on
l as
Ġsh adow
Ġmot if
ĠGar c
Ġà¤Ĩà¤Īà¤ı à¤ıà¤¸
g ae
ent ities
ac iÃ³n
Sc ore
Mar ie
ĠÐ ¿
stand ard
Ġbank ing
Ġfavour ite
p ipe
it Ã©
à¤ĸ à¤¸
ĠF eder
ĠL ip
Ġform atted
ĠQ ing
ĠAd rian
Ġterr itorial
Oper ator
Ġl un
ĠH iro
Ġ| =
ĠCard iff
ĠTe legraph
ĠHal ifax
à¤ª à¤°à¤ķ
à¤¬ à¤°à¤®
Ġaccord ance
à¤¸ à¤¡
ĠA FC
ĠD ir
ĠCo hen
Ġin clusion
ĠM ile
ig rant
ĠI stanbul
Ġun f
Ġdepend encies
r ud
Ġfinal e
Sp ring
ĠKrish na
or ers
ĠT roy
ĠM Äģ
Ġ18 41
Ġint ens
Ġcent ered
Ġir regular
ĠExcell ence
ag ascar
ĠW ol
Ġpl t
G L
à¤ª à¤ª
Ġpro sper
ĠB ran
Ġà¤®à¤¦à¤¦ à¤Ĺ
Ġfe els
Ġproport ion
an as
ass adors
ĠV ision
mar ines
ĠC i
ĠP it
ĠSte am
Ġprec ip
idel ines
ĠP ool
red uce
rict ion
uck ets
Ġvari eties
og i
Ġsc r
dis able
Ġru ins
L ev
est y
ĠEd gar
9 00
f il
Ġrul ers
odd ess
Ġc rypt
Ġp adding
Ġ. ...
ĠRey nolds
Ġà¤ĩà¤¨à¤ķ à¤®
Ġconcent rated
ĠRet rieved
N ormal
b eck
d ing
Ġv ital
rest rial
ĠChurch ill
fo o
Ġaut umn
habilit ation
Ġd s
part y
ĠEll iott
/ .
ber y
Ġsy mb
He art
Tem porary
ĠObserv atory
greg ate
School s
T s
U pon
Ġ18 39
k ill
ĠT ales
ve ill
G rid
R eb
at z
Ġacknowled ged
ĠB alk
ĠX V
ĠGl enn
Ñ ħ
cc ffcc
Ġsens or
Ġj ava
Ġcol ours
ĠFeat ure
t el
ĠS ag
ct ica
st ones
ST ATE
ĠCons ult
Ġartif acts
on ne
Ġthe or
Ġg ray
à¤ŀ à¤ª
ĠCare y
t age
Ġa uction
ĠC opy
ĠCommun ication
ĠMil ton
Ġtransport ed
R oles
Ġbe ars
ib ling
Ġj ack
ĠInter state
ak o
r pc
Ġsh r
pr iv
Ġtra ct
yl um
LO W
Ġemer ging
} :
Ġà¤ĩà¤¸ à¤°
Le on
n n
Ġp ink
Ġsl avery
fortun ately
as aki
contains Key
, $
an mar
Ġà¤¦ à¤®à¤¨
Ġsc ales
Ġqu it
ĠGu j
Ġstrong er
Ġnortheast ern
à¤¬ à¤®
pl ing
Ġcoll apsed
she ll
ĠDod gers
Ġweb sites
A meric
C LI
th umb
op rano
Ġp icks
ard e
Ġinter im
ĠMe h
ĠPresident ial
et es
ov el
Ġsouth western
ĠB ever
ĠP red
um en
ĠC ly
Ġl ord
Ġdis orders
Äģ n
Am ount
à¤¼ à¤Ĥ
Ġback ed
ep age
à¤¾ à¥ĩà¤Ĥ
ĠB order
ten ham
Aust rian
or ate
ĠH err
> <
er oon
Ġapp rent
Ġpres ervation
ĠC apt
res olved
à¤ıà¤« à¤¸
sh i
Ext ract
! ,
z el
Ġ ))
Ġf ran
ur an
En um
C tx
G rad
em ann
ĠF ALSE
Ġdraw ings
ĠUrugu ay
Ġstd err
ĠS v
ĠMar ÃŃa
Ġsup p
yl on
mult i
Ġgar rison
Ġcon sec
get Default
pro gram
Ġà¤ıà¤® à¤¬
ĠWinn ipeg
ref s
ĠBra ves
ĠÂ «
Ġà¥¨ à¥§
S ets
Ġcl ause
Ġpol ar
ĠFran Ã§ois
ĠH ern
pl aced
oph on
C amb
S uffix
en ic
Ġc c
Ġestim ates
Ġstrateg ies
B eg
Ġqu ote
Ġà¤®à¤¤ à¤Ĺà¤£à¤¨
Ġcomb ine
P G
ĠMy anmar
Ġlearn s
Ġeg g
T exas
re ls
ĠK ids
Ġsy ll
Ar m
Ġlob by
Ġdistingu ish
à¤¶ à¤ľ
ĠD ial
ep s
ens ure
ram ento
Ġround ed
ur ities
ĠG amb
ĠCh in
Ġwithd rawn
Phil ip
N ik
Re q
Ġtre as
Ġà¤ıà¤ķ à¤¦
content Type
heim er
ĠLyn ch
ĠC ategory
Ġ18 44
n ar
Ġà¤® à¤µ
Ġc ub
ĠG ir
ace ous
Ġshe ep
head s
j av
v ae
ĠP omer
Dig ital
P seud
Ġcon sequence
ĠK ad
ĠBas il
ĠS H
opter a
Ġy aml
Mount ains
Ġtheore tical
N R
id an
Ġst uff
ef ield
Ġse p
ov Ã¡
Ġtop ped
Ġtalk ing
ĠGener ate
à¤¬ à¤§
Ġl ux
ĠP on
ĠI z
Ġ18 38
Ġcho ices
ĠT ot
Ġwh it
cas Type
al and
ĠAber de
Z ero
à §
ic ism
im i
ĠF antasy
ard ing
Ġtorped o
R ank
V en
Ġd ying
Ġsub set
BA SE
Ġtrav elling
Ġabort ion
E shop
ev es
Con verter
al ions
is Array
Ġf action
Ġch lor
Ġmod es
Ġdeleg ate
ick ed
Ġpriv ately
il ateral
ĠG em
ash board
ir ical
Ġra pe
Ġ17 0
Ġhand ball
Ġal tar
ĠRich ards
Ġmus cle
L ost
R andom
ur us
ood le
à¤ĩà¤Ł à¤®
Ġcongress ional
Ġstory line
ĠTy ler
Ġm all
rell a
Ġf ate
Ġprov iders
Ġà¤° à¤®à¤¨
ct rl
Ġafter math
not ification
Ġdev ast
Trans form
Ġsec ular
veill ance
Ġb ag
ĠM err
ĠAg ent
Ġburn ing
l ab
Ġqu ad
ĠEx tra
189 5
Ġrom ance
Ġcon ver
Ġind irect
ĠSh i
Ġfilter ed
ĠR oot
ĠL enn
Ġun w
ĠMc N
Ġf ru
Ġà¤¯ à¤¸
ĠIn side
S ix
er g
al bum
Ġed iting
Ġà¤ıà¤® à¤¸
Te ams
ufact uring
ĠKarn ataka
ĠD id
get Current
M ail
à¤ķ à¤®à¤¤
à¤¯ à¤«
ĠO N
ep pe
io let
T imes
ĠKn ox
ĠCh al
Ġcall er
ĠCarol ine
aud io
ĠW olver
ĠMar l
B BC
re p
ĠTh ings
ĠNO T
J S
un icode
ĠY ad
ount ain
ĠAnd roid
cha ft
Ġnob ility
ip art
à¤Ĩ à¤¶
Ġcommer ce
German y
E mb
j iang
ĠChem istry
th ouse
Ġal gebra
à¤ĵ à¤ª
Mod ified
CO MP
189 8
Ġconsider ation
haus en
b u
Ġl ang
var iant
Ġ{} ",
Ġconf usion
Ġeval uate
y on
} ",
pro c
Ġpres idency
à¤ľà¤Ĺ à¤¹
se en
Ġauthor ization
Ġdraw s
G i
Ã ®
olog ically
ĠPort smouth
role um
Ġninet eenth
ĠMidd les
ac ular
fl ies
Ġveget ation
v oc
Ġà¥¨ à¥Ń
ĠRec ording
à¥¨ à¥¬
à¤ıà¤ļ à¤¸
ĠEll en
Ġdis pers
Pro to
Work er
ĠML B
ĠK och
ĠSt rong
struct ed
transl ate
ĠLanc aster
Dis k
Ġcar ved
Ġà¤Ĩà¤® à¤¦à¤¨
Ġarm ies
\ .
ues day
Ġà¤¹à¤² à¤ļà¤²
R ol
s ung
Ġà¤® à¤²à¤¬
Ġb eneath
Ġà¤ľ à¤¯à¤°
ĠT otal
if act
ĠR ole
Ġne ur
CON T
uv ian
ĠDefault s
S and
Ġkill er
ĠBomb ay
d c
ĠR NA
ile e
à¤¢ à¤¨
Ġ25 6
work ing
head ed
V R
ï ¼
is ers
End ian
ĠA FL
Ġsub species
Ġexpl ore
Ġfem inist
ĠAn at
Ġexplan ation
C roat
ĠR ao
Ġfl av
ĠHon our
ĠAlexand ria
Ġà¤ľ à¤¦à¤¯
ĠSh ould
Ġmark ing
l is
s che
ĠL az
ĠSe lect
Al bert
Ġsett le
gorith ms
ĠWag ner
Ġw are
ge ons
ĠNap les
C ursor
à¤¿ "
à¤² à¤Ł
Ġd ense
ĠD oc
cl air
ĠMar ines
Ġen listed
CA L
ĠR oth
à¤ĺ à¤²
vent h
SS L
Ġinvol ve
ĠUl ster
Ġatt itude
c u
Ġhe ct
Organ izations
r ÃŃ
ĠRos a
n orth
Ġcritic ised
Sim on
Ġd ish
ad j
ĠR oc
Ġoccur ring
ĠKazakh stan
Ġf ram
ĠA ri
uff icient
ĠAdvent ure
ĠOr lando
Ġb ore
Ġd ancers
ĠG ul
Ġprotest ers
Ġassemb led
Ġn ose
th reshold
Ġà¤Ĩ à¤ĺ
Ġg it
ĠL il
Ġse ar
Ġexpl oration
ĠS olar
ĠMon ument
Ġreserv oir
ĠIns urance
Look up
ĠGael ic
Ġd ors
ĠC airo
I con
n u
Ġc oh
ĠN in
List eners
B a
à¤Ĩ à¤ķ
Ġtr am
mod ern
Ad am
RE AD
bl ue
b ug
Ġà¤¬ à¤¹à¤°
ĠB CE
Ã© rie
Ġmet re
ym es
as ium
Ġcor poration
tit led
iform es
Ġtrib al
Ġrevers ed
Ġp ig
Ġd irections
ĠCol umn
Ġcheck ing
Ġrepe at
agre b
L iga
ĠB rom
ĠMalays ian
ĠPhys ical
à¤¨ à¤¸à¤¨
ter min
amp ire
if a
Ġr idge
ob iography
Ġsub mission
Ġu uid
Ġaccept s
ĠTanz ania
ĠJohn ston
ĠBald win
Ġs el
Ġdepict ing
Ġal umin
ĠAcadem ic
Feat ures
Ġrival ry
Ġassass ination
ĠBo hem
Ġoccas ional
bra him
Ġmilit ia
Ġg host
Ġ' </
Ret ry
Ġt ale
Ġp ace
Ġp ounds
ĠB ronze
os o
Ġpre y
not ify
ĠC risis
Ġin g
ĠMon roe
h t
Ġà¤ħ à¤Ļ
Ġ18 35
Ġà¤Ĩà¤¶ à¤¯
ed el
ĠLith uanian
commun ications
Ġà¤µ à¤°à¤¦
and in
Ġhe ter
Ġch ap
att i
Ġmy sterious
Ġemb edded
et al
ĠMar itime
Ġsens itive
n ational
à¤ķ à¤ļ
att ing
ĠZ ero
ĠEnt ity
ĠSem inary
ĠKap oor
Ġà¥¨ à¥®
Ġsk ull
Ġpract iced
Ġfrag ments
H ex
t ools
Ġth orough
ĠD S
Ġà¤ªà¤¡ à¤¤
ĠEmer gency
Ġt et
Ġà¤¹ à¤Łà¤¨
as is
ĠM am
à¥Īà¤Ĥà¥¤ "
ĠComp lete
G ar
Ġc ro
Ġh itting
os ite
Pro ps
Ġgener ating
Us ers
à¥ĭà¤Ĥ )
Ġcon sequences
Ġpro ceeded
18 99
To String
Ġvert ices
keep ers
ĠBey ond
h on
Ġsen ators
Ġfe es
R ect
ĠEm ily
Ġball ot
Ġwild life
ĠLyn n
R od
ĠD ong
int eg
Ġox id
ĠChron icle
} `
ĠBe a
Ġgram mar
Ġin sects
ĠC od
ĠÅ ģ
Ġtr unc
Ġdef ines
àª ¨
Ġconstant ly
R ot
w ald
Ġthe ology
à¤Ń à¤ª
ĠD eg
ĠHe at
ĠLank an
Ġnick named
ĠâĤ ¹
Ġbankrupt cy
T ool
Ġl ung
se at
ĠK urd
Ġdr ives
R Unlock
p ared
} ()
st en
ĠS uccess
ĠLeg al
Ġgather ing
ĠSoft ware
ict ions
Ġatt achment
ĠBal let
A V
Ġw ake
ĠH ir
pr ised
vers ions
ĠNo thing
Ġconsid ers
ĠCorn ell
Ġà¤® à¤¨à¤ķ
Ġap plies
ĠCD P
ĠSuff olk
erm o
url s
ĠKh al
m us
p he
Ġp a
ĠP om
Ġsur faces
Ġscreen play
Ġà¤² à¤¹à¤¸
ĠR ican
Ġ18 42
Ġsm allest
12 3
Ġequ ally
inv oke
Serb ian
il ogy
let in
Ġsole ly
F ederal
Ġ ^
ed uc
ĠBol ivia
Ġk inds
Ġbo ost
ik er
ron ics
IN TER
ĠProgram me
ĠMult i
t ailed
ĠC rystal
Ġ" ")
D ivision
v ector
Ġs ew
Ġb acteria
Ġm oon
ĠCom mercial
ch oice
Ġboard ing
Act ivity
ansk rit
C ulture
t ain
to LowerCase
ook ies
B ool
et ches
ĠR az
à¤°à¤µ à¤ļà¤¨
Ġdevelop ers
à¤¾ ',
Ġà¤ª à¤§
Pro tected
Ġà¤ıà¤® à¤ıà¤²
la us
ĠC ancer
Ġwhe els
f ried
Ġreg iments
Ġdesc riptor
ĠIllegal StateException
y u
ĠH its
Ġ11 3
pack ages
Ġbond s
A ff
ĠH ann
ĠAb b
ato es
O k
f loor
Ġcl othes
Not Null
Ġdoct rine
add All
Ġà¤ħà¤§ à¤°
por a
ocol ate
ĠTre k
Ġnecess arily
ĠR ever
à¥ī à¥¤
Ġam munition
rop y
ĠChief s
Rel ated
ĠNE AT
S cheme
Ġc rim
-> {$
ĠPro f
ĠBur ke
Ġrecon c
mut able
rif ice
ol an
ĠB ug
ĠW ings
Ġeng ra
rec ip
Ġprompt ed
à¤°à¤ľà¤¨ à¤¨
M IT
im ity
Ġmed all
Ġcustom s
Ġgovern ed
à¤ĸ à¤¬
Ġopt ical
13 0
ĠMerc ury
ĠC ache
ĠK Ã¶
let es
Ġà¤Ńà¤° à¤ķà¤°
189 7
Ġvin yl
ĠM esa
ĠN SW
Ġair ing
CO M
Ġmechan isms
Ġham let
j ee
Ġland sc
IS O
Pre vious
om al
ĠP lymouth
ri que
art icle
Ġà¤ľà¤¨ à¤ª
Execut or
Ġà¤ªà¤¦ à¤¸
Ġfl own
... ]
Ġtri ps
[: -
Ġstri kes
elect ric
Ġch a
Ġbre ed
Ġimpress ive
C lean
Ġb eds
Ġà¤īà¤® à¤¡
Ġpar as
A W
St atic
Table Name
Ġcolon el
à¥ģ '
ott age
ĠAtl as
iling ual
k b
à¥© à¥¦
Ġfurn iture
Ġwat ched
K evin
k it
v t
ĠSuper ior
r up
art y
cl ub
Ġch unks
fore ign
Ġref uses
ĠBarn es
Ġdecre ased
St ates
Ġ18 43
à¥ĩà¥¤ "
L ake
Ġhop es
Pr iv
[ ^
ĠAr ms
ĠZ en
run ner
ĠEnter prise
Th rowable
SE SSION
ĠMid lands
um per
Ġfre ed
ĠBra h
G I
Ġl ip
ĠØ ¹
in is
Ġd ella
à¤« à¤°à¤ª
à¤°à¤ķ à¤²
Ġhigh ways
se gments
ick ers
à¤« à¤¬
ĠStr ateg
ĠH ave
Ġest ates
config s
ĠDirect ors
Ġcontest ants
ĠIP L
am er
ĠInd o
Ġexp elled
ĠH our
ĠTh ames
pack et
Ġrout ine
pt iles
Ġpro jection
ĠMot ion
N UM
T a
Ġà¤ª à¤¸à¤¨
and ed
op ol
Ġsp ir
Pl atform
Char acters
Ġà¤ħà¤² à¤µ
prot otype
E ff
w i
Ġp arsing
Ġro ok
ĠAp plication
ĠHay es
pow ered
Ġor ch
ant le
sh aw
Ġvary ing
at ur
Ġshould er
Match er
B oston
al gam
Ġh oles
Ġbe er
Ġstrugg led
Ġcondem ned
Ġà¤° à¤®à¤£
Ġpersonal ities
Ġprepar ing
Pak istan
Ġlist en
ĠRos en
it ize
à¤ħ à¤¶
Ġob st
ĠAn imal
ĠBo eing
Ġ ndarray
en za
ow ed
Ġen larg
Ġcontin ental
count s
Ġworks hops
ĠG an
M ean
ĠU z
Ġcl usters
ĠMad agascar
FIEL D
ne um
Ġsur geon
Ġintro duce
ĠWork ing
Ġmo ist
em i
AR Y
Wh o
ĠI BM
ĠPro perties
Ġport raits
ĠLad ies
f w
ĠE t
Ġimp ressed
+ )
B ased
eg an
Ġà¤īà¤ª à¤Ĺ
Ġoutput s
he e
ĠW end
In ternet
à¤°à¤¸ à¤µ
Ġmod ify
Ġbal let
Ġproceed ings
orient ed
Ġà¤¹ à¤²à¤ķ
Ġg ods
Ġcomput ing
ĠSpring field
Ġlegend ary
ul ine
ĠLind a
Republic an
Ġà¥« à¥¦
Ġaccompl ished
Ġspecim en
. '.
B rand
Gold en
Ġpyl int
L ate
Ġc osm
Ġb apt
as ma
ig ins
ens ed
ĠBright on
JE CT
à¤ĸ à¤ª
Ġà¤²à¤¡ à¤ķ
ĠLog an
App end
R Lock
Ġtro ubl
Ġflow ering
Ġflag ship
à¤° à¤¸à¤°
ĠS ard
Ġr s
Ġ18 36
ĠCong reg
Art ists
ĠHonor ary
G rant
Ġs ab
iv ian
à¤Ĺà¤² à¤ª
ĠCl ara
ĠDay ton
os ystem
ĠMar ian
Ch unk
b lob
ĠS ki
per form
ĠTh an
ĠAr ctic
Ġà¤¸à¤ķ à¤¨
Ġac claim
Ġcycl ing
Ġdiscip line
ard ment
Ġsk etch
unt ing
Ġabsor bed
Ġ iv
Ġà¤ħà¤¨ à¤²
ass oci
ĠFor bes
Ġdom ains
evelop ed
Ġiter ation
N ON
å ¤
ĠB ihar
cess ion
Ġkilomet res
F ront
ĠA sc
ĠL ords
ĠN atal
ari at
Ġdi ocese
Ġess ays
ĠSant os
Ant i
Ġanth ology
ĠBeaut y
Ġà¤ħ à¤¹à¤¸
ĠR ifle
Ġg oddess
Ġ18 32
Pl aces
dis k
Bre ak
Ġg arn
Ex pected
Ġrel uct
ĠX box
Ġmarg inal
ĠThrough out
Ġconsp iracy
ik k
Ġcount ed
y g
is se
Ġsub marines
Ġconv ey
Ġinaug urated
N Y
Ġt rick
ist o
ew ard
à¤°à¤¹ à¤°
Ġpart icle
ĠPal omar
Ġless ons
ĠMur der
Ġaccident ally
O ur
se lection
ĠMar tha
sw orth
188 9
Ġsit com
à¤¨ à¤ĸ
sh ared
M AP
C apt
à¤Ī à¤®
ĠY ar
olk ata
Ġmass acre
Top ic
Ġlock ed
F eed
c id
al g
ĠS ugar
ĠF F
Ġnum er
ĠÐ ²
Ġdeleg ation
ffbb bb
ĠNorth ampton
": "
Ġbox er
ĠK aren
Ġserial ized
east ern
Ġkit chen
L ibrary
Ù Ĥ
ĠB iography
à¥Ģà¤Ĥ ?
à¤ķà¤° à¤¤
Ġà¤ħà¤² à¤ķ
Ġev ident
Ġmanufact ure
Ġhypothes is
Ġf name
ĠAg u
H ans
n l
ĠT yp
ĠLe ipzig
Ġdo zen
Ġoppos ing
Ġmans ion
Ġr c
Ġcomp rom
à¤¯à¤® à¤¯
ĠTasman ia
ĠGarc ÃŃa
Ġà¤Ń à¤£
ib i
ĠChe ng
ĠSen ators
Ġren ovation
ĠRaid ers
Ġnorth western
Ġreleg ation
depend encies
ĠC ul
à¤¬ à¤ľ
key word
Ġbroad caster
g ered
Ġc anton
Un expected
ĠM B
Ġà¤¯ à¤¨
10 1
SS AGE
Ġser ialize
Ġà¤² à¤ª
am on
g ood
Ġs le
il us
à¤£ à¤ªà¤¤
ĠE ra
ĠPl at
omet ime
Tim er
Ġter rain
Ġtack le
at u
jo ined
ĠSl am
Â ²
Ġà¤ĵ à¤¸
[] )
ĠPer iod
Ġinterview ed
ĠÄ Ĳ
B locks
à¤² à¤¶
man s
à¤ī à¤¸à¤¨
Ġpres c
Ġjoint ly
ĠCol lect
189 6
Ġcab in
v ec
Ġt ent
Par is
Ġroll ing
ĠJenn ifer
A ge
ĠF ed
char set
Annot ations
d aughter
Ġà¤¤ à¤ĸ
ĠO F
Ġ: :
ĠSouth west
m ock
ĠSc ots
an us
ĠD awn
ĠF lo
ĠJ ag
line ar
Anth ony
ĠE yes
Ġcomm ittees
à¤ıà¤¸ à¤¬
Ġmon ks
à¤Ĩà¤° à¤Ĩà¤°
Ġequ ality
Ġcast ing
A ctions
F all
K ore
Ġo v
ĠG it
ĠW W
ĠE ducational
ĠJ ets
ia k
In stances
ĠCol ony
ĠCar lo
Ġnormal ized
ĠR ost
à¤°à¤¤ à¤ķ
Ġper missions
Ġà¤Ĩà¤° à¤ª
Ġagre ements
Ġly ing
Î µ
Ġn avy
Ġun clear
ĠDem ocracy
ov al
'] ]
get own
act ic
Ġgame play
Eng land
ĠGrad uate
R PC
n ail
à¤¸ à¤µà¤°
Ġl on
ph oon
ron s
Ġliter ally
Ġsem ifinals
Ġ1 200
Ġprov en
ĠChar leston
189 2
job s
ĠPot ter
C ounty
eg ie
Ġà¤ĭ à¤Ĺ
ĠRom ans
orce ster
Ġà¤ľà¤¨ à¤¹
Ġqu arters
ĠP am
ĠL ima
pher d
he y
Ġs its
Ġsocial ist
p ng
Ġà¤Ĩ à¤ĩà¤¡
Ġal le
ust ain
Ex ample
ft ime
Ġwe igh
Ġbad ly
Ġnav igation
Ġf rig
Ġhabit ats
hard t
re cht
ĠF est
ĠZ agreb
Enc oder
ĠH ert
ĠNik ol
h ouses
t ok
om eter
ĠV ish
Ġcycl ists
ĠCre ative
Ġ" );
Ġteam mate
Ġcommand ing
at as
Ġvic inity
ĠB ash
Ġ13 5
Ġadopt ion
ĠDisc overy
C li
ĠP R
ĠH ond
vi ated
Ġlog ical
Ġgen res
Ġat oms
lo o
Ġshut down
, )
Ġs ends
Ġrec urring
Ã©t ico
ĠNapole on
it ary
Ġd iving
à¤¬ à¤¹à¤¨
ell es
ĠY emen
Ġstep ped
Organ ization
ĠSumm it
ĠBulld ogs
â Ķ
ĠDra ke
S V
à¤ķà¤° à¤¨
ĠS tern
The me
pon ed
Cl osed
ÃŃ s
upl icate
Ġad equ
or is
und efined
ĠSc ript
Ġcur r
Perm issions
ĠCop a
ĠB oot
ĠU TC
Ġend angered
ific ates
Ġà¤ıà¤ļ à¤¡
E ug
à¤® à¤¡
ĠTrib une
Ġinter active
Ġacadem ics
art e
get String
ĠEm irates
d ims
e ur
am ous
Ġh ol
ĠB ent
Ġr amp
over ed
Ġpay ing
ĠGuatem ala
Ġdis agre
udd in
Ġre print
ĠR id
Ġg astrop
à¤¸à¤® à¤Ŀ
ĠRock y
Ġdiscuss ions
ĠCoal ition
esc u
let cher
Ġadv ised
Ġtri angle
ĠH il
ee per
Ġsub stit
Ġdist ant
Ġprocess or
Ġterror ist
Vers ions
ĠR ules
ĠAnn ie
Ġly ric
PRE FIX
_ {
ĠW aters
Ġbi as
Ġquant ity
ĠConfig uration
ĠLeic ester
M os
Ġse al
Ġaut onomous
Ġsac red
FOR MAT
ĠL ed
ĠE y
ĠK aw
E SCO
ident ial
ĠBl u
Week ly
Ġpreced ing
à¤¦à¤° à¤²
Ġvirt ually
ĠKash mir
Ġà¤ª à¤²à¤ķ
ĠPr ussia
Ġcam eras
Ġbow l
Ġà¤ĩà¤®à¤° à¤ľ
lik ely
att y
ĠRab bi
Ġmemb rane
Ġ( #
z an
Ġm arri
Ġre ceptor
à¤¡ à¤«
aut hent
ph i
leg ate
ikh ail
Americ a
ĠI X
Ġg rain
te in
Ġmeasure ments
à¤Ī à¤¦
ĠD iana
Ġte lev
S i
ĠPr ide
TA G
art on
ili ation
Ġtra ff
charg ed
O d
osp ace
Gener ic
Ġrefere e
un ches
Ġrun way
Ġpo inter
k el
T LS
Ġà¤ħ à¤ł
ĠCow boys
oc es
Ġserv ants
Ġtrack ing
Ġsearch ing
Ġspons or
Ġl iver
ĠB attery
Ġrail ways
ĠCub s
Roman ian
Ġrenov ated
Ġinnov ative
Ġf ake
Ġ2 20
ĠP ione
ĠF erry
ĠJul ius
re ach
Ġst amp
ĠUn known
ĠWrit ten
I E
K al
ĠHug o
ray ed
Ġà¤¬à¤¦à¤² à¤ķà¤°
Gener ate
L i
l ibrary
Ġm apped
Ġà¤Ĩ à¤ĵ
'] (
ĠWal sh
Ġhar ass
({ '
c ost
er ial
ĠT arget
ĠN iel
ĠO thers
ĠExp ression
Ġm ad
ĠP ag
ĠSing er
ĠB ec
ĠI ST
Ġdepict s
od ium
ĠG av
ort ed
sc ribed
Ġfl ora
Ġlog s
Ġterm inated
Ġpoor ly
atern al
c wd
ip el
Ġcomp ression
ĠPh arm
F il
or ator
ĠS ed
Ġbe an
A BLE
D rop
D istance
al us
Ġc ens
ĠG reatest
Ġsl opes
ĠCrit ics
h ang
ĠA uth
ĠM are
und ers
Ġ12 7
ĠWrit er
Ġwithdraw al
Ġà¤¸ à¤¨à¤°
ĠR oh
ĠK ind
Ġindex es
ĠMal colm
Ġphys ically
Ġgrand mother
Ġà¤Ĩà¤° à¤ľ
match er
Ġmeas uring
Ġexhib its
cles iast
Ġ" --
Ġare n
Ġup set
ĠMax well
- '
ep ing
De ployment
188 5
ä º
(' <
ĠPro tocol
HEAD ER
Ġviol ation
Ġà¤Ĩ à¤¯à¤°à¤²
ĠF alk
yl an
Ġthread s
i ad
ĠH MS
ĠG ates
ĠAnn iversary
Ġoverw hel
R ace
u um
Ġst rain
Ġ" ...
qu it
get Resource
Ġnew er
Ġcomp anion
Ġret ire
ĠBrown s
ĠP s
w ave
ar re
am bo
à¤¹à¤° à¤²
Mon itor
H ub
ĠMar qu
Ġleg ally
ced es
Ġto uc
à¤Ń à¤¤
Ã¨ ne
ĠTel ugu
g ren
ĠMar ri
Ġfound ations
Ġinvestig ated
anth a
st a
Ġc m
ĠD oll
ĠInd igenous
Ġhost name
Ġten or
Ġpoll ution
Ġcons umers
us age
ex ternal
erv ille
Ġinter vals
uche ss
Ġs ou
add le
Ġav ailability
ĠGre ene
ĠAst ron
ĠVis ual
ĠLis bon
Ġphysic ist
Ġunve iled
S ri
d ad
Ġp ixel
Ġpar ad
x ff
à¤ª à¤ľ
Cont ains
ĠBo at
Ġprohib ited
m ass
Ġc rack
ĠCh uck
ĠEp isode
r ators
Ġbox es
Ġpen insula
ĠIter ator
ĠS ara
Se q
ĠLat via
Ġfort ress
ĠVict ory
S creen
l b
or ian
ĠR ig
Ġland mark
request s
Ġep ic
Ġrev ived
Ġtrans actions
lock ed
Ġreal m
ĠPap ua
ĠAntar ctica
og e
Ġcomp ile
Belg ian
Ġm ild
ĠT ruth
ĠJ ur
ĠJohn s
B ag
Ã ²
à¤ª à¤ķà¤°
ĠV it
man ifest
Ġ7 50
led on
C ra
Ġà¤ķ à¤¤à¤°
Ġd y
Ġm b
Ġl over
ĠB ast
ĠL ap
get Field
olog ne
ĠField s
b red
Ê »
ĠT ex
à¤ĩ à¤Łà¤²
Ġpre val
Ġpre ference
Ġsub div
ĠCl aire
Ġ12 4
lim ited
ĠChem ical
F ail
th ird
Ġsur pass
Ġagre es
Ġinvent or
ĠX ia
' \
Ġà¤ı à¤ıà¤¨
ĠF ant
act ivated
ĠCon stitutional
Har vard
f bb
Ġexpress ions
ro ft
v ian
ar ance
Ġsh rub
reg istered
Ġcap ability
ĠProv idence
AA F
ĠGard ner
ĠChap man
w y
Ġfilm maker
Ġrefer enced
Ġundert aken
ĠB j
Ġem it
ĠJo el
ch art
Ġr ings
ks and
ĠNew man
ĠArg ument
Ġhom osex
Ġsuperv ision
pe x
Ġmar ble
Jos Ã©
B rad
th ere
ill iant
ĠMar cel
ĠPro ducer
ank ar
CH E
ĠV all
189 1
Ġ' __
ĠEuro vision
Lo op
sq rt
ĠR O
Ġsc ar
Ġfavor able
Ġcir cles
Ġconv oy
ĠInit i
ĠH ousing
over ride
Ġl ac
im ar
à¤ħ à¤Ĺ
Ġtour ists
ĠDrag ons
Portug uese
F inn
H R
ig uous
O PTION
à¤ķ à¤«
Ġs or
Ġoff ense
uff le
Ġconsider ably
j ani
en um
Ġmos que
el in
ha o
Ġlo ader
Ġrecre ational
Ġdist ances
ĠRaj a
Ġinn ovation
ĠFergus on
ex per
arri e
Ġpromot ional
Ġinstruct or
m ust
ĠSh erman
Ch urches
ĠPrim era
ĠR BI
Ġ11 4
Ġdim in
ĠBor is
ce iver
ĠĠĠĠĠĠĠĠĠĠĠĠĠĠĠĠĠĠĠĠĠĠĠĠĠĠĠĠĠĠĠĠ ĠĠĠĠĠĠĠĠĠ
Ġwh atever
Ġ! "
Ġup ris
18 80
et z
Ġ$ {
Ġpol o
see k
> ',
à¤ľ à¤¤à¤¨
ĠT ank
ad m
ĠThe odore
Ġrep airs
Â ½
ĠE isen
ary a
ne ed
arn a
Ġsustain able
Ġà¤ĩ à¤°à¤«
em ia
ib an
Ġarg ue
Ġarch ives
Ġhum or
ĠTrin idad
Ġà¤ĩà¤¨ à¤ª
Ã¡ lez
de leted
ĠCor por
find er
ĠCraw ford
ĠA th
Ġ// $
Ġsw ing
P D
n ian
ĠS ind
ĠS ikh
Ġn urse
à¤· à¤°à¤£
ĠE C
ew ise
target s
B its
Ġà¤® à¤²à¤¯
à¤¬ à¤Ĺ
ĠG ymn
ĠE b
row span
Ġqu adr
ĠEr nst
ĠBuddh ism
à¤ĩ à¤§à¤°
ee le
Pro t
Ġ12 3
itt ers
Ġpay ments
Ã¨ res
p resident
ĠCh op
à¤ĵ à¤ķ
Ġant iqu
189 3
( ",
Ġap olog
An na
Ġb le
ĠT ru
Ġà¤ļ à¤Łà¤ķ
St re
Pri ority
H older
ĠC URLOPT
Ġaccount ing
à¤Ĳ à¤ª
ĠSebast ian
if ference
ĠL ep
25 5
CA F
Chang es
ĠE D
ob serv
cont act
l arge
ĠS V
om bo
Ġfact ories
establ ished
ra ps
ĠPan thers
d k
ĠM oss
ce ae
up dater
ĠAr n
Ġquestion ed
Ġancest ors
fl ix
esc ue
Ġhot els
Ġscript s
ott ing
Ð ±
Ġb ills
ct rine
Ġ18 34
ĠInd ividual
12 5
ĠRed s
Ġinvestig ations
ĠWin ston
Ġprem ises
ĠTit ans
> \
ĠL ore
ĠAut om
ĠMic he
Ġdisput ed
Ġcust ody
C op
ĠW ander
comp oser
Ne ill
ĠLo op
ass ets
ss h
Ã¡ l
Ġillust rations
Ġsk ating
Ġmater nal
entry Set
Second s
R ural
sh ine
comp et
sl ot
ĠOs aka
ĠGriff ith
ĠMonteneg ro
Ġl oved
à¤¾ /
à¤ĩ à¤ļ
18 0
ĠSof ia
Ï ĥ
re view
ĠP itt
Ġ18 15
Con straint
Ġmay be
ĠGre ens
Ġvulner able
Ġt ension
ĠJud a
Mult iple
S ummer
ĠL ives
Ġlar vae
] ->
à¤¸ à¤¶
à¤ª à¤¢
pt a
ĠCl aude
B ay
B oot
Ġd inner
ĠReg ulations
isc hen
Sil ver
z ens
à¤ķ à¤Ĩà¤īà¤Ł
el ic
à¤· à¤¨
ĠD ud
Ġar ist
back up
Ġbr ut
Dec oder
Ġ"/ "
b ounds
Ġo ak
Ġin cl
Ġac claimed
Ġfin ite
Dec imal
ĠC ounsel
ĠH ast
Ġst abil
W ay
ĠD re
Ġr ider
Ġflo ating
Med ical
k top
à¤ł à¤¶
io x
Ġgu ess
ici ary
Ġfacilit ate
Ġg ates
Ġge ographical
Del ay
ĠThom son
Ġk ids
Ġag gressive
à¤°à¤¨ à¤ª
Ġdig it
ĠBet ty
ĠBalt ic
Ġinsert ed
Ġpropag anda
U B
Î »
Ġc s
ĠT error
Ġsc attered
à¤ıà¤¸ à¤¡
itor ium
filter ed
ĠRel igion
Ġaband on
Ġextract ed
look ing
Stack Trace
Ġf ights
ĠH appy
Ġà¤ħà¤¸ à¤¦
Ġdet ective
Ġpand as
à¤ı à¤¶
Part icip
Ġrecon naissance
Municipal ities
Ġà¤ķ à¤«
ol utions
Ġpre t
Ġtr adem
12 8
Bul g
in z
Ġà¤°à¤ĸ à¤°à¤ĸ
Ġserv ers
Ġhealth care
ĠMos es
Ġà¤Ĩà¤Ī à¤ľ
ĠCole man
Ġà¤¶ à¤¹à¤¨
ĠN orton
ort e
Ġem issions
ank a
Ġplan es
Ġà¤¦à¤¹ à¤¶à¤¤
ĠJerem y
ĠDor othy
V ariables
ĠN ut
ĠLet ter
P tr
Ġh params
vi k
ĠQu int
Ġà¤¸à¤®à¤Ŀ à¤¦
Ġpen et
Ġm ature
à¤§ à¤²
Ġher b
ĉĉĉĉ ĉĉĉĉ
ĠMore over
U C
ĠW id
vers ation
Ser ge
ĠBur ma
ÃŁ e
Ġsect ors
ad ic
ĠM k
Ġproject ed
Ġqual ifier
Ġp ine
ig u
Ġtw entieth
H M
Ġsub stance
ĠRec re
Ġequ ations
Ġs aint
ĠL ob
ri ka
art ime
à¤ľà¤¨ à¤¯
ĠJo urney
Mar ia
ĠKenn y
Ġpurs uit
' }
ĠH ook
à¤Łà¤° à¤®
Ġob s
Ġhealth y
J ay
ul ing
est e
ĠHaw ks
Ġdeleg ates
Ġoverl ap
d ocker
h of
ĠSt rait
ĠHein rich
Ġas ide
Ġover write
udd y
inst ein
Ġmechan ics
Ġcontact s
ĠKos ovo
à¤®à¤¨ à¤Ĺà¤°
ĠØ ¨
ĠWed nesday
P F
Ġà¤ı à¤¤
à¤ĸ à¤Ł
Ġtrain er
' ",
ĠI R
Ġch an
l ists
ĠF iles
Ġà¤ĸ à¤Ĺ
est ock
omin ated
Ġmir ror
H eat
Ġhuman ity
fr ames
ĠW i
af a
Ġspons orship
ĠF ur
Ġà¤ıà¤ķ à¤¨
rit ic
(' #
ĠSh im
Ġtransl ate
Ignore Case
ĠR he
ow itz
uc c
out il
Ġà¤ıà¤® à¤ı
Ġped est
} {
se ctions
ash ing
Ġtra iling
Ġacc idents
T urn
ĠE aster
Un supported
Ġchrom os
T ables
Ġà¤² à¤ļ
ĠT ell
Ġfl ush
Ġfin anc
ĠBel le
J A
ud i
Res et
Ġep och
Ġten ant
Ġcertain ly
ĠPr incip
à¤Ĩà¤° à¤Ł
à¥¨ à¥¨
Ġobt aining
k le
n is
ĠM ini
red is
Ed itor
Ġsuburb s
ĠHels inki
K am
Ġnatural ly
Transl ation
Ġmamm als
b rowser
Å ¼
Ġsup press
Ġ" :
cl ick
Ġinter ven
Ġsub process
ĠTe h
ĠSup erman
Ġconfig ure
Pr ime
Ġsal ary
Ġenter prise
G uest
à¤° à¤¡
it ivity
ĠK ok
Ġj ur
Ġprim itive
ĠBoy d
ecess ary
sim ple
Ġpod cast
Up dated
t ls
Ġf usion
Ġb ot
ĠP ain
ab is
ab ella
Ġde ceased
Ġpast or
Pat rick
Ġcat aly
atern ity
og ene
ĠPri est
Ġincomp lete
H an
à¤ł à¤°
ĠGust av
à¤¨ à¤ªà¤°
Ġto b
Ġf us
am ination
ram id
ĠJul ie
ĠF iji
up p
Re ason
the l
ĠBut ter
Ġplant ed
Ġbomb s
Ġ ])
ul in
og h
ys ics
ĠBe ing
Ġbar on
à¤Ł à¤¯
ĠG ross
ellig ent
ĠDou g
ĠBi ology
he alth
al one
Ġm es
Ġm esh
ĠC ay
Ġinter rupted
ĠHer oes
ĠUlt imate
are nd
ĠA ce
ĠM ets
Ġst mt
ĠN ou
Ġdep ot
Ġmem oir
ĠS plit
Ġport al
qual ified
Ġt ickets
Ġb ones
Ġem igrated
Dispatch er
G T
l ord
th al
Ġà¤®à¤¹ à¤®
ĠArg uments
L inks
ĠGu adal
Att achment
Ġdig its
Ġsynt ax
N ight
ĠS F
Ġv ectors
ran ger
Ġapp lying
Ġequ ity
188 6
hor se
I B
ĠCh amp
ty mology
ĠBl air
ur red
ĠG ospel
Ġlim estone
Vis ible
U D
Ġdirect ing
188 8
Ġhighlight ed
P lease
ĠM emory
ĠY uan
Ġdem o
Ã¸ r
ĠAppe als
at en
ĠN u
ĠN ass
Ġ' &
ST AR
ĠAdd ress
Ġhar sh
ĠPatri ots
Ġc ere
ll i
à¥¬ à¥¦
ĠData Frame
à¤µ à¤µà¤°
ĠAr ist
Exp ress
ĠDE FAULT
Ġprox imity
ĠW on
Ġcon ceived
che l
Ġactiv ation
Ġmolec ules
: ])
p adding
ĠT D
ĠD uck
ĠN uclear
à¤ħ à¤Ĺà¤²
app s
Ġsing ular
Ġprevent ing
Ġd ys
ĠH utch
elf th
ak ala
Ġsuccess ive
ĠSim ilarly
ĠGaz ette
ian i
cur r
Ġtherm al
mark er
nd im
Ġm ills
Ġcould n
RE S
Ġdiagn osed
if iable
ĠN ull
ĠO K
Ġworks hop
it ated
ic ol
ĠM ant
à¤« à¤¤
Run ner
g iven
ion ed
om ination
Ġsampl ing
" '
Ġcl ip
ide a
RE D
Ġorder ing
Ab out
Ġfeed ing
ĠC ounter
à¤¥ à¤¯
load ing
Ġadv ocated
oc ide
à¤¤à¤¨ à¤ª
att rib
Ġà¤ľà¤¨ à¤°
add itional
Ġbro ker
RE G
Ġiniti atives
osc ope
ĠB io
Ġinv itation
ĠEd win
Ġimp ression
am oto
ĠM ick
. %
Ġ18 33
Ġpe ers
T el
__ .
189 4
Ġmill ions
Ġbutter fly
Ġab olition
Ġless er
Ġrank ings
Ã¢ te
Ġancest or
Ġl aser
Ġe ating
Ġrec ursive
olec ular
cover ed
ĠChen nai
Ġe uro
ĠY osh
Ġtr ucks
ĠAnd rea
Ġpregn ancy
ĠS ale
ĠAp ollo
Ġdestroy er
n m
Ġp lease
Ġà¤Ĩ à¤¡à¤µ
Ġswim mer
ĠStre ets
Ġexha ust
T ai
ab h
ĠMad ras
Ġsen ator
tim er
Ġresc ued
Ġsynthes is
ĠT at
Ġcontract ed
ĠAv iv
Ġenh anced
st yles
od on
Ġwitness es
Ġcrown ed
ĠBeat les
ount ers
Ġà¤¬à¤² à¤°
arth y
Ġ' ?
og rap
ĠHigh land
Ġvol cano
ĠTreas ury
Q uest
ĠWe i
Ġdemonstr ate
ĠGriff in
ĠGuj arat
N eg
Ġf ut
ĠT ah
ĠR FC
Ġv ig
Ġlist ening
Ġvol tage
Ġcycl one
ĠSpeed way
WAR NING
ĠD ict
Phil ipp
E gypt
ĠV iscount
ĠKu wait
% ).
Ġb ush
Ġd Ã©
ĠR andom
att achment
ĠZ ion
Ġneg ot
render er
Ġ umb
Ġs ulf
ĠB ess
ĠRe in
ius eppe
Writ ing
Ġconsist ently
Ġpil grim
Ġrecommend ations
Ġv ib
get Node
Ġcre am
Ġgradu ates
ĠHe y
Ġout lets
oz o
ĠGar cia
Ġorche str
m and
Ġd ressed
.. /
Ġsup ern
ĠAp plied
ĠOri ental
h it
Ġb arrier
aw ar
Ġsub urban
publ ish
ĠAdv ance
Ġcruc ial
Ġà¤Ĩ à¤ĩà¤¯
Ġnational ist
Ġincre ment
Ġcoll ision
Ġà¤°à¤£ à¤ľ
Ġcycl ist
V N
od el
cl amation
An ne
User name
Ġbatter ies
Ġ à°
Ġch assis
Ġsc orer
air d
Ġfl ute
Ġsee ks
Ġvac ant
ĠJen kins
Ġà¤ıà¤¨ à¤ıà¤ļ
Ġcoordin ator
ĠLead ership
Mic hel
W T
ag ogue
Ġplace ment
Ġreb el
ĠCount ies
à¤Ń à¤®
Ġk iss
ged y
LO B
Ġdemonstr ation
ug ment
Ã¶ m
Ġtro phy
Ġbox ers
ĠL on
ĠSt rat
ch r
Ġsc alar
DO M
J es
Ñ Ĩ
uc ci
(', ',
t v
à¤¼ à¥¤
ĠP ine
ĠDub ai
ĠNeg ro
or ic
ĠSt a
Ġund ers
ĠTour ism
ĠJoh an
c annot
und o
Ġam id
Ġtrump et
F er
Al gorithm
ĠOpt ion
Ð ³
if inal
ĠD uchy
Sp an
Ġexam ined
p ark
le ading
Ġà¤ķà¤° à¤¦
qu ality
cept ors
Ġvol canic
ĠToy ota
pon ym
Ġarg uing
Ġsk iers
Ġeconom ist
Ġauth ored
Ġknock ed
il on
ĠK yle
Ġà¤ľà¤¨ à¤¨
Atl antic
l io
ev iÄĩ
ub ble
Ã³ pez
Ġdeter ior
ĠC yp
ĠL ines
Ġeight een
Content Type
ĠS leep
ĠD ock
Ġacc us
ĠAugust us
ham pton
ĠStat istical
ab ar
ĠJ ake
LO CK
ĠTerm inal
ĠMaur it
sc hedule
Ġing red
U ST
b ours
get Query
vis it
occ up
Ġt urre
Ġa rose
Ġ" $
ath ing
ĠV eh
Reg ex
an ese
Ġdon ations
A ncient
Ġà¤ī à¤¬à¤°
Ġà¤Ĺ à¤¶
ant ity
ĠMon ter
ĠGonz Ã¡lez
E tymology
t p
Ġ18 31
Ġà¤®à¤¨ à¤°
ĠBuck ingham
ĠTra ce
F inals
s chool
ĠSpec ies
ĠJes se
ĠAberde en
Ġf ed
Ġà¤ı à¤¨à¤ķ
Ġkn ight
ĠNA SCAR
r ific
char acter
c ole
Rev ision
al ong
Ġdupl icate
Ġmerch ants
T ro
ig m
ip linary
old s
function s
ĠLouis ville
= ',
K ent
M as
Ġc ass
Ġst air
Ġdestroy ing
Ne il
ĠM ats
ĠMar co
Ġtr uly
Ġtra iler
à¤Ĩà¤° à¤ıà¤¸
ĠC e
new s
= _
W inner
Ġb is
ass ic
rec ursive
Sup ported
Ġveter ans
e er
f ar
ĠL af
Ġce iling
LOG GER
T asks
log s
It aly
ĠHard y
Ġpron ounced
olith ic
S ent
tt i
Ġob vious
AT T
Ġ24 0
ĠAp art
Ġfact s
Ġaccompany ing
Ġh ierarchy
ĠG lor
ri ot
Ġr ises
Ex ecute
Public Key
Ġdescend ant
Ġà¤ķ à¤ľ
à¥Ģà¥¤ "
ĠInd oor
ven ile
{} '.
Stud io
ind ers
rib le
Ã¼ ck
Ġbound ed
Ġneigh bors
ethe less
ĠA ra
Ġcont rolling
ĠBad en
ĠMar athon
à¥¨ à¥ª
L ady
à¤¤à¤¨ à¤®
asc ii
F actor
à¤¶ à¤²à¤¤
ĠL ing
ĠTh ursday
ME SSAGE
Ġcompos ite
dest roy
Ġtact ics
Ġà¤ľ à¤²à¤¤
Ġd ent
and an
ĠCatal ina
Ġs uffer
ĠV augh
188 7
Ġcompris ed
ath lon
Ġlin er
sp ring
Ġpolit ically
ĠQu artet
ĠOl iv
ĠElect ronic
à¤¸ à¤¬à¤°
ĠSant o
Ġtoler ance
H ill
ĠF loyd
Ġorgan ize
Sc ot
Ġcontinu ously
clesiast ical
Ġs i
à¤ı à¤Ī
th y
Ġà¤Ĩ à¤ĩà¤Łà¤®
ĠR ip
Ġra ids
Dial og
ĠH uss
pro ducer
Ġam pl
Ġ11 6
ĠSw ift
gu ard
CF G
ĠConstantin ople
f ragment
w ire
Ġà¤ĺ à¤®
Ġir rig
Ġancest ry
J uan
] []
Ġà¤Ĩ à¤¯à¤°à¤¨
ĠTit le
Ġschem es
H op
i pt
Ġà¤ī à¤ķà¤¸
ĠR F
iss ued
ĠTor res
Ġcerem onies
Ġreli able
n ered
Ġà¤ľ à¤¸à¤ª
à¤Ĩ à¤ĸ
Ġpol yn
Com ponents
Ġdeg rad
ĠÐ ¸
ĠÅ ½
**** ****
w on
ĠP all
Ġcon ce
str tolower
ĠHam mer
Ġà¤ĺà¤Ł à¤ķà¤°
Ġdisput es
g row
ĠH ew
ĠDr ug
Gate way
> </
Ġà¤ķ à¤Łà¤°
Ġg ov
em er
Ġ16 00
Ġsurre ndered
L ew
ĠC areer
ĠI L
ĠN H
Ġcomp ress
ĠSac ramento
in ar
ĠT ul
im eter
pl iance
Ġphys icians
Ġhum id
ĠStef an
ack er
Ġsm oke
Im ages
ĠSub sequently
ĠDet ective
ĠSic ily
Ġenroll ment
ĠP ale
ull a
)) {
Ġrect angular
/ -
z burg
ing ers
Ġb arn
Ġm ud
Ġà¤ļ à¤ļ
pl er
ind ed
Ġcol s
ĠSte phan
cut ta
aceut ical
um ann
ov y
ĠCert ificate
Ġà¤ª à¤Łà¤ķ
ĠM IT
Ġt ap
Ġj e
inn ings
Ġdec ree
Ġsim ulation
Ġemb arked
ĠTol edo
d ong
t ile
Ġcom plicated
Ġ18 25
B illy
j ay
ic ul
ĠU CLA
ph ase
Ġthrow ing
Ġspe aks
à¤²à¤Ĺ à¤Ńà¤Ĺ
Ġclimb ing
Ġd il
Ġint act
Ġall ied
ĠSy racuse
ĠCamb odia
ĠMÄģ ori
Ġà¤ħ à¤µà¤¨
id ia
ĠB row
Ġà¤ĸ à¤¯
Ġcomp iler
Debug f
B all
Ġà¤® à¤°à¤¤
fl ight
Ġcler k
ĠInvest ment
Å ĳ
Ġpl ugins
10 5
ĠVolunte er
Ġà¤ªà¤¹ à¤°
Ġadm ission
Ġmem ories
à¤ľà¤® à¤¹à¤²
Mal ays
om ical
ĠK ens
à¤¸ à¤¨à¤ķ
ĠC and
ember g
anc o
ĠBer ry
P K
Ġl ens
18 70
Ġsent ences
Ġbatt ed
Ġproceed s
V O
Ġ ×
ĠF ol
ĠPh ase
M aur
r ors
Ġà¤ħ à¤Łà¤ķ
// //
Ġcan on
Ġeth n
ĠCec il
Ġcommerc ially
B h
Ð ¿
Ġun ited
L atin
à¤¯ à¤ľà¤¨
ĠR ally
Ġor phan
ĠSy m
SC R
Ġfrequ encies
Conn or
Decl aration
S B
Ġt ong
Ġp ension
Ġlo ose
Ġcancel ed
ĠSh am
Ġrespons ibilities
igg ins
h ole
w ang
Ġt une
ĠN ixon
ĠSch ol
Ġ Ñģ
Ġp el
ĠL Ã©
oc cer
Con flict
à¤®à¤ľ à¤¦
Ġtransc ript
got ten
G astrop
b rand
Ġin land
Ġin ches
ĠM orm
ĠD ors
ue b
Ġtra ces
Ġhigh lights
M obile
Ġl aps
ĠP ole
Ġ* =
ĠPl ain
gl ass
ĠB in
Al fred
.' /
ĠH M
ĠF ra
Ġcorrespond s
Ġw ishes
Ġf itness
sh ots
Ġpe aks
Ġapart ments
b age
ĠW orcester
ine es
Ġbl ast
Sc ient
Ġu id
R om
ber ra
ĠPhil harm
Ġvol untary
Ġcorrespond ence
Ġelim ination
U SE
ĠC osm
ĠB ren
à¤ĩ à¤¨à¤ķ
ure a
her o
war f
Ġelder ly
v ine
Ġ1 19
ĠI C
cl iffe
Ġbas ement
Ġcommission er
ĠRecord ings
ac io
cl ock
Ġtra ils
ĠNic ol
Ġm aj
Ġnot ify
Ġi Phone
Ġdi agram
L R
Ġnum eric
enes is
ĠBeg inning
nt y
ĠAl ps
cont ract
Ġam endment
ales e
Ġport folio
ĠMax im
be h
P ur
ĠK um
ĠAnd hra
y am
ĠC ash
Ex port
ĠMy stery
Ġsepar ator
po inter
ar h
ĠWh y
Ġmiss iles
Com puter
Act resses
Ġclean up
Ġdial og
Ġelim inate
Ġà¤ľ à¤¦
ĠS uk
ĠM ilit
Ġprop ri
Ġbig ger
à¥į à¤¾
Ġà¤¹ à¤°à¤®
Ġin coming
eg u
Ġdef unct
Ġdevelop s
Pr incipal
R AN
Ġ à¦
Ġc ryst
ĠL ub
ĠL uck
tt l
Ġexpl ored
ĠBel t
K at
ĠF en
Ġrel ie
On line
Ġlong time
G iven
Ġ12 6
ĠCzechoslov akia
w ana
ĠA us
ĠM ald
ĠP iet
ĠR as
ogn ition
Academ ics
F ive
ĠS anskrit
rib ers
Ġcontest ant
Direct or
Ġt aste
Ġà¥ Ĳ
ĠĠĠĠĠĠĠĠĠĠĠĠĠĠĠĠĠĠĠĠĠĠĠĠĠĠĠĠĠĠĠĠ ĠĠĠĠĠĠĠĠĠĠ
irc raft
` )
Ø ©
an alysis
ir ling
ĠD iet
ĠJ ah
sh utdown
Ġdis hes
Ġoper as
clip se
f c
Ġtum or
P ush
Ġà¤Ń à¤¨
Ġan alys
ort ion
urs ively
Ġmedal ist
Ġtel esc
G rade
Ġst int
con duct
Ġà¤®à¤¦ à¤°à¤¸
Ġrub ber
ĠC T
od i
ĠTo o
gu y
ĠÄ °
y ar
ĠR Ã©
ĠW ikipedia
Ġsh apes
Ġpar ade
mat ched
ĠBh ut
ĠAssoci ated
AUT H
V AR
get Entity
pl ier
Ġun c
Ġper t
Ġà¤¸à¤° à¤²à¤¤
ograph s
Ġphilosoph ers
Ġunsuccess fully
> "
b id
at able
Ġb acks
ĠK ais
ant is
ph rase
Ġper f
trans fer
ĠE X
get Parameter
ĠPh oto
à¥© à¥¬
Ġà¤ķà¤µ à¤ļ
di ocese
e us
l t
Ġs am
Ġà¤« à¤¹à¤°
Pl us
ĠGl ac
ĠGovernor ate
Ġb lo
ĠD olph
ĠJam ie
j un
à¤¹ à¤ľà¤¹
ĠS iber
ĠW ire
ĠW ilm
Ġfl ux
the m
LI ST
W ords
set Value
Ġartif act
ĠEns ure
us hes
unn els
. ".
S ig
re ject
Ġn ights
are z
Ġprotect ing
Ġchalleng ing
ĠMong ol
à¥ĭ "
ĠF ri
ure n
att ice
der abad
ĠCarn egie
Ġconscious ness
à¤Ĺ à¤¹
Ġ" {}
Ġfore cast
Ġkeep s
Ġph ases
adh ya
J am
e conom
er cis
as ets
sc alar
ĠMoh ammad
ĠBeaut iful
ĠM E
Ġgen ome
Ġà¤¸à¤¡ à¤ķ
à¤ıà¤« à¤Ĩà¤Ī
ĠOffic ers
ograp hed
F ood
arri ers
ĠBre nt
Rel igious
ĠC ologne
ill i
get Logger
Ġà¤ľà¤¨ à¤®
With out
Ġpriv acy
================ ================
m art
ĠR iley
ok i
keep ing
T en
à¤¸ à¤¤à¤¨
ĠM orton
Al t
is ive
ĠC inem
ol ut
Ġ' ');
ey er
Ġbre w
Ġà¤¨à¤Ĺà¤° à¤ª
Hand lers
188 4
ĠRel igious
Ġd rown
Ġcons umed
ĠRaj asthan
Disc overy
Ġgastrop od
st re
Ġs pr
Ġnot ion
Ġ18 14
Ġcompar able
Ġgu ided
Ġhel per
rew s
sub mit
ĠBund esliga
A re
à¤ł à¤®
Ġdrop ping
Ġcop ied
ĠOrgan isation
strument al
c op
le ague
ab ases
Ġun ity
ĠY ii
Ġà¤Ĩà¤° à¤ıà¤¸à¤ıà¤¸
Ġsl ope
ĠSal em
B ol
à¥Ģ ',
Ġf iber
et ian
Ġunder go
ĠTe en
Ġbatt alions
ĠHawai ian
N ULL
ul k
Ġpro claimed
Ind ependent
Ġpublish ers
Ġplan ets
imb ledon
Ġcook ies
à¤¸ à¤Ĳà¤ª
Ġre ass
ĠDirect ory
Don nell
à¤ĳ à¤°
Ġl ady
Ġà¤Ĭ à¤¤à¤ķ
ĠEst abl
Ġnurs ing
r il
Ġf iscal
ĠD ag
Ġsn ail
l ayers
r ust
el age
con structor
les h
Ġcorrespond ent
Ġà¤ħ à¤ĺ
ĠC off
Ġcont rad
Ġsp atial
Rep ly
ĠNurs ing
Ġa us
ĠF letcher
ĠAss ert
Ġstop ping
m itt
Ġm i
ap or
Ġcogn itive
ab u
Ġi outil
ĠVern on
ÅĦ ski
orne o
Rog er
plot lib
Mer ge
à¤Ī à¤¶
ĠK end
Ġconstra int
C fg
U SS
Ġf ract
ch ard
ĠL ay
ĠSh an
ĠSuz uki
v re
ĠS W
Ġl as
ĠP arent
ty ped
Ind ust
ĠLaw s
Sam uel
iss on
Ġà¤ĺà¤Ł à¤¤
Ġec osystem
ter ms
ram s
Ġpresent ing
Ġil leg
Ġst er
ĠK olkata
() }
ĠCon st
Ġpos it
Ġvis itor
ĠFre eman
Ġlect ure
he ed
et us
Ġl ith
ĠAt hen
Ġmag net
init ialize
ĠTre nt
property Name
Ġrout ing
Museum s
ĠParagu ay
Ġrook ie
S ample
à¥Ī. ..
new Instance
ĠChar acter
ĠHol ly
Ð¾ ÑĢ
R NA
S ky
r ath
Ġs phere
Ġret rieved
ĠPar sons
ĠSch midt
UR CE
ros so
Ġpur ple
ĠKy iv
ĠH undred
à¤ĸ à¤²à¤¨
Ġch at
oph yll
ĠCa esar
Ġc sv
Ġb acter
ĠK ane
ool og
Ġacc redited
ĠUS S
ĠPop ulation
Ġstrip ped
squ are
Ġp av
id y
ĠG DP
Ġsecret ly
ant an
ĠSc andin
Sh ared
sub scription
ĠBeng ali
ĠExt ract
K a
m our
Ġp ag
à¤ļ à¤²à¤¨
ru z
ĠÅ Į
S ex
ow s
Ġà¤ħà¤µ à¤¯à¤µ
urg ical
Ġinf ant
abs olute
Ġcouncil s
Sk ip
ĠHale akala
T ar
y ards
as o
se in
Ġr ushing
ĠBro ck
Meta Data
F emale
L TER
Ġa u
se g
Ġsub family
ĠInter view
Ġfort une
F riend
t ip
ig nty
ĠG os
Ġsp elled
urre ction
à¤Ĩà¤° à¤ıà¤«
uj a
Ġfood s
Arch ae
ĠMalay alam
Ġaccept ance
Ġknock out
Ġelectron ics
V in
ĠD ixon
ort ex
co res
g ies
Ġà¤¸ à¤Ļ
Ġre opened
âĢ ĺ
ob e
Ġsp y
Ġcarri ers
Ġpreced ed
L ith
at isf
Ġ[ [
user Id
ĠIm pro
R ussia
_ (
Ġpart nered
ĠPr ussian
ĠCam eroon
P DO
y y
Ġà¤« à¤Łà¤ķ
Ġmet abol
utt gart
D omin
Ġ( -
el ius
id ian
get Service
In ner
Ðµ ÑĢ
ĠWeb b
Phil adelphia
an ium
à¤ıà¤¨ à¤ı
Ġreview er
s ock
à¤Ĩà¤° à¤¡
For ward
à¤¸ à¤°à¤¤
Ġb omber
For ce
Ġlo ans
Ġspace craft
er ialize
ĠC C
ĠR oma
Ġ10 24
n ets
Ġc and
Ġc ord
Ġdef ining
Ġpost poned
Ġmob il
b ay
(' .',
Ġsu ite
ĠC ave
Ġinter ference
Ad v
with out
Ġbar rel
ĠWhit ney
ĠPear son
ercis es
J ones
ew ater
jo ining
iz ational
Ind ones
ĠRes ort
ĠBron cos
cl osing
Ġ12 2
Ġlast ing
Ġtest imony
V iol
ĠI TV
Ġan arch
ins ki
ox y
Ġachie ving
s ender
à¤ķ à¤¯
aw k
Ġins urg
ĠSac red
ĠS EC
Ġsc reens
ugg ing
ĠSal on
SP ACE
ĠEconom y
Ġtrig gered
Ġf are
ise cond
ĠInter est
ĠInn ovation
å ħ
Ġà¤¹ à¤¬
Ġh ref
ĠH onda
erv ous
Christ opher
M ig
en ko
ar row
Ġc p
ĠA G
ow o
ĠSt orage
ud s
Cl ick
ĠBo oth
Ġjud gment
Ġlic ence
ach al
Com mercial
Ġknow ing
resh ape
Ġcomplex ity
Ġpromin ence
Sep arator
Architect ure
are l
ĠEx eter
Man ifest
be it
Ġcomb ining
Ġpeace ful
Ġphilosoph ical
Ġstrict ly
Ġhect ares
] ).
A BC
Ġb ail
est ead
Ġch im
Ġsp ite
Ġdirect ories
AT ED
Rep o
t ec
Ġal pine
com be
append Child
Ġwhe at
Ġaud ition
y i
Ġb alls
Ġintro ducing
ĠUnder ground
h ydro
Ġin quiry
ĠS cheme
ul ance
ĠSk ip
Ġtim er
Ðµ Ð½
Ġà¤Ĩà¤¬ à¤ķ
om ers
ĠSt rip
Ġopen ly
Bar b
Ġposthum ously
n itro
ĠG ott
El izabeth
custom er
Ġelabor ate
Ġp enn
ĠS ent
ral tar
Rout es
Ġp k
Ġad min
Ġneighborhood s
ĠMey er
ĠDI RECTORY
Ġcatal ogue
Ġ18 28
Ġà¥ª à¥¦
Ġhar bour
ĠSupport ing
Ġenact ed
B ow
R outer
in ent
ĠT oul
à¥¨ à¥«
Sp ain
ĠLink ed
s napshot
Ġsub s
ĠLe Ã³n
Ġà¤ªà¤Ł à¤µ
(? :
ĠParad ise
à¤¬ à¤¢
ĠAr r
Ġover view
Ġbl acks
ĠCar bon
aint ed
ĠSuper intendent
und les
ĠY ard
Ġobject ives
ĠCast ro
Sm all
Ġrein force
Ġendors ed
Ġto ugh
Ġhand lers
Ġinvest ed
TE S
Ġreflect s
> )
G ab
J ackson
P en
à¤ı à¤¸à¤ķ
Ġg est
Ġeduc ators
Ġd orm
ĠR ider
ĠSh ri
index es
ĠTerr itorial
ĠJess ica
Î ¼
ĠR ag
ob y
ib ald
by e
Ġà¤ıà¤¸ à¤¬
Ġcert ification
Ġbelie ving
ĠC rom
con nections
16 0
E A
l ov
Ġde alt
ĠGeor ges
hes is
Ġview ing
Ġrelig ions
Ġcomput ed
Ġrad i
à¤¹ à¤«
Ġun likely
Ġlater al
Ġ\ "
Ġcompl aints
Ġlift ed
T ake
st rict
ĠG ov
ĠE lections
ib ia
Ġsp elling
author ized
ĠDyn amo
Ġscen ario
Ġarbit rary
ĠJuda ism
S und
ut z
ĠD rew
ĠD erek
ĠCh urches
ĠEl is
f uture
à¤¶ à¤ķà¤°
Ġgroup ed
ĠBer gen
Ġà¤ıà¤¨ à¤ľ
Ġadvoc acy
get File
'] ),
ĠBar rett
CA CHE
Ġautom obile
Ġeval u
Ġs ock
Ġà¤µ à¤ļ
ĠM VP
Ġ17 5
Ġmod est
ĠBer ks
Ġconv iction
Ġcook ing
ĠBrun o
in x
ĠC ret
Ġal arm
Ġ% (
yn a
ĠAlex andra
ĠMo or
Ġcru ise
Ġind ie
erman ent
ĠInc umbent
Ġstrugg les
Ġurg ed
ĠKle in
an ions
asc ular
ĠHam pton
Ġbicy cle
Ġ" (
res c
Ġà¤ıà¤¨ à¤Ł
ĠColomb ian
Ġtob acco
I an
å ®
iv ot
Ġst arter
qu ire
Flor ida
O ffic
Ġre ly
Ġà¤¤ à¤ľ
ĠF ear
ind ra
c ould
f und
Ġà¤° à¤Ĺ
ĠS ev
TA BLE
Render er
Ġse cre
con stants
ĠRoad s
cons umer
d h
Ġo re
it ational
ĠC el
Ġover come
ĠIs abel
Ġcar b
Ġcost ume
Ġlat itude
ĠIss ue
E ven
_ '
n able
Ġc ivic
om ore
ĠH ours
ĠJ ing
ĠV atic
ĠWeb ster
b uff
Ġcrew s
author ization
, ,
f act
g uez
ec hes
set opt
Cont act
Ġmet aph
40 4
Ġà¤ªà¤¨ à¤¡
Ġski ing
et i
ĠB le
Ġth umb
ĠD ee
ge ometry
ey lon
Ġadv ancing
Ġà¤ıà¤² à¤Īà¤¡
Ġvers es
Ext ensions
ĠDar win
Ġrecre ation
ad vant
ĠB ac
Ġ[ ...]
Ġloc ate
Ġmod ification
SE C
Ġcomment ator
ĠPow ers
as ive
Ġ18 21
Ġam algam
ĠF ashion
Ġà¤ĸà¤° à¤Ĺ
Ġorgan isms
ls en
Ġsal v
Ġisol ation
neg ative
Ġremark able
ĠLeop old
es que
ĠD art
Ġ17 75
Ab d
Ġcard inal
Cur rency
ĠTunis ia
? ?
T re
t ot
ist on
Ġaux iliary
G ram
at an
ĠSt ro
Ġsur veillance
Ġmet eor
John ny
H ere
ĠA TP
ĠT uesday
[...]
