{"<|endoftext|>":0,"!":1,"\"":2,"#":3,"$":4,"%":5,"&":6,"'":7,"(":8,")":9,"*":10,"+":11,",":12,"-":13,".":14,"/":15,"0":16,"1":17,"2":18,"3":19,"4":20,"5":21,"6":22,"7":23,"8":24,"9":25,":":26,";":27,"<":28,"=":29,">":30,"?":31,"@":32,"A":33,"B":34,"C":35,"D":36,"E":37,"F":38,"G":39,"H":40,"I":41,"J":42,"K":43,"L":44,"M":45,"N":46,"O":47,"P":48,"Q":49,"R":50,"S":51,"T":52,"U":53,"V":54,"W":55,"X":56,"Y":57,"Z":58,"[":59,"\\":60,"]":61,"^":62,"_":63,"`":64,"a":65,"b":66,"c":67,"d":68,"e":69,"f":70,"g":71,"h":72,"i":73,"j":74,"k":75,"l":76,"m":77,"n":78,"o":79,"p":80,"q":81,"r":82,"s":83,"t":84,"u":85,"v":86,"w":87,"x":88,"y":89,"z":90,"{":91,"|":92,"}":93,"~":94,"¡":95,"¢":96,"£":97,"¤":98,"¥":99,"¦":100,"§":101,"¨":102,"©":103,"ª":104,"«":105,"¬":106,"®":107,"¯":108,"°":109,"±":110,"²":111,"³":112,"´":113,"µ":114,"¶":115,"·":116,"¸":117,"¹":118,"º":119,"»":120,"¼":121,"½":122,"¾":123,"¿":124,"À":125,"Á":126,"Â":127,"Ã":128,"Ä":129,"Å":130,"Æ":131,"Ç":132,"È":133,"É":134,"Ê":135,"Ë":136,"Ì":137,"Í":138,"Î":139,"Ï":140,"Ð":141,"Ñ":142,"Ò":143,"Ó":144,"Ô":145,"Õ":146,"Ö":147,"×":148,"Ø":149,"Ù":150,"Ú":151,"Û":152,"Ü":153,"Ý":154,"Þ":155,"ß":156,"à":157,"á":158,"â":159,"ã":160,"ä":161,"å":162,"æ":163,"ç":164,"è":165,"é":166,"ê":167,"ë":168,"ì":169,"í":170,"î":171,"ï":172,"ð":173,"ñ":174,"ò":175,"ó":176,"ô":177,"õ":178,"ö":179,"÷":180,"ø":181,"ù":182,"ú":183,"û":184,"ü":185,"ý":186,"þ":187,"ÿ":188,"Ā":189,"ā":190,"Ă":191,"ă":192,"Ą":193,"ą":194,"Ć":195,"ć":196,"Ĉ":197,"ĉ":198,"Ċ":199,"ċ":200,"Č":201,"č":202,"Ď":203,"ď":204,"Đ":205,"đ":206,"Ē":207,"ē":208,"Ĕ":209,"ĕ":210,"Ė":211,"ė":212,"Ę":213,"ę":214,"Ě":215,"ě":216,"Ĝ":217,"ĝ":218,"Ğ":219,"ğ":220,"Ġ":221,"ġ":222,"Ģ":223,"ģ":224,"Ĥ":225,"ĥ":226,"Ħ":227,"ħ":228,"Ĩ":229,"ĩ":230,"Ī":231,"ī":232,"Ĭ":233,"ĭ":234,"Į":235,"į":236,"İ":237,"ı":238,"Ĳ":239,"ĳ":240,"Ĵ":241,"ĵ":242,"Ķ":243,"ķ":244,"ĸ":245,"Ĺ":246,"ĺ":247,"Ļ":248,"ļ":249,"Ľ":250,"ľ":251,"Ŀ":252,"ŀ":253,"Ł":254,"ł":255,"Ń":256,"à¤":257,"Ġà¤":258,"à¥":259,"ĠĠ":260,"à¤¾":261,"à¥ĩ":262,"à¤°":263,"à¥į":264,"Ġà¤ķ":265,"à¤¿":266,"à¥Ģ":267,"ĠĠĠĠ":268,"à¤Ĥ":269,"à¤¨":270,"Ġt":271,"in":272,"er":273,"Ġa":274,"à¤¤":275,"à¥ĭ":276,"à¤ķ":277,"he":278,"on":279,"à¤¯":280,"à¤¸":281,"Ġà¤¸":282,"re":283,"à¤²":284,"Ġà¤¹":285,"Ġthe":286,"at":287,"or":288,"à¤¹":289,"à¤®":290,"en":291,"Ġà¤®":292,"an":293,"st":294,"Ġà¤ª":295,"à¥Ī":296,"al":297,"ed":298,"ar":299,"à¥ģ":300,"Ġo":301,"à¤µ":302,"it":303,"es":304,"is":305,"Ġw":306,"Ġs":307,"Ġf":308,"ĠĠĠ":309,"Ġc":310,"à¥¤":311,"à¤¦":312,"Ġin":313,"à¤ª":314,"à¥ĩà¤Ĥ":315,"nd":316,"Ġof":317,"ion":318,"ic":319,"à¤Ĺ":320,"Ġp":321,"ing":322,"Ġb":323,"Ġà¤¨":324,"Ġà¤¬":325,"Ġà¤ľ":326,"ĠĠĠĠĠĠĠ":327,"le":328,"ro":329,"as":330,"à¤Ł":331,"à¤ľ":332,"Ġà¤µ":333,"Ġand":334,"Ġà¤ħ":335,"Ġà¤¦":336,"ur":337,"Ġd":338,"Ġà¤°":339,"Ġà¤²":340,"Ġm":341,"à¥ĭà¤Ĥ":342,"Ġ(":343,"il":344,"à¥Ĥ":345,"Ġto":346,"el":347,"ĠS":348,"am":349,"et":350,"ent":351,"à¤¶":352,"Ġ1":353,"Ġre":354,"à¤¡":355,"ĠC":356,"ct":357,"Ġh":358,"à¤¬":359,"à¤ı":360,"ĠA":361,"ou":362,"Ġn":363,"ĠT":364,"th":365,"ol":366,"om":367,"Ġà¤¤":368,"Ġà¤ī":369,"Ġà¤Ĩ":370,"à¤ļ":371,"Ġà¤ķà¤°":372,"Ġà¤Ĺ":373,"à¤§":374,"ĠĠĠĠĠĠĠĠ":375,"Ġà¤Ń":376,"ad":377,"à¤·":378,"Ġl":379,"Ġà¤ĩ":380,"ĠM":381,"Ġà¤Ķ":382,"Ġà¤Ķà¤°":383,"ch":384,"ce":385,"id":386,"à¤¥":387,"Ġ2":388,"à¤¼":389,"Ġ=":390,"ers":391,"ig":392,"ation":393,"Ġe":394,"ĠB":395,"Ġà¤ªà¤°":396,"iv":397,"Ġà¤¯":398,"Ġth":399,"ĠP":400,"à¥Īà¤Ĥ":401,"ra":402,"if":403,"im":404,"un":405,"us":406,"à¤£":407,"ut":408,"ist":409,"à¥Īà¥¤":410,"ul":411,"ĠI":412,"Ġà¤ı":413,"à¤Ī":414,"Ġà¤¶":415,"Ġfor":416,"ot":417,"ir":418,"ĠH":419,"à¤ĸ":420,"Ġà¤ļ":421,"Ġwas":422,"ĠR":423,"à¤Ń":424,"Ġg":425,"Ġis":426,"em":427,"ĠĠĠĠĠĠĠĠĠĠĠ":428,"Ġon":429,"Ġà¤ĩà¤¸":430,"ay":431,"Ġst":432,"ag":433,"Ġ$":434,"ĠD":435,"Ġ\"":436,"ly":437,"ow":438,"od":439,"ĠF":440,"se":441,"ĠL":442,"Ġ19":443,"Ġas":444,"Ġ20":445,"ter":446,"ĠN":447,"um":448,"ith":449,"Ġ{":450,"Ġà¤¥":451,"and":452,"à¤¾à¤Ĥ":453,"ĠG":454,"Ġbe":455,"ate":456,"ĠW":457,"ue":458,"op":459,"ac":460,"Ġv":461,"urn":462,"oc":463,");":464,"ĠThe":465,"Ġà¤°à¤¹":466,"pe":467,"ĠE":468,"Ġwith":469,"Ġà¤ıà¤ķ":470,"à¤«":471,"Ġal":472,"rom":473,"ab":474,"ri":475,"Ġby":476,"ew":477,"à¥Ģà¤Ĥ":478,"âĢ":479,"Ġcon":480,"res":481,"ame":482,"ĠJ":483,"ver":484,"Ġwh":485,"ef":486,"Ġà¤«":487,"Ġà¤ĸ":488,"Ġ'":489,"Ġat":490,"ub":491,"pt":492,"à¤ķà¤°":493,"à¥Į":494,"os":495,"'s":496,"à¤ªà¤¨":497,"Ġà¥¤":498,"à¤¾à¥¤":499,"Ġan":500,"up":501,"ction":502,"all":503,"turn":504,"ain":505,"ĠO":506,"Ġà¤¸à¤®":507,"nt":508,"Ġà¤īà¤¨":509,"art":510,"à¤°à¤¤":511,"Ġfrom":512,"ĉĉ":513,"ere":514,"ity":515,"ess":516,"Ġà¤¨à¤¹":517,"Ġ}":518,"ian":519,"ies":520,"av":521,"ort":522,"Ġpro":523,"Ġhe":524,"ap":525,"Ġthat":526,"ber":527,"->":528,"Ġcom":529,"Ġde":530,"ke":531,"à¤ĩ":532,"ĠK":533,"ia":534,"âĢĵ":535,"end":536,"Ġà¤¯à¤¹":537,"ĠU":538,"00":539,"ill":540,"Ġif":541,"ex":542,"ore":543,"est":544,"à¥ī":545,"ment":546,"Ġit":547,"og":548,"Ġà¤ķà¤°à¤¨":549,"à¤°à¤ķ":550,"Ġse":551,"ĠSt":552,"()":553,"ip":554,"ard":555,"à¥Īà¤Ĥà¥¤":556,"igh":557,"ud":558,"19":559,"ran":560,"Ġà¤īà¤¸":561,"Ġor":562,"Ġà¤Ł":563,"Ġà¤ķà¤¹":564,"Ġà¤ħà¤ªà¤¨":565,"à¤¿à¤Ĥ":566,"ĠĠĠĠĠĠĠĠĠĠĠĠĠĠĠ":567,"Ġex":568,"à¤Ľ":569,"à¥ĥ":570,"Ġpl":571,"ast":572,"ov":573,"ath":574,"ge":575,"qu":576,"Ġà¤Ĺà¤¯":577,"ated":578,"ld":579,"our":580,"ary":581,"age":582,"Ġà¤ħà¤¨":583,"elf":584,"get":585,"Ġ-":586,"ass":587,"ine":588,"ich":589,"cl":590,"Ġà¤¡":591,"ive":592,"ug":593,"Ġreturn":594,"ial":595,"ult":596,"ect":597,"pl":598,"Ġhis":599,"),":600,"The":601,"Ġch":602,"ish":603,"ord":604,"con":605,"Ġr":606,"ks":607,"ant":608,"ĠIn":609,"Ġ201":610,"à¤ł":611,"ĠV":612,"ile":613,"Ġ|":614,"ust":615,"à¤¾,":616,"ong":617,"à¤ķà¤¤":618,"ire":619,"mer":620,"ĠCh":621,"Ġare":622,"enc":623,"Ġà¤ªà¤¹":624,"ure":625,"ry":626,"und":627,"à¤Ĩ":628,"iz":629,"ak":630,"Ġ:":631,"ther":632,"Ġà¤µà¤¹":633,"Ġ3":634,"($":635,"ost":636,"ell":637,"ions":638,"err":639,"are":640,"per":641,"Ġar":642,"à¥Ī,":643,"uc":644,"this":645,"ear":646,"ight":647,"Ġnot":648,"ign":649,"à¥Ģà¥¤":650,"à¤µà¤°":651,"ack":652,"In":653,"à¤¤à¤°":654,"ring":655,"à¤¯à¤ķ":656,"Ġ200":657,"Ġà¤ħà¤§":658,"ff":659,"port":660,"Ġ||":661,"ubl":662,"so":663,"Ġà¤ĺ":664,"Ġle":665,"rit":666,"int":667,"Ġà¤¬à¤¨":668,"orm":669,"ount":670,"Ġà¤²à¤Ĺ":671,"Ġà¤®à¤¹":672,"ical":673,"à¤ľà¤¨":674,"ice":675,"ime":676,"Ġwere":677,"Ġà¤ķà¤°à¤¤":678,"Ġà¤Ĩà¤ª":679,"à¤ĵ":680,"Ġsh":681,"Ġres":682,"Ġy":683,"erv":684,"Ġà¤§":685,"ok":686,"à¤ģ":687,"Ġcl":688,"Ġwhich":689,"Ġnew":690,"Ġcomp":691,"ory":692,"one":693,"ric":694,"out":695,"20":696,"Ġà¤¸à¤ķà¤¤":697,"ach":698,"à¤°à¤£":699,"ec":700,"St":701,"ata":702,"able":703,"ĠUn":704,"Ġalso":705,"Ġun":706,"à¤¢":707,"à¤¼à¤¾":708,"ph":709,"ĠHe":710,"Ġcont":711,"Ġus":712,"Ġ18":713,"irst":714,"ind":715,"Ġint":716,"Ġà¤īà¤¨à¤ķ":717,"à¥ĩà¥¤":718,"Ġà¤¹à¤®":719,"ork":720,"ep":721,"ace":722,"à¥Ī.":723,"ase":724,"à¤Łà¤°":725,"à¤¶à¤¨":726,"ype":727,"//":728,"Ġk":729,"Ġplay":730,"ode":731,"Ġà¤Ľ":732,"à¤°à¤®":733,"ild":734,"à¤¸à¤°":735,"ang":736,"ie":737,"ide":738,"tern":739,"Ġà¥":740,"ob":741,"ous":742,"hed":743,"Ex":744,"Ġself":745,"ition":746,"ations":747,"Ġ4":748,"ĠĠĠĠĠĠĠĠĠĠĠĠĠĠĠĠ":749,"ens":750,"ave":751,"ublic":752,"\"\"":753,"ib":754,").":755,"ext":756,"ĠTh":757,"Ġhas":758,"own":759,"Ġà¤¤à¤ķ":760,"ĠĠĠĠĠ":761,"à¤°à¤¦":762,"Ġthis":763,"te":764,"Ġad":765,"ences":766,"Ġro":767,"ance":768,"Ġà¤ĩà¤¸à¤ķ":769,"ru":770,"Ġj":771,"Ġ5":772,"ĠâĢĵ":773,"))":774,"à¤°à¤¹":775,"inal":776,"ational":777,"ence":778,"alue":779,"à¤Ĺà¤°":780,"Ġap":781,"ĠY":782,"Ġfirst":783,"ool":784,"à¤ªà¤°":785,"ound":786,"unction":787,"Ġhad":788,"):":789,"man":790,"amp":791,"ates":792,"Ġà¤ªà¤¹à¤²":793,"ĠIt":794,"ail":795,"ome":796,"ng":797,"à¥Ģ,":798,"Ġerr":799,"ress":800,"ull":801,"eg":802,"efer":803,"Ġà¤Ĳ":804,"iss":805,"fter":806,"land":807,"à¤ĥ":808,"ree":809,"orn":810,"key":811,"ors":812,"--":813,"ject":814,"return":815,"iel":816,"form":817,"à¤¹à¤°":818,"cept":819,"act":820,"Ġ.":821,"Ġà¤ĩà¤¨":822,"ents":823,"à¤²à¤¨":824,"ater":825,"low":826,"cc":827,"à¤¯à¤®":828,"hen":829,"Ġte":830,"Ġà¤µà¤°":831,"à¤¯à¤°":832,"meric":833,"\",":834,"Ġà¤īà¤ª":835,"Ġà¤īà¤¸à¤ķ":836,"ont":837,"wo":838,"Refer":839,"Ġà¤Ĺà¤Ī":840,"ev":841,"pro":842,"ll":843,"ĠAr":844,"Ġpart":845,"',":846,"que":847,"Ġwho":848,"Ġ!":849,"('":850,"References":851,"ite":852,"ray":853,"à¤ħ":854,"ey":855,"old":856,"eb":857,"Ġ0":858,"aw":859,"row":860,"ield":861,"over":862,"ited":863,"clud":864,"Ġ199":865,"Ġsc":866,"name":867,"à¤¼à¥Ģ":868,"ould":869,"à¤µà¤¨":870,"ember":871,"Ġits":872,"Ġtheir":873,"Ġbo":874,"à¤²à¤¤":875,"ople":876,"Ġ*":877,"Ġà¤ķà¤®":878,"ilm":879,"ock":880,"ss":881,"Ġab":882,"rib":883,"fer":884,"Ġà¤Ĳà¤¸":885,"à¤Ŀ":886,"Ġ\"\"\"":887,"Ġher":888,"à¤¤à¤¨":889,"les":890,"Ġone":891,"Ġbut":892,"ual":893,"aram":894,"ict":895,"Ġà¤¬à¤¤":896,"ark":897,"Ġel":898,"à¤ī":899,"Ġ&":900,"ivers":901,"à¤°à¤¸":902,"Ġ6":903,"merican":904,"sh":905,"ĠNew":906,"Ġper":907,"Ġà¤¸à¤¬":908,"Ġim":909,"ied":910,"io":911,"pon":912,"Ġout":913,"Ġrec":914,"eng":915,"Ġhave":916,"Ġra":917,"ugh":918,"à¤®à¤¨":919,"à¤¬à¤°":920,"Ġ#":921,"();":922,"lo":923,"eople":924,"def":925,"ames":926,"Ġ==":927,"pec":928,"Ġyear":929,"Ġag":930,"Ġà¤¬à¤¹":931,"pr":932,"ings":933,"ck":934,"ade":935,"Ġ+":936,"à¤°à¤µ":937,"ener":938,"à¥ģà¤Ĥ":939,"(\"":940,"arg":941,"ery":942,"à¤¾à¤ģ":943,"ball":944,"lect":945,"['":946,"Ġpre":947,"rans":948,"Ġman":949,"ee":950,"self":951,"Ġup":952,"ix":953,"Ġfunction":954,"Ġdes":955,"à¥ĩ,":956,"Ġcomm":957,"ward":958,"ern":959,"oot":960,"ts":961,"Ġà¤ľà¤¬":962,"Ġinclud":963,"ĠĠĠĠĠĠĠĠĠĠĠĠĠĠĠĠĠĠĠ":964,"set":965,"']":966,"att":967,"ased":968,"uring":969,"Ġbec":970,"Ġtwo":971,"che":972,"Ġà¤¸à¤°à¤ķ":973,"à¤¼à¥ĩ":974,"Ġà¤īà¤¤":975,"ics":976,"eth":977,"à¤ŀ":978,"omm":979,"Ġdis":980,"Ġ)":981,"à¤¨à¤ķ":982,"ne":983,"Ġ//":984,"à¤¸à¤®":985,"Ġall":986,"à¥Īà¤Ĥ,":987,"vel":988,"Ġcol":989,"à¤¯à¤¤":990,"roup":991,"Ġ[":992,"à¤¾.":993,"chool":994,"Ġà¤¸à¤®à¤¯":995,"Ġà¤ħà¤Ń":996,"Ġbeen":997,"Ġà¤ħà¤²":998,"Ġà¤Ĩà¤°":999,"put":1000,"ft":1001,"oy":1002,"Ġev":1003,"atch":1004,"ists":1005,"Ġ7":1006,"ĠMar":1007,"we":1008,"ake":1009,"Ġà¤¸à¤¹":1010,"tt":1011,"à¤®à¤²":1012,"ĠAl":1013,"oint":1014,"ose":1015,"ren":1016,"ert":1017,"Ġà¤ªà¤¤":1018,"red":1019,"Ġà¤ľà¤¨":1020,"ann":1021,"Ġà¤ħà¤¬":1022,"uch":1023,"Ġà¤°à¤ĸ":1024,"cess":1025,"Ġ198":1026,"Ġafter":1027,"gh":1028,"à¤¸à¤ķ":1029,"à¤ļà¤¨":1030,"Ġà¤Ĩà¤ªà¤ķ":1031,"Ġfilm":1032,"ason":1033,"ax":1034,"Ġserv":1035,"Ġtime":1036,"18":1037,"Ġoff":1038,"Ġà¤Ĺà¤ı":1039,"ely":1040,"..":1041,"son":1042,"Ġlin":1043,"à¤ĺ":1044,"Ġà¤Ĩà¤¯":1045,"Ġtr":1046,"fig":1047,"à¤Łà¤¨":1048,"Ġatt":1049,"Ġà¤®à¤¨":1050,"Ġà¤¸à¤Ń":1051,"Ġover":1052,"unc":1053,"ah":1054,"outh":1055,"Ġ:=":1056,"ale":1057,"Ġother":1058,"Ġà¤ĵ":1059,"anc":1060,"Ġind":1061,"uild":1062,"li":1063,"ished":1064,"ision":1065,"oh":1066,"quest":1067,"à¤ľà¤°":1068,"Ġloc":1069,"Name":1070,"à¤·à¤£":1071,"Ġset":1072,"Ġ8":1073,"Ġà¤¬à¤¡":1074,"Ġsp":1075,"à¤¯à¤¨":1076,"gan":1077,"orld":1078,"als":1079,"Ġà¤Ĩà¤¦":1080,"ram":1081,"ception":1082,"à¤ªà¤¤":1083,"way":1084,"ral":1085,"ĠSh":1086,"ute":1087,"Ġ10":1088,"à¥¦":1089,"Ġget":1090,"olog":1091,"Ġdef":1092,"iversity":1093,"Ġinto":1094,"ury":1095,"ĠSe":1096,"ash":1097,"Ġelse":1098,"200":1099,"ans":1100,"Ġact":1101,"Ġ!=":1102,"à¤µà¤¸":1103,"public":1104,"Ġà¤¤à¤°à¤¹":1105,"ternal":1106,"ise":1107,"Ġà¤¤à¤¥":1108,"irect":1109,"ick":1110,"Ġend":1111,"Ġpr":1112,"wn":1113,"Ġtra":1114,"Ġshe":1115,"Ġund":1116,"Ġnil":1117,"Ġà¤¦à¤°":1118,"Ġwork":1119,"du":1120,"hip":1121,"Ġthey":1122,"ĠAmerican":1123,"Ġpeople":1124,"cond":1125,"Ġà¤¬à¤¢":1126,"::":1127,"ars":1128,"Ġ197":1129,"à¤¹à¤¤":1130,"ize":1131,"Ġà¤¸à¤°":1132,"à¤ķà¤²":1133,"Ġpol":1134,"Ġà¤ĳ":1135,"ond":1136,"rr":1137,"Ġreg":1138,"Ġsub":1139,"round":1140,"nc":1141,"vi":1142,"Ġà¤ķà¤Ī":1143,"ton":1144,"Ġ9":1145,"ident":1146,"raph":1147,"az":1148,"Ġname":1149,"ough":1150,"use":1151,"ĠInd":1152,"à¤²à¤¯":1153,"à¤®à¤¤":1154,"cent":1155,"à¤¦à¤°":1156,"Ġà¤ļà¤²":1157,"orth":1158,"ĠCol":1159,"Ġform":1160,"Ch":1161,"ific":1162,"app":1163,"Ġà¤¬à¤ļ":1164,"duc":1165,"lection":1166,"omp":1167,"ative":1168,"Ġà¤ıà¤µ":1169,"à¤Ĺà¤¤":1170,"Ġnum":1171,"val":1172,"ered":1173,"à¤¸à¤¨":1174,"ty":1175,"Ġà¤ħà¤°":1176,"rough":1177,"à¤µà¤¤":1178,"ood":1179,"ins":1180,"ĠLe":1181,"Ġco":1182,"Ġà¤ªà¤¡":1183,"ootball":1184,"ik":1185,"Ã©":1186,"ĠPro":1187,"abl":1188,"Âł":1189,"let":1190,"ĉĉĉ":1191,"Ġwhen":1192,"ues":1193,"ily":1194,"Ġnull":1195,"oci":1196,"Ġop":1197,"Ġcan":1198,"._":1199,"Ġà¤Ĩà¤ľ":1200,"ities":1201,"Ġà¤¹à¤°":1202,"ĠUnited":1203,"Ġsy":1204,"ince":1205,"Ġspec":1206,"lement":1207,"à¤¸à¤²":1208,"à¤ıà¤Ĺ":1209,"aj":1210,"à¥Īà¤Ĥ.":1211,"ollow":1212,"ĠZ":1213,"Ġkn":1214,"à¤µà¤²":1215,"cre":1216,"Ġ196":1217,"erm":1218,"Ġinst":1219,"type":1220,"Con":1221,"ator":1222,"path":1223,"Ġbet":1224,"Ġass":1225,"emb":1226,"Ġsup":1227,"ari":1228,"Ġadd":1229,"Ġ_":1230,"Err":1231,"alse":1232,"Ġà¤ķà¤²":1233,"ating":1234,"Ġlinks":1235,"Ġob":1236,"Ġmore":1237,"ional":1238,"eries":1239,"Ġrem":1240,"ĠUniversity":1241,"Ġonly":1242,"Ġfound":1243,"ĠCon":1244,"ife":1245,"à¤¨à¤¤":1246,"inn":1247,"Ġà¤Ĩà¤µ":1248,"Ġà¤Ĩà¤¤":1249,"Ġ17":1250,"Ġ15":1251,"ier":1252,"resent":1253,"Ġunder":1254,"à¤¦à¤¨":1255,"Ġ($":1256,"pos":1257,"External":1258,"Ġcre":1259,"air":1260,"Ġteam":1261,"ouse":1262,"Ġinter":1263,"Ġcall":1264,"Ġdo":1265,"à¤Ĺà¤²":1266,"Ġhim":1267,"ĠDe":1268,"urre":1269,"ource":1270,"ween":1271,"201":1272,"ove":1273,"ular":1274,"ient":1275,"Ġcons":1276,"col":1277,"eat":1278,"Ġqu":1279,"file":1280,"\".":1281,"to":1282,"atic":1283,"Ġacc":1284,"Ġcent":1285,"Ġlist":1286,"Ġwould":1287,"ever":1288,"ina":1289,"by":1290,"Ġwhere":1291,"21":1292,"Re":1293,"Ġent":1294,"Ġplayers":1295,"Ġagain":1296,".\"":1297,"any":1298,"Ġest":1299,"Ġme":1300,"der":1301,"Ġen":1302,"à¥Ģ.":1303,"Pro":1304,"ĠCl":1305,"Ġresult":1306,"mp":1307,"Ġyears":1308,"Ġseason":1309,"usic":1310,"Ġwrit":1311,"ĠThis":1312,"data":1313,"its":1314,"iving":1315,"Ġduring":1316,"Ġwe":1317,"overn":1318,"ober":1319,"à¤®à¤ķ":1320,"Error":1321,"arn":1322,"')":1323,"Ġtrans":1324,"Ġed":1325,"Ġ194":1326,"Ġused":1327,"Ġà¤¸à¤ķ":1328,"Ġà¤ĺà¤°":1329,"Ġrel":1330,"Ar":1331,"param":1332,"bum":1333,"ron":1334,"Ġstud":1335,"ths":1336,"Ġfollow":1337,"value":1338,"Ġà¤¶à¤°":1339,"ines":1340,"Ġso":1341,"ĠSc":1342,"Ġmod":1343,"Ġbetween":1344,"Ġ12":1345,"rict":1346,"cont":1347,"Ġdist":1348,"000":1349,"func":1350,"ĠEng":1351,"enn":1352,"add":1353,"uth":1354,"ĠStates":1355,"stem":1356,"istory":1357,"Ġ?":1358,"à¤ĩà¤¨":1359,"Ġà¤ħà¤µ":1360,"urrent":1361,"ohn":1362,"ĠAn":1363,"ve":1364,"Ġ16":1365,"Ġrele":1366,"erman":1367,"Ġà¤ħà¤®":1368,"sc":1369,"Ġà¤īà¤¦":1370,"Ġabout":1371,"Ġthen":1372,"à¤°à¤Ń":1373,"erson":1374,"ograph":1375,"ley":1376,"ement":1377,"Ġà¤ħà¤ª":1378,"Ġà¤ħà¤¸":1379,"ures":1380,"ault":1381,"Ġfam":1382,"Ġsing":1383,"Ġmost":1384,"Ġ195":1385,"Ġbir":1386,"à¤ıà¤¸":1387,"Ġart":1388,"ces":1389,"Ġpos":1390,"ponse":1391,"Ġstr":1392,"ĠâĢ":1393,"Ġno":1394,"Ġac":1395,"ounty":1396,"Ġà¤¸à¤¬à¤¸":1397,"Ġthrough":1398,"Ġfootball":1399,"Ġthem":1400,"Ġà¤ľà¤°":1401,"à¤°à¤¶":1402,"ined":1403,"ask":1404,"ĠShe":1405,"ĠSp":1406,"List":1407,"iver":1408,"Ġprov":1409,"Ġthree":1410,"Exception":1411,"els":1412,"ader":1413,"Ġrecord":1414,"Ġsecond":1415,"ethod":1416,"ĠQ":1417,"til":1418,"Ġà¤ł":1419,"ague":1420,"itt":1421,"Ġà¤ªà¤¦":1422,"à¥ĩà¤Ĥà¥¤":1423,"ired":1424,"Type":1425,"vent":1426,"ived":1427,"----":1428,"Ġmade":1429,"Id":1430,"Ġ%":1431,"ai":1432,"inist":1433,"Ġà¤ħà¤ļ":1434,"Ġthan":1435,"Ġ=>":1436,"ersion":1437,"Ġfinal":1438,"Ġlater":1439,"Ġthere":1440,"199":1441,"bo":1442,"rad":1443,"Ġi":1444,"pect":1445,"à¤¤à¤ķ":1446,"à¤§à¤¨":1447,"Ġdata":1448,"Th":1449,"Ġà¤¬à¤²":1450,"umn":1451,"une":1452,"Ġran":1453,"Ġam":1454,"Ġà¤Ĩà¤Ĺ":1455,"Ġalbum":1456,"Ġà¤Ĩà¤§":1457,"ten":1458,"Ġgroup":1459,"String":1460,"Ġ/":1461,"Ġdirect":1462,"à¤°à¤¨":1463,"Ġwill":1464,"ages":1465,"§à¥":1466,"ract":1467,"arch":1468,"Ġpop":1469,"à¥Ĥà¤Ĥ":1470,"ism":1471,"Ġà¤Ĩà¤¨":1472,"à¤ĩà¤¸":1473,"ized":1474,"fore":1475,"fo":1476,"Res":1477,"Ġph":1478,"ution":1479,"uss":1480,"ys":1481,"Cl":1482,"à¤ĸà¤¨":1483,"ruct":1484,"reat":1485,"à¤ªà¤ķ":1486,"Ġ11":1487,"Ġbl":1488,"Ġmed":1489,"Ġsuch":1490,"Ġwhile":1491,"Ġstart":1492,"Ġà¤Ī":1493,"ĠComm":1494,"omen":1495,"à¤¼à¤¿":1496,"ĠWorld":1497,"for":1498,"arly":1499,"read":1500,"ower":1501,"Ġsome":1502,"Ġknown":1503,"à¤°à¤¯":1504,"ument":1505,"rid":1506,"uff":1507,"=\"":1508,"ural":1509,"ĠIs":1510,"Ġschool":1511,"Ġà¤¤à¤°":1512,"Ġem":1513,"à¤ıà¤®":1514,"ript":1515,"Ġà¤ħà¤¤":1516,"ounc":1517,"Ġnumber":1518,"Ġstring":1519,"eneral":1520,"Cont":1521,"ices":1522,"ĠFran":1523,"Ġà¤Ŀ":1524,"ĠAd":1525,"essage":1526,"Ġhigh":1527,"other":1528,"ments":1529,"uro":1530,"field":1531,"Ġà¤Ńà¤°":1532,"Ġbuild":1533,"ather":1534,"Ġà¤Ĩà¤Ī":1535,"Ġbecame":1536,"Ġ14":1537,"class":1538,"ĠEx":1539,"Ġinv":1540,"Ġbeing":1541,"à¥ĩà¤Ĥ,":1542,"ĠAust":1543,"Ġext":1544,"Ġà¤ľà¤²":1545,"ĠNational":1546,"Ġestabl":1547,"Un":1548,"ache":1549,"Ġclass":1550,"Ġkey":1551,"ger":1552,"str":1553,"à¤ķà¤°à¤£":1554,"ĠFor":1555,"Ġsign":1556,"ĠCounty":1557,"ternational":1558,"lev":1559,"ĠMay":1560,"ĠPh":1561,"Ġapp":1562,"url":1563,"ĠJan":1564,"ength":1565,"ID":1566,"Ġseries":1567,"Ġ<":1568,"Ġ>":1569,"Ġvalue":1570,"ays":1571,"Ġbefore":1572,"Ġne":1573,"à¤¨à¤®":1574,"ĠOn":1575,"arri":1576,"Ġfour":1577,"Ġcount":1578,"Ġ193":1579,"Ġrun":1580,"ĠAs":1581,"urch":1582,"Ġmov":1583,"Ġ13":1584,"Ġoper":1585,"Ġwell":1586,"Ġà¤ħà¤ķ":1587,"ank":1588,"ps":1589,"ĠBrit":1590,"\")":1591,"ole":1592,"ĠJohn":1593,"He":1594,"Ġarray":1595,"amed":1596,"Ġconst":1597,"Ġchar":1598,"10":1599,"fl":1600,"ĠPl":1601,"ology":1602,"Ġval":1603,"Ġdec":1604,"Ġappe":1605,"Ġmay":1606,"Ġagainst":1607,"Ġincluding":1608,"|-":1609,"Ġà¤°à¤¹à¤¤":1610,"sp":1611,"Ġà¤ķà¤ª":1612,"Ġà¤ĵà¤°":1613,"Ġfl":1614,"à¤¹à¤¨":1615,"eter":1616,"ĠWar":1617,"ĠSchool":1618,"à¤²à¤ķ":1619,"Ġback":1620,"Ġret":1621,"atus":1622,"Ġà¤¸à¤¤":1623,"ler":1624,"Ġsong":1625,"Ġorig":1626,"à¤ªà¤¯":1627,"Ġstate":1628,"Ġà¤¸à¤¦":1629,"yle":1630,"à¤¨à¤¸":1631,"ĠCan":1632,"à¤¯à¤²":1633,"born":1634,"string":1635,"Ġshow":1636,"log":1637,"())":1638,"ampions":1639,"opt":1640,"ives":1641,"Ġà¤ľà¤¹":1642,"ER":1643,"Ġexp":1644,"Ġca":1645,"à¤Ĩà¤Ī":1646,"Ġdeath":1647,"à¤¬à¤²":1648,"velop":1649,"ĠNone":1650,"my":1651,"ission":1652,"ook":1653,"à¥ĩ.":1654,"ĠCar":1655,"Ġgo":1656,"Ġuse":1657,"Ġjo":1658,"com":1659,"ians":1660,"ĠGerman":1661,"à¤¨à¤¨":1662,"iam":1663,"à¤®à¤°":1664,"ĠYork":1665,"rist":1666,"uary":1667,"args":1668,"à¤ķà¤¡":1669,"ugust":1670,"aint":1671,"ĠJul":1672,"rand":1673,"Ġpolit":1674,"Ġà¤ľà¤®":1675,"On":1676,"Ġ&&":1677,"ott":1678,"ĠSouth":1679,"areer":1680,"Ġ`":1681,"Ġpublic":1682,"ĠNov":1683,"embers":1684,"ptember":1685,"Ġown":1686,"ĠBl":1687,"back":1688,"Ġrep":1689,"Ġpass":1690,"overnment":1691,"Ġdesc":1692,"ĠRe":1693,"Ġà¥¥":1694,"aid":1695,"Ġdevelop":1696,"ĠPar":1697,"ream":1698,"Ġà¤¸à¤®à¤Ŀ":1699,"ule":1700,"Ġerror":1701,"ports":1702,"ared":1703,"ets":1704,"ĠWest":1705,"à¤µà¤ķ":1706,"Ġmany":1707,"Ġfalse":1708,"Ġthrow":1709,"à¤²à¤¬":1710,"gram":1711,"rem":1712,"à¤¶à¤ķ":1713,"au":1714,"à¤Łà¤ķ":1715,"Ġuntil":1716,"ĠOr":1717,"Ġopen":1718,"ible":1719,"ats":1720,"owever":1721,"Ġà¤²à¤¡":1722,"Ġboth":1723,"imes":1724,"Ġany":1725,"Ġdif":1726,"ilt":1727,"ody":1728,"Ġmon":1729,"17":1730,"Ġ25":1731,"ĠĠĠĠĠĠĠĠĠĠĠĠĠĠĠĠĠĠĠĠĠĠĠ":1732,"Ġcontin":1733,"ains":1734,"à¤¿,":1735,"ctober":1736,"of":1737,"ĠĠĠĠĠĠĠĠĠ":1738,"Ġ[]":1739,"time":1740,"ĠPr":1741,"Ġlong":1742,"Ġsur":1743,"Ġtrue":1744,"22":1745,"198":1746,"ĠPol":1747,"Ġmin":1748,"Ġfamily":1749,"reg":1750,"Ġmusic":1751,"por":1752,"ae":1753,"Ġà¤¬à¤¦":1754,"à¤¾-":1755,"ross":1756,"lege":1757,"Ġà¤ĸà¤°":1758,"ike":1759,"Ġann":1760,"fess":1761,"angu":1762,"ĠCent":1763,"ajor":1764,"ble":1765,"ified":1766,"arent":1767,"Ġopt":1768,"esc":1769,"ink":1770,"Ġchild":1771,"Ġrece":1772,"lish":1773,"Ġline":1774,"Ġà¤īà¤®":1775,"ved":1776,"Ġà¤Ĭ":1777,"arm":1778,"oman":1779,"ital":1780,"Ġmet":1781,"Ġà¤ħà¤Ĺà¤°":1782,"line":1783,"ĠAt":1784,"Key":1785,"ĠAss":1786,"istor":1787,"à¤¤à¤®":1788,"Ġbro":1789,"led":1790,"ĠSeptember":1791,"Ġbirths":1792,"Ġà¤¤à¤¬":1793,"rop":1794,"ulation":1795,"ior":1796,"ĠAugust":1797,"Ġ30":1798,"ĠTr":1799,"ons":1800,"Ġfile":1801,"à¤Łà¤²":1802,"wards":1803,"ĠWh":1804,"mber":1805,"ility":1806,"date":1807,"Ġfeat":1808,"':":1809,"pril":1810,"af":1811,"Ġsame":1812,"ained":1813,"iles":1814,"Ġà¤¯à¤¦":1815,"Ġplayed":1816,"Ġlead":1817,"ĠMan":1818,"ĠMarch":1819,"Ġsystem":1820,"Ġperform":1821,"itions":1822,"yp":1823,"ON":1824,"Ġarg":1825,"ium":1826,"view":1827,"ĠTe":1828,"Ġà¤§à¤°":1829,"à¤¡à¤²":1830,"16":1831,"ected":1832,"Ġà¤ĩà¤²":1833,"à¤¹à¤®":1834,"uccess":1835,"à¥ĭ,":1836,"sy":1837,"Ġsever":1838,"à¤ľà¤ª":1839,"ĠOctober":1840,"Ġsm":1841,"à¤Ńà¤µ":1842,"ually":1843,"Ġfield":1844,"ĠAustral":1845,"Ġoffic":1846,"à¤¯à¤µ":1847,"Ġfore":1848,"ote":1849,"à¤°à¤§":1850,"cember":1851,"ches":1852,"ĠJanuary":1853,"Ġarea":1854,"ants":1855,"Ġpar":1856,"Ġà¤¬à¤ľ":1857,"Ġdesign":1858,"Ġreleased":1859,"Ġ,":1860,"à¤ķà¤¸":1861,"the":1862,"Ġdep":1863,"oad":1864,"ĠGe":1865,"ampionship":1866,"IN":1867,"Ġorgan":1868,"ris":1869,"Ġà¤īà¤ł":1870,"ĠJune":1871,"Ġcalled":1872,"oid":1873,"uck":1874,"à¤ĩà¤Ł":1875,"thern":1876,"à¤¡à¤°":1877,"ange":1878,"iven":1879,"ales":1880,"icip":1881,"Ġà¤ĩà¤¸à¤²":1882,"lected":1883,"amb":1884,"ird":1885,"Ġwon":1886,"array":1887,"aking":1888,"Ġformer":1889,"Al":1890,"Ġdr":1891,"orks":1892,"ĠReg":1893,"ause":1894,"ĠLeague":1895,"ĠJuly":1896,"See":1897,"Ġlog":1898,"Ġà¤ıà¤¸":1899,"Ġgame":1900,"Ġà¥§à¥":1901,"Ġhead":1902,"à¤ķà¤¨":1903,"iew":1904,"ful":1905,"ivate":1906,"ĠBritish":1907,"ms":1908,"Ġeach":1909,"Ġcurrent":1910,"ament":1911,"co":1912,"duced":1913,"Ġà¤®à¤¤":1914,"ĠState":1915,"ĠII":1916,"Ġpoint":1917,"ally":1918,"Ġà¤ĩà¤¸à¤¸":1919,"ety":1920,"Ġà¤®à¤¦":1921,"Ġevent":1922,"Ġ(!":1923,"ctions":1924,"ĠâĢĶ":1925,"à¤Ľà¤²":1926,"ĠNorth":1927,"ĠX":1928,"American":1929,"ĠApril":1930,"ĠBo":1931,"ĠEuro":1932,"mod":1933,"Ġprodu":1934,"12":1935,"à¤¸à¤¦":1936,"resident":1937,"ĠCity":1938,"config":1939,"iter":1940,"ĠString":1941,"ured":1942,"Ġà¤Ĺà¤°":1943,"à¥Ģ-":1944,"Ġlife":1945,"inc":1946,"15":1947,"par":1948,"Path":1949,"Ġvari":1950,"ĠNovember":1951,"ped":1952,"ner":1953,"ĠCal":1954,"ervice":1955,"ape":1956,"lete":1957,"Ġfilms":1958,"ribut":1959,"ography":1960,"ided":1961,"Value":1962,"yn":1963,"Ad":1964,"ature":1965,"AT":1966,"ords":1967,"new":1968,"empt":1969,"à¤¯à¤µà¤¸":1970,"Ġfollowing":1971,"Ġsupport":1972,"her":1973,"apan":1974,"à¤ļà¤°":1975,"Ind":1976,"Ġtry":1977,"Ġpubl":1978,"ĠDecember":1979,"ret":1980,"Ġmain":1981,"ĉĉĉĉ":1982,"Ġyou":1983,"Ġoriginal":1984,"Ġbu":1985,"right":1986,"Ġcommun":1987,"Ġsince":1988,"Ġà¤īà¤ªà¤¯":1989,"à¤¦à¤µ":1990,"chn":1991,"century":1992,"ebru":1993,"(),":1994,"ma":1995,"ebruary":1996,"Ġche":1997,"levision":1998,"ung":1999,"Ġfin":2000,"à¤¨à¤²":2001,"Ġlocal":2002,"ĠAll":2003,"ĠEd":2004,"Ġbel":2005,"ony":2006,"list":2007,"ilit":2008,"Ġ24":2009,"Ġtype":2010,"Ġà¤¬à¤°":2011,"Ġà¤ľà¤Ĺ":2012,"197":2013,"Ġseveral":2014,"Ġbased":2015,"uthor":2016,"Ġcity":2017,"oss":2018,"ended":2019,"ven":2020,"ised":2021,"ĠGu":2022,"ĠKing":2023,"ially":2024,"arget":2025,"Ġà¤ĩà¤¸à¤®":2026,"ane":2027,"ĠCanad":2028,"leg":2029,"med":2030,"à¤¶à¤²":2031,"Ġbre":2032,"work":2033,"Ġgu":2034,"Ġà¤®à¤ľ":2035,"ience":2036,"Ġair":2037,"à¤¤à¤µ":2038,"ser":2039,"Ġ2010":2040,"ĠAf":2041,"ization":2042,"Ġthese":2043,"Ġlast":2044,"Ġtit":2045,"[]":2046,"ster":2047,"à¤ĩà¤²":2048,"It":2049,"Ġref":2050,"Ġà¤°à¤¹à¤¨":2051,"Ġà¤Ĩà¤µà¤¶":2052,"Ġearly":2053,"aces":2054,"To":2055,"ush":2056,"rench":2057,"Ã¡":2058,"ham":2059,"off":2060,"Ġtown":2061,"An":2062,"Ġcareer":2063,"Ġsim":2064,"iness":2065,"à¤¨à¤°":2066,"Ġprogram":2067,"Ġà¤¸à¤«":2068,"ored":2069,"ref":2070,"ued":2071,"Ġcase":2072,"Col":2073,"Ġplace":2074,"lex":2075,"23":2076,"de":2077,"'t":2078,"Ġhand":2079,"ST":2080,"ival":2081,"ĠWill":2082,"[$":2083,"File":2084,"urs":2085,"à¤¨à¤µ":2086,"Ġnamed":2087,"à¤¯à¤¦":2088,"Ġmake":2089,"ling":2090,"Ġnear":2091,"bject":2092,"Ġpath":2093,"ically":2094,"à¤¯à¤ª":2095,"ĠAm":2096,"ze":2097,"Ġcharact":2098,"Se":2099,"Ġprom":2100,"function":2101,"alth":2102,"13":2103,"stance":2104,"ĠEurope":2105,"load":2106,"format":2107,"Ġà¤ĳà¤«":2108,"Ġcompet":2109,"ency":2110,"ĠRep":2111,"Ġobject":2112,"âĢĻ":2113,"Ġmember":2114,"ĠFebruary":2115,"Ġà¤¹à¤ľ":2116,"50":2117,"à¥ĭà¤Ĥ,":2118,"Ġeff":2119,"result":2120,"plic":2121,"ister":2122,"Ġà¤ķà¤¹à¤¤":2123,"Ġà¤ķà¤°à¤ķ":2124,"eters":2125,"à¤·à¤ķ":2126,"anguage":2127,"ana":2128,"().":2129,"Ġdiffer":2130,"gy":2131,"ple":2132,"Ġ@":2133,"Ġeng":2134,"Data":2135,"writ":2136,"Ġwomen":2137,"Ġold":2138,"Ġmembers":2139,"vers":2140,"ious":2141,"Ġclub":2142,"Ġ2019":2143,"à¤¬à¤¨":2144,"ession":2145,"ager":2146,"ese":2147,"Ġocc":2148,"perty":2149,"ights":2150,"Ġ2014":2151,"stit":2152,"ene":2153,"ĠCo":2154,"Ġdet":2155,"Ġbegan":2156,"ĠSy":2157,"me":2158,"Ġ2011":2159,"ĠThey":2160,"ĠRes":2161,"AR":2162,"Ġland":2163,"à¤ľà¤²":2164,"Ġread":2165,"rol":2166,"Ġperson":2167,"Ġvill":2168,"Ġà¤®à¤¹à¤¤":2169,"uk":2170,"itor":2171,"lock":2172,"à¤ĸà¤¤":2173,"Ġà¤ĺà¤Łà¤¨":2174,"14":2175,"Ġdid":2176,"Ġ2008":2177,"Ġsingle":2178,"ĠDist":2179,"idd":2180,"Ġ2012":2181,"ĠBe":2182,"Ġstatic":2183,"à¥Ĥà¤ģ":2184,"à¤ªà¤¸":2185,"Ġà¤Ĩà¤¸":2186,"Ġalong":2187,"Ġx":2188,"ĠUS":2189,"Ġdescrib":2190,"aced":2191,"Ġ2016":2192,"');":2193,"Ġrefer":2194,"Ġvar":2195,"Ġà¤ħà¤²à¤Ĺ":2196,"Ġdisc":2197,"face":2198,"ries":2199,"Ġsuccess":2200,"Ġà¤ĩà¤¤à¤¨":2201,"Ġheld":2202,"usiness":2203,"ociation":2204,"Config":2205,"lor":2206,"à¤§à¤°":2207,"Ġgiven":2208,"reen":2209,"Ġà¤ħà¤Ĺ":2210,"Ġgovernment":2211,"Ġestablished":2212,"à¤²à¤°":2213,"ilter":2214,"Ġà¤ķà¤Ń":2215,"ĠAfter":2216,"side":2217,"ivision":2218,"Ġ2018":2219,"Ġ2020":2220,"ĠĠĠĠĠĠĠĠĠĠĠĠĠĠĠĠĠĠĠĠĠĠĠĠĠĠĠĠĠĠĠĠ":2221,"Ġlocated":2222,"ĠBar":2223,"ĠJapan":2224,"vert":2225,"Ġà¤¸à¤µ":2226,"ĠHis":2227,"Ġnow":2228,"Not":2229,"user":2230,"New":2231,"Ġservice":2232,"var":2233,"à¤łà¤ķ":2234,"Ġterm":2235,"Ġ2015":2236,"sk":2237,"ĠSw":2238,"Ġband":2239,"Ġ2017":2240,"aving":2241,"Ġà¤¸à¤®à¤¸":2242,"à¥ĩ-":2243,"odes":2244,"Ġà¤¶à¤¹à¤°":2245,"Ġcould":2246,"ĠPart":2247,"place":2248,"ett":2249,"ality":2250,"Ġ2013":2251,"Ġever":2252,"ems":2253,"ĠCollege":2254,"ĠHar":2255,"ondon":2256,"aster":2257,"Ġlaw":2258,"Ġdeb":2259,"Ġà¤ĩà¤¨à¤ķ":2260,"ration":2261,"à¤Ĺà¤µ":2262,"iod":2263,"valid":2264,"ify":2265,"ino":2266,"Ġà¤¸à¤ļ":2267,"ĠEnglish":2268,"Ġ===":2269,"Ġmajor":2270,"Ġà¤ķà¤¹à¤¨":2271,"à¤łà¤¨":2272,"Ġà¤¸à¤¦à¤¸":2273,"196":2274,"Ġà¤²à¤ķ":2275,"])":2276,"umb":2277,"Ġ2009":2278,"ider":2279,"Ġinc":2280,"ĠComp":2281,"Ġrange":2282,"By":2283,"Ġstation":2284,"Ġsmall":2285,"lymp":2286,"à¤ľà¤¹":2287,"raft":2288,"wh":2289,"Ġappro":2290,"Ġtop":2291,"raw":2292,"Ġ22":2293,"à¤·à¤¯":2294,"ourt":2295,"arge":2296,"ĠChrist":2297,"ĠAnd":2298,"Ġmat":2299,"dom":2300,"apt":2301,"Ġà¤ªà¤¢":2302,"Ġhel":2303,"Ġ100":2304,"Ġà¤®à¤§":2305,"à¤µà¤ª":2306,"Class":2307,"Ġà¤Ĩà¤¶":2308,"Ġcor":2309,"ards":2310,"None":2311,"],":2312,"adem":2313,"alt":2314,"ĠGeor":2315,"oken":2316,"Ġà¤®à¤°":2317,"ining":2318,"Ġhome":2319,"ĠChampionship":2320,"color":2321,"Sh":2322,"Ġrest":2323,"inter":2324,"à¤Ĩà¤°":2325,"à¥Ģà¤Ĥ,":2326,"Ġà¤¢":2327,"ford":2328,"Ġà¤īà¤¸à¤¨":2329,"à¤ľà¤¯":2330,"aim":2331,"Ġhouse":2332,"urg":2333,"Ġleg":2334,"Sc":2335,"ĠMc":2336,"Ġraise":2337,"ĠMed":2338,"Ġà¤ªà¤¶":2339,"Ġà¤°à¤¨":2340,"ille":2341,"Ġleft":2342,"Ġallow":2343,"Ġtook":2344,"illion":2345,"ml":2346,"ĠAir":2347,"==":2348,"Ġ2006":2349,"à¤°à¤¦à¤°":2350,"Ġreceived":2351,"Ġworld":2352,"Ġà¤ļà¤°":2353,"Ġ2007":2354,"eturn":2355,"Ġ190":2356,"vious":2357,"ĠHigh":2358,"ĠAb":2359,"Ġnational":2360,"Ġà¤¨à¤µ":2361,"Ġprocess":2362,"Ġà¤Ĩà¤ı":2363,"augh":2364,"min":2365,"Ġlen":2366,"Ġpopulation":2367,"Ġborn":2368,"Ġcompany":2369,"iet":2370,"ĠAfric":2371,"Ġdown":2372,"Ġgames":2373,"Ġà¤¬à¤¸":2374,"());":2375,"11":2376,"ately":2377,"Ġserved":2378,"ope":2379,"Ġà¤¸à¤²":2380,"ĠEast":2381,"error":2382,"ox":2383,"Ġà¤«à¤°":2384,"ample":2385,"Ġrepresent":2386,"ideo":2387,"Ġ23":2388,"Pl":2389,"site":2390,"ington":2391,"Ġpresent":2392,"ording":2393,"Ġpublished":2394,"Ġrequest":2395,"ĠIf":2396,"Ġversion":2397,"Ġinclude":2398,"Ġbecause":2399,"Ġà¤µà¤¸":2400,"hes":2401,"ources":2402,"Ġsl":2403,"à¤ıà¤ķ":2404,"Ġparam":2405,"Ġ);":2406,"ases":2407,"Ġaround":2408,"ĠLondon":2409,"Ġ21":2410,"rest":2411,"Ġmethod":2412,"eder":2413,"Ġbuilt":2414,"Ġimport":2415,"Ġprofess":2416,"Ġpost":2417,"Ġcap":2418,"ination":2419,"Ġtem":2420,"à¤®à¤¦":2421,"Ġà¤īà¤ļ":2422,"aul":2423,"ocial":2424,"Ġweb":2425,"rick":2426,"length":2427,"Ġcentury":2428,"day":2429,"Ġnon":2430,"Ġdel":2431,"ĠHer":2432,"Ġà¤ľà¤¨à¤¤":2433,"Ġrequ":2434,"Ġà¥¨":2435,"roll":2436,"isc":2437,"à¤²à¤µ":2438,"append":2439,"Ġav":2440,"Ġdue":2441,"Ġtelevision":2442,"Ġelection":2443,"Ġmatch":2444,"ilitary":2445,"RE":2446,"Ġsix":2447,"rew":2448,"Ġà¤®à¤¦à¤¦":2449,"ĠFrench":2450,"Ġwithin":2451,"ĠDistrict":2452,"à¤¯à¤¸":2453,"ara":2454,"Ġ50":2455,"sub":2456,"ison":2457,"alk":2458,"ides":2459,"Ġgeneral":2460,"Ġ2021":2461,"...":2462,"Ġstyle":2463,"Ġ\\":2464,"ances":2465,"Ġeduc":2466,"tra":2467,"Ġà¤¨à¤ľà¤°":2468,"ĠCup":2469,"25":2470,"ttp":2471,"abel":2472,"aly":2473,"oks":2474,"index":2475,"Ġinit":2476,"];":2477,"ummer":2478,"Ġpo":2479,"akes":2480,"));":2481,"epend":2482,"ground":2483,"à¤¸à¤¸":2484,"Ġshort":2485,"Ġep":2486,"Ġà¤ľà¤Ĺà¤¹":2487,"ouncil":2488,"Living":2489,"ribute":2490,"30":2491,"ailed":2492,"oph":2493,"ĠIndia":2494,"eek":2495,"search":2496,"ald":2497,"Ġhistory":2498,"Ġnext":2499,"Ġport":2500,"Ġmark":2501,"Ġjust":2502,"olic":2503,"na":2504,"ĠNo":2505,"omb":2506,"ĠRuss":2507,"Ġà¤°à¤ĸà¤¨":2508,"Ġage":2509,"ĠRec":2510,"Ġday":2511,"De":2512,"Ġneed":2513,"Ġla":2514,"Ġreport":2515,".,":2516,"64":2517,"Ġspecies":2518,"arried":2519,"options":2520,"à¤¦à¤®":2521,"used":2522,"reet":2523,"text":2524,"Ġà¤¶à¤ķ":2525,"à¤Ĭ":2526,"ĠWilliam":2527,"Ġorder":2528,"Ġà¤¤à¤¹à¤¤":2529,"à¤¯à¤¹":2530,"ĠHouse":2531,"à¤Łà¤®":2532,"ĠHowever":2533,"artment":2534,"ones":2535,"ently":2536,"iron":2537,"ship":2538,"Ġà¤°à¤ķ":2539,"Ġà¤ªà¤ķ":2540,"ering":2541,"Ġalign":2542,"Ġà¤¶à¤¬":2543,"cle":2544,"Or":2545,"ief":2546,"Ã³":2547,"request":2548,"Ġcar":2549,"Ġà¤ľà¤¬à¤ķ":2550,"ĠEl":2551,"Ġsk":2552,"Ġchildren":2553,"Ġsaid":2554,"Ġ189":2555,"print":2556,"itional":2557,"à¥Ģà¤Ĥà¥¤":2558,"à¤Ĺà¤¨":2559,"Ġcomplet":2560,"Ġà¤¬à¤¦à¤²":2561,"oyal":2562,"à¤°à¤«":2563,"Ġ28":2564,"à¤Ńà¤Ĺ":2565,"ĠPark":2566,"Ġà¤Ĩà¤®":2567,"à¤ķà¤Ł":2568,"Ġplayer":2569,"ĠCor":2570,"Ġcamp":2571,"à¤īà¤¨":2572,"ĠChar":2573,"Ġ26":2574,"ĠSup":2575,"ively":2576,"lob":2577,"oth":2578,"ĠNor":2579,"ocument":2580,"ĠArt":2581,"Ġsett":2582,"Ġlevel":2583,"tected":2584,"ness":2585,"{}":2586,"à¤ľà¤¸":2587,"Ġà¤¨à¤Ĺà¤°":2588,"formation":2589,"iction":2590,"Ġproject":2591,"Ġz":2592,"Ġnorth":2593,"rown":2594,"Ġstand":2595,"serv":2596,"People":2597,"Ġà¤¤à¤¤":2598,"Ġ27":2599,"Ġ2005":2600,"conom":2601,"Ġarch":2602,"action":2603,"Ġlate":2604,"24":2605,"Ġshould":2606,"oun":2607,"Ġà¤²à¤Ĺà¤¤":2608,"History":2609,"Ġequ":2610,"urther":2611,"Ġvis":2612,"rec":2613,"rap":2614,"Ġconfig":2615,"Ġà¤ªà¤°à¤®":2616,"ged":2617,"Ġà¤µà¤ľà¤¹":2618,"ĠIndian":2619,"Ġincluded":2620,"à¤°à¤ľ":2621,"Ġfive":2622,"ense":2623,"Ġvillage":2624,"itch":2625,"Ġdied":2626,"Ġlike":2627,"ĠAng":2628,"Ġdifferent":2629,"dir":2630,"rim":2631,"Ġiss":2632,"Ġ''":2633,"ĠBro":2634,"uration":2635,"aining":2636,"lin":2637,"Ġlarge":2638,"Ġgener":2639,"Ġadv":2640,"Ġà¤ĩà¤¤":2641,"Ġmen":2642,"info":2643,"etwork":2644,"uf":2645,"Ġà¤ľà¤µ":2646,"though":2647,"à¤¬à¤¹":2648,"Ġhost":2649,"ploy":2650,"Ġà¤¸à¤¨":2651,"Ġbuilding":2652,"Ġpat":2653,"As":2654,"Ġmust":2655,"à¤¥à¤¨":2656,"Ġthird":2657,"ĠChe":2658,"riend":2659,"ĠMe":2660,"ridge":2661,"Ġinstance":2662,"Ġdescribed":2663,"Ġtot":2664,"Ġdem":2665,"OR":2666,"uman":2667,"à¤¹à¤²":2668,"Ġà¤ļà¤²à¤¤":2669,"iforn":2670,"play":2671,"Ġ2000":2672,"à¤ĩà¤ķ":2673,"adio":2674,"Ġperiod":2675,"ĠLa":2676,"Request":2677,"head":2678,"__":2679,"ached":2680,"Ġcommand":2681,"ĠRiver":2682,"Ġresponse":2683,"Ġusing":2684,"inning":2685,"Ġfind":2686,"'.":2687,"Ġimp":2688,"ĠInternational":2689,"Ġbook":2690,"size":2691,"194":2692,"cast":2693,"Ġà¤¤à¤°à¤«":2694,"Set":2695,"Ġadm":2696,"Ġcrit":2697,"nection":2698,"Ġlarg":2699,"ifornia":2700,"Ġincre":2701,"thers":2702,"ÃŃ":2703,"Ġà¤°à¤µ":2704,"ĠPhil":2705,"Ġfac":2706,"jo":2707,"Ã¼":2708,"Ġstruct":2709,"SE":2710,"à¤°à¤ª":2711,"pert":2712,"Ġà¤Ĩà¤ķ":2713,"ĠEngland":2714,"à¤®à¤ļ":2715,"Ġsouth":2716,"umber":2717,"Ġtri":2718,"ĠOlymp":2719,"useum":2720,"ription":2721,"Ġà¤²à¤Ĺà¤Ńà¤Ĺ":2722,"ification":2723,"ĠAg":2724,"à¤¥à¤®":2725,"à¥¨":2726,"ours":2727,"Ġappear":2728,"alf":2729,"ĠSan":2730,"mb":2731,"olution":2732,"Ġson":2733,"ced":2734,"For":2735,"attle":2736,"Ġauthor":2737,"ront":2738,"\");":2739,"ĠDav":2740,"yl":2741,"à¤·à¤¤":2742,"Ġstill":2743,"Ġsw":2744,"Ġwar":2745,"Ġà¤¦à¤²":2746,"ops":2747,"Ġà¤īà¤²":2748,"Ġbusiness":2749,"à¤¬à¤¸":2750,"Ġthose":2751,"ateg":2752,"duct":2753,"Ġtitle":2754,"ĠYou":2755,"osed":2756,"Ġà¤µà¤ķ":2757,"rag":2758,"Object":2759,"Ġdistrict":2760,"Ġanother":2761,"Ġprevious":2762,"à¤Ĩà¤¤":2763,"Ġbest":2764,"loc":2765,"lands":2766,"Ġdoes":2767,"met":2768,"ĠAp":2769,"LE":2770,"Ġà¤¨à¤°":2771,"Ġbase":2772,"ha":2773,"à¤Ĺà¤®":2774,"arts":2775,"Ġchang":2776,"Ġwater":2777,"Ġpower":2778,"Ġà¤¨à¤ı":2779,"Ġcreate":2780,"Ġ188":2781,"ename":2782,"Ġà¤§à¤¨":2783,"Node":2784,"ait":2785,"ĠEn":2786,"point":2787,"count":2788,"Ġposs":2789,"Ġdeaths":2790,"ruction":2791,"Ġà¤¸à¤®à¤°":2792,"uments":2793,"Ġcharacter":2794,"ĠCalifornia":2795,"à¤¨à¤¦":2796,"erb":2797,"Ġkill":2798,"Man":2799,"Time":2800,"ffic":2801,"à¤ıà¤²":2802,"ME":2803,"Ġmult":2804,"Ġà¤ıà¤®":2805,"].":2806,"ica":2807,"Ġbeg":2808,"Ġfe":2809,"Ġcreated":2810,"avy":2811,"Ġtotal":2812,"Ġflo":2813,"ots":2814,"ves":2815,"ipp":2816,"Param":2817,"Ġactiv":2818,"Ġà¤µà¤¨":2819,"ius":2820,"Ġ2004":2821,"plit":2822,"ĠAustralia":2823,"ecut":2824,"ĠSch":2825,"node":2826,"Ġà¤Ńà¤Ĺà¤µ":2827,"ociety":2828,"hold":2829,"à¤¥à¤µ":2830,"Ġà¤¤à¤¸":2831,"ico":2832,"Ġmag":2833,"à¤¼à¥ĭà¤Ĥ":2834,"annel":2835,"acks":2836,"ĠRepublic":2837,"Ġexcept":2838,"urnal":2839,"oon":2840,"195":2841,"ĠĠĠĠĠĠ":2842,"Ġenc":2843,"Ġmoved":2844,"à¤¶à¤¤":2845,"ls":2846,"ĠDep":2847,"Ġmale":2848,"ĠVal":2849,"Ġvery":2850,"Ġelect":2851,"ĠAc":2852,"ĠWe":2853,"ĠAward":2854,"Ġ29":2855,"Map":2856,"mt":2857,"iber":2858,"ĠParty":2859,"ounced":2860,"à¤·à¤¦":2861,"Ġid":2862,"opy":2863,"Ġevery":2864,"Ġcountry":2865,"Ġfact":2866,"Ġà¤¸à¤ª":2867,"ĠJo":2868,"ges":2869,"CA":2870,"gcolor":2871,"aged":2872,"tes":2873,"ume":2874,"à¤¸à¤¤":2875,"ĠPer":2876,"ators":2877,"à¤£à¤¨":2878,"Ġvol":2879,"ĠThere":2880,"à¤ļà¤²":2881,"ĠMich":2882,"Mod":2883,"aff":2884,"Ġround":2885,"Ġà¤ħà¤«":2886,"à¤°à¤²":2887,"ama":2888,"Field":2889,"Ġ40":2890,"Ġrole":2891,"Ġled":2892,"Ġpe":2893,"Ġà¤ħà¤¦":2894,"Ġwest":2895,"instance":2896,"ĠBr":2897,"Ġreturned":2898,"\":":2899,"Ġnov":2900,"ugg":2901,"less":2902,"Ġmodel":2903,"Ġside":2904,"ĠAct":2905,"Ġexpl":2906,"era":2907,"ift":2908,"Tra":2909,"Ġexist":2910,"SS":2911,"omet":2912,"Ġhistor":2913,"Ġtext":2914,"Ġuser":2915,"ending":2916,"ivil":2917,"Info":2918,"Ġ{}":2919,"be":2920,"omin":2921,"Ġser":2922,"query":2923,"ories":2924,"à¤µà¤¯":2925,"Ġelement":2926,"Ġprot":2927,"Ġvoid":2928,"ĠQue":2929,"viron":2930,"ĠArmy":2931,"ials":2932,"à¥ĭà¥¤":2933,"Ġdefault":2934,"ailable":2935,"ules":2936,"Ġworks":2937,"ĠMinist":2938,"Ġà¤ĸà¤¡":2939,"Val":2940,"Ġspe":2941,"cy":2942,"osp":2943,"Ġident":2944,"Ġeven":2945,"Qu":2946,"Add":2947,"Ġbreak":2948,"rue":2949,"ĠBy":2950,"Ġbgcolor":2951,"ta":2952,"Ġaff":2953,"Ġinternational":2954,"align":2955,"uel":2956,"params":2957,"à¤ĩà¤¡":2958,"len":2959,"Ġfather":2960,"ala":2961,"ya":2962,"Ġsite":2963,"Def":2964,"order":2965,"Ġcult":2966,"Ġtrad":2967,"Ġposition":2968,"Opt":2969,"Ġeast":2970,"nder":2971,"Ġà¤¨à¤¯":2972,"Ġfem":2973,"Ġwhat":2974,"Ġsold":2975,"Att":2976,"ĠPort":2977,"Ġship":2978,"ead":2979,"Ġengine":2980,"ĠTra":2981,"UR":2982,"Ġtest":2983,"Ġtechn":2984,"ĠReturn":2985,"Context":2986,"ression":2987,"Ġgen":2988,"ibr":2989,"map":2990,"ning":2991,"Ġcommon":2992,"En":2993,"\"\"\"":2994,"Ġmiss":2995,"Ġà¤īà¤ªà¤²à¤¬":2996,"rel":2997,"ference":2998,"à¤¬à¤Ī":2999,"Ġoften":3000,"wargs":3001,"This":3002,"ump":3003,"ĠSm":3004,"Ġwebsite":3005,"Ġfre":3006,"All":3007,"state":3008,"Ġestablish":3009,"atri":3010,"Ġthough":3011,"Ġwritten":3012,"à¤¸à¤ª":3013,"unk":3014,"ĠAmeric":3015,"Ġamong":3016,"``":3017,"Ġmuch":3018,"à¤°à¤¬":3019,"protected":3020,"Ġà¤Ĺà¤¤":3021,"ĠMon":3022,"private":3023,"object":3024,"iment":3025,"aut":3026,"ique":3027,"abor":3028,"itar":3029,"BC":3030,"Ġstarted":3031,"ites":3032,"à¤¯à¤ķà¤¤":3033,"ĠRoman":3034,"Get":3035,"ivid":3036,"plate":3037,"Ġcover":3038,"call":3039,"ĠChurch":3040,"Ġaut":3041,"Ġà¤¨à¤Ī":3042,"âĢĶ":3043,"Ġdebut":3044,"nect":3045,"ĠFrance":3046,"Ġdest":3047,"iff":3048,"ĠRoyal":3049,"ension":3050,"yd":3051,"ĠQu":3052,"à¤°à¤ĸ":3053,"unicip":3054,"Ġaward":3055,"anish":3056,"à¤®à¤¸":3057,"Ġlim":3058,"Ġgrad":3059,"Ġà¤Ĭà¤ªà¤°":3060,"Ġforeach":3061,"ebug":3062,"Ġconf":3063,"Ġturn":3064,"Ġproduced":3065,"32":3066,"Ġfull":3067,"à¤µà¤°à¤£":3068,"Ġà¤¹à¤®à¤²":3069,"now":3070,"Ġeffect":3071,"Ġexper":3072,"At":3073,"Arg":3074,"ags":3075,"comm":3076,"Ġinvol":3077,"pace":3078,"à¤²à¤Ĺ":3079,"à¤²à¤ķà¤°":3080,"Ġannounced":3081,"AL":3082,"ĠBer":3083,"Ã¶":3084,"default":3085,"Ġ``":3086,"Ġà¤ĸà¤¬à¤°":3087,"Ġpolitic":3088,"response":3089,"evel":3090,"Ġconc":3091,"ael":3092,"ĠCouncil":3093,"à¤²à¤¸":3094,"Ġtyp":3095,"mar":3096,"ĠHol":3097,"Ġsent":3098,"not":3099,"Ġview":3100,"Build":3101,"Ġstat":3102,"à¤¼à¥ĭ":3103,"word":3104,"27":3105,"à¤®à¤µ":3106,"ellow":3107,"sequ":3108,"pons":3109,"Ġmax":3110,"ĠCanada":3111,"à¤µà¤ľ":3112,"28":3113,"ĠOne":3114,"Ġevents":3115,"final":3116,"à¤¹à¤¤à¤°":3117,"Ġà¤¸à¤¡":3118,"Ġcommunity":3119,"Ġcame":3120,"Ġresearch":3121,"with":3122,"Ġpri":3123,"icle":3124,"à¥©":3125,"ney":3126,"Ent":3127,"Ġ187":3128,"Ġ->":3129,"ĠAmerica":3130,"60":3131,"Ġcheck":3132,"Ġmillion":3133,"Ġepis":3134,"atter":3135,"Ġ2001":3136,"Comm":3137,"AC":3138,"uffer":3139,"iddle":3140,"Ġtw":3141,"From":3142,"Ġyoung":3143,"ania":3144,"Ġright":3145,"go":3146,"Ġ2003":3147,"Ġparent":3148,"Ġspecial":3149,"ĠBra":3150,"hand":3151,"case":3152,"Ġprim":3153,"Ġcr":3154,"ids":3155,"outhern":3156,"ĠDivision":3157,"Ap":3158,"Ġ()":3159,"ĠCom":3160,"Ġà¤¦à¤ķ":3161,"à¤ªà¤ı":3162,"alian":3163,"reek":3164,"west":3165,"posed":3166,"Ġtake":3167,"Ġsee":3168,"Ġservices":3169,"Ġ2002":3170,"Ġwent":3171,"Index":3172,"Ġvideo":3173,"Ġpres":3174,"ĠBel":3175,"Ġdevelopment":3176,"group":3177,"Ġà¤¹à¤¤":3178,"ogn":3179,">>":3180,"dict":3181,"Ġà¤ıà¤¨":3182,"Ġindex":3183,"ani":3184,"à¥Ī?":3185,"ĠRev":3186,"ustom":3187,"ilename":3188,"à¤¸à¤µ":3189,"iers":3190,"à¥¬":3191,"Ġ+=":3192,"comp":3193,"--------":3194,"Ġmer":3195,"à¤Ĺà¤¢":3196,"Ġpolitical":3197,"After":3198,"Inter":3199,"ouble":3200,"29":3201,"à¤°à¤®à¤£":3202,"Ġprint":3203,"Ġsize":3204,"Ġà¤ķà¤¬":3205,"26":3206,"Ġnode":3207,"Ġwithout":3208,"à¤Ĺà¤łà¤¨":3209,"Ġà¤ķà¤µ":3210,"Ġbas":3211,"ĠMor":3212,"Ġmarried":3213,"Ġtimes":3214,"ago":3215,"Ġ31":3216,"ainer":3217,"Ġcontext":3218,"ston":3219,"ĠAnt":3220,"flu":3221,"With":3222,"Ġvarious":3223,"stitute":3224,"bor":3225,"rote":3226,"itect":3227,"Ġregion":3228,"Ġbody":3229,"Ġappoint":3230,"ĠPresident":3231,"ilar":3232,"à¤§à¤µ":3233,"Ġbecome":3234,"à¥§":3235,"Ġway":3236,"ĠGeneral":3237,"à¥Ģ)":3238,"ĠEuropean":3239,"itive":3240,"ological":3241,"à¤ıà¤¨":3242,"wood":3243,"à¤Ńà¤°":3244,"à¤¹à¤¸":3245,"ij":3246,"ĠDr":3247,"ĠStreet":3248,"ĠAssociation":3249,"perties":3250,"Ġclaim":3251,"Ġcle":3252,"à¤¦à¤¯":3253,"men":3254,"Ġhaving":3255,"Ġins":3256,"itte":3257,"à¥Įà¤Ĥ":3258,"ville":3259,"umni":3260,"DE":3261,"iol":3262,"rant":3263,"Ġrail":3264,"ĠRed":3265,"from":3266,"cks":3267,"ĠSen":3268,"Ġà¤ķà¤¨":3269,"ittle":3270,"Ġà¤ĭ":3271,"lim":3272,"aken":3273,"40":3274,"year":3275,"eh":3276,"irc":3277,"Ġbeh":3278,"ĠTo":3279,"à¤µà¤µ":3280,"omas":3281,"acy":3282,"Array":3283,"ividual":3284,"NA":3285,"ĠEm":3286,"Acc":3287,"create":3288,"Ġtarget":3289,"Ġ2022":3290,"Ġsol":3291,"ĠGermany":3292,"à¥ª":3293,"Ġjoined":3294,"Ġmilitary":3295,"item":3296,"eal":3297,"vironment":3298,"unt":3299,"Ġà¥¤à¥¤":3300,"urb":3301,"Ġworked":3302,"Ġà¤¹à¤Ł":3303,"ways":3304,"Ġproduction":3305,"nown":3306,"message":3307,"hib":3308,"Ġintro":3309,"ĠUnion":3310,"Ġnames":3311,"ĠMount":3312,"Ġfew":3313,"hi":3314,"->_":3315,"à¤¨à¤¸à¤Ń":3316,"Ġà¤¹à¤µ":3317,"Ġproduc":3318,"Ġà¤ªà¤¸":3319,"à¥«":3320,"ocr":3321,"md":3322,"ĠPal":3323,"start":3324,"ready":3325,"ĠJames":3326,"Ġattempt":3327,"ym":3328,"ean":3329,"ĠCont":3330,"ken":3331,"asket":3332,"ĠKh":3333,"ĠTrue":3334,"Ġà¤ħà¤ľ":3335,"ĠDem":3336,"obert":3337,"ĠMal":3338,"Ġant":3339,"Ġprofessional":3340,"itu":3341,"ĠGeorge":3342,"code":3343,"pre":3344,"Ph":3345,"lient":3346,"ĠLou":3347,"IT":3348,"Ġcomb":3349,"ĠFl":3350,"Message":3351,"abled":3352,"Ġsqu":3353,"à¤µà¤¹":3354,"à¤¶à¤¨à¤²":3355,"Result":3356,"à¤¬à¤¤":3357,"Ġwin":3358,"Im":3359,"indow":3360,"Ġmy":3361,"Ġdev":3362,"ming":3363,"Ġà¤¨à¤¦":3364,"Ġà¤Ńà¤µ":3365,"ention":3366,"à¤¥à¤²":3367,"Ġcatch":3368,"Ġpoints":3369,"ĠArg":3370,"Ġà¤ħà¤ªà¤°":3371,"ĠAustralian":3372,"Ġresults":3373,"Ġreal":3374,"Ġcontrol":3375,"193":3376,"à¤ªà¤·":3377,"idth":3378,"Trans":3379,"rab":3380,"Ġà¤°à¤ĸà¤¤":3381,"Ġstory":3382,"Rec":3383,"Ġà¤ħà¤¶":3384,"Ġcond":3385,"Ġ1990":3386,"mat":3387,"ware":3388,"oll":3389,"ither":3390,"ude":3391,"++":3392,"utes":3393,"Ġpopular":3394,"aur":3395,"aign":3396,"Ġke":3397,"Ġcapt":3398,"ender":3399,"rs":3400,"ĠHall":3401,"Ġà¤Ĩà¤²":3402,"version":3403,"ples":3404,"Log":3405,"Ġopened":3406,"ĠAcc":3407,"Ġà¤°à¤¸":3408,"Ġear":3409,"pected":3410,"ashington":3411,"Ġchurch":3412,"ĠPaul":3413,"obj":3414,"Ġavailable":3415,"Ġvalues":3416,"pen":3417,"gress":3418,"itz":3419,"ĠWhen":3420,"liament":3421,"ka":3422,"Comp":3423,"ables":3424,"Ġà¤®à¤¸":3425,"Ġwrote":3426,"ĠStud":3427,"Ġvalid":3428,"State":3429,"aper":3430,"Ġgroups":3431,"ĠMiss":3432,"ĠRich":3433,"ĠChina":3434,"icy":3435,"icular":3436,"Ġstudents":3437,"**":3438,"Ġconsid":3439,"ĠPe":3440,"ĠVir":3441,"Ġhelp":3442,"Ġà¤¬à¤¯":3443,"ux":3444,"Ġinformation":3445,"ander":3446,"Ġfriend":3447,"ells":3448,"ĠSec":3449,"trans":3450,"ida":3451,"sw":3452,"model":3453,"efore":3454,"Ġoutput":3455,"dis":3456,"Ġoptions":3457,"Ġinf":3458,"rian":3459,"gin":3460,"Wh":3461,"Ġsongs":3462,"à¤ĺà¤°":3463,"Ġdays":3464,"=#":3465,"Ġpresident":3466,"ĠDes":3467,"Ġeducation":3468,"ĠCompany":3469,"urity":3470,"ked":3471,"Writ":3472,"Ġà¤ıà¤¡":3473,"Ge":3474,"earch":3475,"Ġteams":3476,"Ġlive":3477,"AN":3478,"method":3479,"Ġparticip":3480,"Eng":3481,"ini":3482,"oper":3483,"ĠSing":3484,"olean":3485,"Ġos":3486,"ĠAcadem":3487,"[\"":3488,"ributes":3489,"Ġsocial":3490,"ĠDuring":3491,"Ġhowever":3492,"Ġinvest":3493,"Ġlo":3494,"Ġinterest":3495,"event":3496,"agement":3497,"max":3498,"itted":3499,"Ġcompleted":3500,"ĠProv":3501,"anies":3502,"Ġpract":3503,"Ġroad":3504,"Ġalbums":3505,"à¥§à¥":3506,"lobal":3507,"()->":3508,"Hand":3509,"Ġhalf":3510,"ĠMag":3511,"Ġvoc":3512,"âĢĿ":3513,"Ġet":3514,"uri":3515,"Ġmid":3516,"Ġà¤®à¤ľà¤¬":3517,"ills":3518,"Ġmessage":3519,"ww":3520,"à¤¹à¤¦":3521,"ĠĠĠĠĠĠĠĠĠĠĠĠĠĠĠĠĠĠĠĠĠĠĠĠĠĠĠ":3522,"Com":3523,"Ġadminist":3524,"Ġdirector":3525,"ĠIm":3526,"rip":3527,"ising":3528,"ĠRoad":3529,"ctor":3530,"Ġ186":3531,"hel":3532,"àª":3533,"esh":3534,"Met":3535,"ĠThese":3536,"ayer":3537,"aughter":3538,"pty":3539,"oice":3540,"à¤®à¤£":3541,"ĠClub":3542,"Ġrepl":3543,"Ġà¤¦à¤¸":3544,"Ġindust":3545,"ĠMary":3546,"adata":3547,"à¤¨à¤Ī":3548,"idence":3549,"à¤°à¤ªà¤¤":3550,"ĠTown":3551,"inary":3552,"isl":3553,"ĠCourt":3554,"ittee":3555,"Ġattack":3556,"Ġpaint":3557,"Ġdeg":3558,"ĠMy":3559,"ĠÃ":3560,"Ġexample":3561,"Ġlanguage":3562,"Ġbroad":3563,"ĠMex":3564,"content":3565,"ranch":3566,"Pr":3567,"Ġhold":3568,"craft":3569,"Ġsource":3570,"Ġà¤Ĩà¤ĸ":3571,"à¤ªà¤£":3572,"à¤ªà¤²":3573,"Ġeconom":3574,"://":3575,"Ġfootballers":3576,"';":3577,"Ġ1999":3578,"ira":3579,"ibrary":3580,"rain":3581,"inese":3582,"Ġdi":3583,"Ġtrack":3584,"Ġrow":3585,"Ġlost":3586,"ali":3587,"Int":3588,"icles":3589,"oted":3590,"roy":3591,"Ġaver":3592,"Ġdiv":3593,"Ġà¤ħà¤Ĺà¤²":3594,"ĠCenter":3595,"Response":3596,"Loc":3597,"rd":3598,"atural":3599,"Client":3600,"Ass":3601,"Ġrelations":3602,"no":3603,"Ġaction":3604,"Ġmap":3605,"Service":3606,"write":3607,"Ġparty":3608,"Ġ1980":3609,"à¤¼à¥į":3610,"uit":3611,"ota":3612,"Ġlength":3613,"ĠGroup":3614,"ĠMusic":3615,"Ġconsidered":3616,"Ġà¥§":3617,"Ġsimilar":3618,"ele":3619,"run":3620,"Ġà¤ķà¤°à¤µ":3621,"à¥ģà¤ģ":3622,"ky":3623,"Ġcontinued":3624,"Ġrelease":3625,"ability":3626,"mon":3627,"uture":3628,"AP":3629,"Ġmar":3630,"II":3631,"rl":3632,"cis":3633,"ĠWith":3634,"current":3635,"Ġarr":3636,"ctx":3637,"ĠKingdom":3638,"sl":3639,"ĠGames":3640,"plication":3641,"à¤¾'":3642,"ĠFirst":3643,"Ġred":3644,"ceed":3645,"à¤ªà¤®":3646,"Ġà¤ıà¤ľ":3647,"Ġrev":3648,"Ġcollection":3649,"Ġcert":3650,"last":3651,"iple":3652,"à¤¦à¤ķ":3653,"ĠHen":3654,"ĠLaw":3655,"ifier":3656,"ĠSociety":3657,"ula":3658,"ili":3659,"itory":3660,"Ġaccess":3661,"db":3662,"ĠPri":3663,"Ġfounded":3664,"ils":3665,"Ġà¤īà¤¸à¤¸":3666,"ĠMart":3667,"Ġareas":3668,"ĠBlack":3669,"asketball":3670,"FA":3671,"ails":3672,"igned":3673,"ĠDavid":3674,"ĠHistor":3675,"Ġindividual":3676,"Ġsigned":3677,"context":3678,"Form":3679,"andid":3680,"ensus":3681,"ably":3682,"ĠCanadian":3683,"ĠIsland":3684,"join":3685,"ĠWashington":3686,"ĠInstitute":3687,"names":3688,"ishing":3689,"ched":3690,"Ġà¤ªà¤ķà¤¡":3691,"Ġelected":3692,"host":3693,"Ġ...":3694,"Ġdecl":3695,"='":3696,"aker":3697,"arian":3698,"ĠNe":3699,"Ġhon":3700,"ĠList":3701,"ging":3702,"Ġalready":3703,"Ġfurther":3704,"à¤ļà¤ķ":3705,"ĠOlympics":3706,"Film":3707,"Ġless":3708,"Ġrecorded":3709,"ĠTrans":3710,"Ġà¤ıà¤²":3711,"Ġà¤ħà¤µà¤¸à¤°":3712,"estival":3713,"Ġlow":3714,"ĠRecords":3715,"Ġdirected":3716,"Group":3717,"table":3718,"Ġsurv":3719,"Ġwife":3720,"ona":3721,"EN":3722,"Ġtoget":3723,"ential":3724,"Ġtogether":3725,"Ġcompos":3726,"ĠArch":3727,"à¤ľà¤ķ":3728,"Element":3729,"Ġworking":3730,"ĠSummer":3731,"reate":3732,"left":3733,"Ġà¤ķà¤Ł":3734,"burg":3735,"à¤¦à¤Ĺ":3736,"ulated":3737,"à¤ªà¤¦":3738,"Ġcast":3739,"ership":3740,"Ġgood":3741,"arter":3742,"olit":3743,"Ġsports":3744,"nel":3745,"rame":3746,"ends":3747,"airs":3748,"ictor":3749,"Ġstatus":3750,"ĠSam":3751,"à¤®à¤Ĺ":3752,"Ġcontinue":3753,"arl":3754,"Ġà¤¤à¤²":3755,"Ġtable":3756,"ĠReturns":3757,"Ġ1998":3758,"aries":3759,"80":3760,"Ġcoach":3761,"Ġreview":3762,"ĠRail":3763,"Ġinflu":3764,"rish":3765,"ĠMet":3766,"Ġparticular":3767,"tem":3768,"ĠCath":3769,"à¤§à¤¤":3770,"center":3771,"Ġà¤īà¤¸à¤®":3772,"Ġsepar":3773,"Ġ**":3774,"Ġalumni":3775,"à¤ľà¤Ĺ":3776,"client":3777,"ĠGl":3778,"ero":3779,"berg":3780,"asc":3781,"Ġten":3782,"Ġweek":3783,"à¤¹à¤ķ":3784,"uz":3785,"Ġclose":3786,"bert":3787,"Ġnovel":3788,"has":3789,"Ġdat":3790,"Ġ60":3791,"ependent":3792,"json":3793,"ormal":3794,"à¤ĸà¤°":3795,"Ġcoll":3796,"Ġà¥©":3797,"ĠTV":3798,"Ġassoci":3799,"Ġprovided":3800,"Ġappointed":3801,"down":3802,"Out":3803,"ements":3804,"ĠMont":3805,"à¤ıà¤«":3806,"ĠPress":3807,"SC":3808,"Ġimportant":3809,"Ġà¤ħà¤¥à¤µ":3810,"debug":3811,"urnament":3812,"Ġofficial":3813,"ĠAfrican":3814,"Ġdeveloped":3815,"Ġleague":3816,"Ġrace":3817,"ĠMuseum":3818,"Ġà¤¸à¤¹à¤¯":3819,"thlet":3820,"Ġsec":3821,"ĠDepartment":3822,"Ġreported":3823,"rated":3824,"Event":3825,"Ġaddition":3826,"istic":3827,"atal":3828,"azine":3829,"tml":3830,"à¤°à¤ļ":3831,"ĠAcademy":3832,"rig":3833,"Ġblock":3834,"values":3835,"och":3836,"Ġguitar":3837,"Ġhow":3838,"Ġà¤®à¤²":3839,"Ġargs":3840,"Ġanim":3841,"alls":3842,"Ġappeared":3843,"Ġkm":3844,"Mar":3845,"Ġinput":3846,"Ġà¤ªà¤°à¤¨":3847,"Ġhuman":3848,"ourse":3849,"Ġsuccessful":3850,"Ġà¤Ĩà¤ķà¤°":3851,"Ġcode":3852,"Ġbi":3853,"Ġfund":3854,"Ġcolumn":3855,"ĠClass":3856,"ĠSl":3857,"Ġu":3858,"ĠAngel":3859,"null":3860,"ĠJapanese":3861,"Ġput":3862,"build":3863,"Ġelif":3864,"most":3865,"umm":3866,"Ġbirth":3867,"Ġdocument":3868,"Ġmaking":3869,"ĠCentral":3870,"Ġ185":3871,"Ġjob":3872,"Ġmot":3873,"band":3874,"Ġphot":3875,"ĠTur":3876,"oney":3877,"Ġmeet":3878,"atives":3879,"Ġformed":3880,"ĠâĢľ":3881,"gen":3882,"Ġ'''":3883,"Ġnews":3884,"Ġphys":3885,"à¤Ĥà¥¤":3886,"Ġgrow":3887,"exas":3888,"ixed":3889,"ĠVol":3890,"ospital":3891,"Ġà¤¸à¤ľ":3892,"ounter":3893,"Ġcontract":3894,"à¤ĩà¤¯":3895,"Ġoffer":3896,"à¤²à¤®":3897,"ĠZeal":3898,"Reg":3899,"Ġstudy":3900,",\"":3901,"Ġoffice":3902,"ilities":3903,"parent":3904,"ply":3905,"Te":3906,"Ġhous":3907,"ederal":3908,"Of":3909,"ĠCong":3910,"User":3911,"Ġ1970":3912,"à¤¯à¤°à¤²":3913,"duction":3914,"Ġteach":3915,"IC":3916,"Ġ>>>":3917,"ĠSim":3918,"Ġground":3919,"Ġformat":3920,"ises":3921,"ires":3922,"Ġord":3923,"level":3924,"Ġcur":3925,"Sp":3926,"Le":3927,"Ġfire":3928,"ĠGet":3929,"Ġnever":3930,"ĠZealand":3931,"Ġà¤ªà¤Ł":3932,"Ġder":3933,"ĠJew":3934,"Ġgradu":3935,"Ġà¤¤à¤®":3936,"Ġmater":3937,"Ġ1996":3938,"Ġothers":3939,"ĠGrand":3940,"known":3941,"Ġà¤¹à¤²":3942,"Ġrock":3943,"And":3944,"Ġvict":3945,"Ġ!==":3946,"imately":3947,"ĠDon":3948,"Ġmem":3949,"ĠFootball":3950,"Ġemploy":3951,"Ġrecogn":3952,"à¥ī.":3953,"Ġstar":3954,"edy":3955,"output":3956,"ĠAfrica":3957,"ĠFalse":3958,"Ġà¤ķà¤¥":3959,"à¤§à¤ķ":3960,"pond":3961,"à¤Ļ":3962,"ĠItalian":3963,"ĠNews":3964,"Status":3965,"Ġschools":3966,"ened":3967,"Ġdate":3968,"à¥Ń":3969,"ada":3970,"imate":3971,"ĠCommun":3972,"ria":3973,"Ġarchitect":3974,"api":3975,"thing":3976,"ĠÐ":3977,"ĠĠĠĠĠĠĠĠĠĠĠĠĠĠĠĠĠĠĠĠĠĠĠĠ":3978,"Ġgreat":3979,"Ġà¤ªà¤¹à¤ļ":3980,"ensive":3981,"ano":3982,"Ġà¤¶à¤¨":3983,"Is":3984,"ĠMad":3985,"ĠFilm":3986,"():":3987,"struct":3988,"Ġmedal":3989,"Ġsuff":3990,"kwargs":3991,"Ġ(\"":3992,"refix":3993,"Ġcross":3994,"Ġà¤īà¤ªà¤¸":3995,"ĠMinister":3996,"Ġnp":3997,"Ġaverage":3998,"Ġfree":3999,"Sub":4000,"check":4001,"ponent":4002,"ĠSal":4003,"rade":4004,"arning":4005,"ĠBay":4006,"Ġacross":4007,"Ġsignific":4008,"à¤Ĺà¤¡":4009,"Ġmother":4010,"ĠWestern":4011,"Count":4012,"ducation":4013,"à¤¹à¤°à¤£":4014,"à¤¥à¤ķ":4015,"ena":4016,"ĠDef":4017,"Ġblack":4018,"ĠBest":4019,"Ġbool":4020,"Ġhimself":4021,"Ġcal":4022,"ĠMac":4023,"99":4024,"annot":4025,"ores":4026,"token":4027,"ION":4028,"à¤®à¤¹":4029,"sg":4030,"reland":4031,"filter":4032,"base":4033,"atory":4034,"orage":4035,"Ġ1997":4036,"net":4037,"Ġbecom":4038,"Ã¤":4039,"ĠLouis":4040,"Ġproperty":4041,"à¤ĸà¤ķà¤°":4042,"sec":4043,"ĠVirgin":4044,"Ġà¤¦à¤¬":4045,"Ġassist":4046,"keys":4047,"John":4048,"ĠScott":4049,"iding":4050,"ĠGold":4051,"usical":4052,"Ġpay":4053,"ĠDel":4054,"Ġmodern":4055,"ĠLeg":4056,"ĠYear":4057,"IP":4058,"Ġchange":4059,"lv":4060,"Ġexecut":4061,"status":4062,"Ġstations":4063,"Ġfeatures":4064,"uses":4065,"cer":4066,"stand":4067,"idae":4068,"à¥®":4069,"mark":4070,"ĠMod":4071,"TE":4072,"Ser":4073,"Ġadded":4074,"stra":4075,"Ġcampaign":4076,"Code":4077,"Ġcontent":4078,"ĠHind":4079,"Ġcompanies":4080,"empty":4081,"oz":4082,"à¤Ľà¤¤":4083,"Ġwant":4084,"ĠThomas":4085,"Ġwhe":4086,"oul":4087,"à¤¡à¤¨":4088,"shire":4089,"Ġliter":4090,"Ġproduct":4091,"Ġà¤¨à¤ķ":4092,"Ġradio":4093,"http":4094,"umer":4095,"rc":4096,"Ġmunicip":4097,"Ġqual":4098,"à¤ľà¤®":4099,"Stream":4100,"Ġdaughter":4101,"heast":4102,"ĠInter":4103,"Up":4104,"Ġspace":4105,"aves":4106,"Em":4107,"ĠAlex":4108,"dec":4109,"Ġrequired":4110,"Ġbuildings":4111,"Ġtro":4112,"input":4113,"ĠTexas":4114,"cial":4115,"Ġstage":4116,"ĠRussian":4117,"Ġonce":4118,"ycl":4119,"Ġfoc":4120,"True":4121,"Ġeither":4122,"Ġà¤¦à¤µ":4123,"\";":4124,"ĠRobert":4125,"Ġà¤ħà¤¹à¤®":4126,"Ġcost":4127,"embly":4128,"RO":4129,"atre":4130,"pite":4131,"replace":4132,"ĠUK":4133,"Ġà¤ħà¤ĸ":4134,"Ġfront":4135,"à¤ľà¤µ":4136,"Ġide":4137,"chan":4138,"Ġmissing":4139,"ams":4140,"Ġplaying":4141,"aps":4142,"Ġeight":4143,"ĠDay":4144,"Ġaway":4145,"ĠMark":4146,"Ġepisode":4147,"utch":4148,"ĠChristian":4149,"rey":4150,"Ġperformed":4151,"Ġbelie":4152,"à¤¾à¤ĥ":4153,"ii":4154,"ĠChinese":4155,"Ġstrong":4156,"ĠCarol":4157,"ribution":4158,"abase":4159,"\"]":4160,"istics":4161,"Ġ35":4162,"Ġlight":4163,"board":4164,"'],":4165,"ĠGreat":4166,"Ġwriter":4167,"column":4168,"US":4169,"ican":4170,"Size":4171,"Ġ1992":4172,"eff":4173,"ĠGo":4174,"à¤¦à¤²":4175,"Ġproble":4176,"Ġurl":4177,"70":4178,"Ġincludes":4179,"90":4180,"inner":4181,"enced":4182,"à¤¦à¤¸":4183,"Ġaccount":4184,"Ġtransl":4185,"à¤¨à¤ķà¤°":4186,"Ġdict":4187,"udd":4188,"cret":4189,"ĠFrom":4190,"hood":4191,"ĠCharles":4192,"Ġfinished":4193,"Ġ1995":4194,"Ġtaken":4195,"Ġà¤ļà¤°à¤£":4196,"ĠKore":4197,"olf":4198,"oviet":4199,"LO":4200,"[:":4201,"à¤¦à¤¬":4202,"km":4203,"Ġplan":4204,"Ġisinstance":4205,"ĠDo":4206,"chie":4207,"Ġliving":4208,"Ġnor":4209,"à¤°à¤¥à¤®":4210,"PA":4211,"arser":4212,"ĠHam":4213,"porary":4214,"Desc":4215,"ients":4216,"imum":4217,"attr":4218,"Ġacqu":4219,"erry":4220,"Ġflow":4221,"ĠPat":4222,"ki":4223,"py":4224,"Ġmonths":4225,"Ġperformance":4226,"Ġaccept":4227,"overnor":4228,"da":4229,"Ġknow":4230,"à¤ĩà¤µ":4231,"ĠNot":4232,"FC":4233,"ĠDemocr":4234,"à¤°à¤Ĺ":4235,"Ġprivate":4236,"Ġalthough":4237,".\"\"\"":4238,"à¤£à¤¯":4239,"35":4240,"part":4241,"match":4242,"Ġà¤«à¤²":4243,"Ġviol":4244,"isset":4245,"====":4246,"à¤®à¤¯":4247,"iting":4248,"Sy":4249,"elling":4250,"à¤ĩà¤ľ":4251,"Ġload":4252,"à¤«à¤°":4253,"zil":4254,"istan":4255,"Ġfemale":4256,"ado":4257,"Ġimage":4258,"Ġ1960":4259,"rael":4260,"Ġthrows":4261,"bre":4262,"ĠCatholic":4263,"Ġleast":4264,"Ġdon":4265,"road":4266,"Ġ1994":4267,"medi":4268,"190":4269,"Ġstop":4270,"Ġà¤Ĩà¤¦à¤®":4271,"Ġdram":4272,"child":4273,"Ġmedia":4274,"Ġplaces":4275,"ection":4276,"Ġhealth":4277,"Ġconstruction":4278,"Ġregular":4279,"la":4280,"uggest":4281,"position":4282,"Table":4283,"ura":4284,".)":4285,"ĠPenn":4286,"Ġtre":4287,"ategory":4288,"Ġ]":4289,"update":4290,"ought":4291,"Ġà¤Ĺà¤²à¤¤":4292,"ns":4293,"ĠUp":4294,"Ġjournal":4295,"Ġmount":4296,"à¤µà¤Ł":4297,"ĠWhite":4298,"ackage":4299,"à¤µà¤ļ":4300,"à¤µà¤¶":4301,"Ġà¤¬à¤¨à¤¨":4302,"No":4303,"oud":4304,"Ġgave":4305,"ql":4306,"ET":4307,"Ġnetwork":4308,"Ġbar":4309,"Ġfight":4310,"iqu":4311,"Ġà¤ķà¤ł":4312,"à¤ķà¤ª":4313,"ressed":4314,"language":4315,"Ġinj":4316,"Ġdefe":4317,"à¥ĩà¤Ĥ.":4318,"oke":4319,"Ġtour":4320,"Ġentry":4321,"AS":4322,"org":4323,"Ġfollowed":4324,"CT":4325,"Query":4326,"xy":4327,"Ġà¤ļà¤ķ":4328,"33":4329,"cache":4330,"rate":4331,"ĠGreen":4332,"Builder":4333,"Ġimpro":4334,"Ġseen":4335,"à¤µà¤§":4336,"ĠParis":4337,"Ġà¤®à¤Ī":4338,"azz":4339,"like":4340,"igan":4341,"aval":4342,"Manager":4343,"Ġbooks":4344,"à¤Łà¤«":4345,"Ġfig":4346,"Ġshows":4347,"Ġrelig":4348,"oma":4349,"erve":4350,"45":4351,"Ġcandid":4352,"49":4353,"Ġinstead":4354,"exists":4355,"Ġkilled":4356,"idents":4357,"Ġindic":4358,"inition":4359,"ĠFrancis":4360,"Ġà¤¤à¤¨":4361,"à¤¨à¤ª":4362,"Ġgoal":4363,"ĠForce":4364,"printf":4365,"ita":4366,"Ġà¤īà¤¡":4367,"Ġparts":4368,"icago":4369,";\"":4370,"Ġà¤¹à¤¸":4371,"à¤ķà¤µ":4372,"sych":4373,"Ġstates":4374,"Ġcurrently":4375,"ishop":4376,"Ġconduct":4377,"ĠTor":4378,"Ġlet":4379,"Ġsil":4380,"Ġpolitician":4381,"ĠSmith":4382,"Ġagre":4383,"Ġ1993":4384,"Ġmarket":4385,"DO":4386,"ĠLat":4387,"Ġestablishments":4388,"ĠDirect":4389,"Par":4390,"à¤¯à¤°à¤¸":4391,"sort":4392,"Ġpage":4393,"Ġà¤Ĺà¤£":4394,"à¤¤à¤¤":4395,"ĠService":4396,"Ġerrors":4397,"elt":4398,"Ed":4399,"equ":4400,"Ġtraining":4401,"End":4402,"Ġà¤¸à¤¬à¤ķ":4403,"Ġ1991":4404,"ĠInt":4405,"Ġabove":4406,"((":4407,"Ġbrother":4408,"ny":4409,"ilies":4410,"ĠIreland":4411,"Ġleading":4412,"Ġaud":4413,"Ġà¤ĸà¤¤":4414,"ockey":4415,"Ġà¤¤à¤¯":4416,"Ġlook":4417,"Ġà¤ħà¤µà¤§":4418,"ĠPan":4419,"anta":4420,"amples":4421,"Ġà¤®à¤¶":4422,"Ġdesigned":4423,"atform":4424,"uan":4425,"Ġà¤Ńà¤ķ":4426,"Exp":4427,"Ġsection":4428,"target":4429,"à¤ħà¤¸à¤²":4430,"oms":4431,"English":4432,"Ġcenter":4433,"see":4434,"Ġartists":4435,"Ġlargest":4436,"FI":4437,"source":4438,"ĠVictor":4439,"Ġsubject":4440,"Ġitem":4441,"Ġsem":4442,"Ġoriginally":4443,"ros":4444,"ĠMer":4445,"à¤¯à¤ķà¤°":4446,"ĠBill":4447,"à¤¾)":4448,"à¤¨à¤Ł":4449,"Ġsound":4450,"Ġmean":4451,"Äģ":4452,"Method":4453,"CO":4454,"Ġentire":4455,"||":4456,"Early":4457,"page":4458,"ĠFlor":4459,"people":4460,"Ġconsist":4461,"Ġremov":4462,"ola":4463,"Options":4464,"BA":4465,"Ġpossible":4466,"actory":4467,"Ġable":4468,"eck":4469,"change":4470,"à¤Ĺà¤²à¤µ":4471,"Ġdam":4472,"ella":4473,"à¤·à¤®":4474,"ĠChampionships":4475,"Ġcourt":4476,"oe":4477,"cons":4478,"Ġconvert":4479,"False":4480,"Ġà¤°à¤ļà¤¨":4481,"Ġà¤ľà¤¨à¤µà¤°":4482,"Ġill":4483,"Spec":4484,"Ġà¤ĩà¤ļ":4485,"à¤²à¤¹":4486,"Ġà¤¶à¤¤":4487,"à¤¯à¤µà¤¹":4488,"Che":4489,"Can":4490,"Ġforce":4491,"ĠHenry":4492,"Ġawarded":4493,"ĠFore":4494,"ML":4495,"Ġà¤ĸà¤¤à¤°":4496,"2010":4497,"Ġactive":4498,"Ġsinger":4499,"ands":4500,"Ġquery":4501,"Ġvia":4502,"Ġremained":4503,"amily":4504,"ras":4505,"Notes":4506,"tit":4507,"Ġfeatured":4508,"Ġinstanceof":4509,"Ġà¤ĩà¤®":4510,"Ġinstit":4511,"Ġaircraft":4512,"ĠMichael":4513,"Ġunits":4514,"Ġseven":4515,"ĠSpanish":4516,"Ġforces":4517,"Ġpolice":4518,"Ġsignificant":4519,"Ġsuggest":4520,"Ġoccur":4521,"Ġrespons":4522,"aches":4523,"mpire":4524,"Ġcivil":4525,"ĠSuper":4526,"Ġge":4527,"ĠSet":4528,"Ġpress":4529,"Token":4530,"Ġ_,":4531,"à¤ĩà¤¸à¤ķ":4532,"Ġdom":4533,"à¤¤à¤²":4534,"ĠSer":4535,"Ġrights":4536,"ĠMass":4537,"dat":4538,"Ġes":4539,"ĠAdd":4540,"Ġwhite":4541,"Ġpassed":4542,"Ġà¤īà¤¨à¤¸":4543,"tx":4544,"Ġreplaced":4545,"ĠWil":4546,"Ġà¤°à¤ľ":4547,"à¤·à¤®à¤¤":4548,"Ġcharacters":4549,"Ġà¤ĩà¤ķ":4550,"à¤Ĺà¤¦":4551,"Ġgl":4552,"Ġà¤ªà¤²":4553,"ĠJose":4554,"Ġjud":4555,"tag":4556,"Ġ2023":4557,"Ġpast":4558,"Ġlines":4559,"ĠWomen":4560,"ication":4561,"asing":4562,"Ġà¤ķà¤¡":4563,"Ġrespect":4564,"ĠRock":4565,"ĠBut":4566,"Ġallowed":4567,"à¤¾?":4568,"oding":4569,"ugby":4570,"IS":4571,"Ġdiff":4572,"Ġearli":4573,"à¤ļà¤¯":4574,"Ġthroughout":4575,"iences":4576,"Ġfailed":4577,"Ġconv":4578,"Util":4579,"process":4580,"ĠLos":4581,"Ã¨":4582,"Ġvers":4583,"range":4584,"Ġsen":4585,"Ġdiscover":4586,"à¤ħà¤ª":4587,"Ġdouble":4588,"Ġmeas":4589,"à¤¤à¤ļ":4590,"'])":4591,"ĠLake":4592,"ving":4593,"Ġlocation":4594,"eria":4595,"ios":4596,"Ġsuper":4597,"eds":4598,"ĠRegister":4599,"olk":4600,"ĠCommission":4601,"items":4602,"split":4603,"evelop":4604,"à¤ľà¤¬":4605,"à¤µà¤ľà¤¨":4606,"iginal":4607,"Ġartist":4608,"Url":4609,"Ġsubsequ":4610,"ĠVirginia":4611,"Ġdeterm":4612,"Over":4613,"Model":4614,"ĠHill":4615,"à¤¥à¤°":4616,"ein":4617,".__":4618,"Ġcred":4619,"Ġclient":4620,"à¤ļà¤¤":4621,"Ġmatches":4622,"incip":4623,"Ġpur":4624,"mi":4625,"Ġeventually":4626,"hest":4627,"roller":4628,"UT":4629,"ugin":4630,"orpor":4631,"FF":4632,"Content":4633,"Ġcirc":4634,"clus":4635,"Ġstream":4636,"Ġlisted":4637,"stream":4638,"Ġut":4639,"irt":4640,"do":4641,"Ġboard":4642,"à¤ľà¤§":4643,"Ġà¤¹à¤®à¤¨":4644,"Ġfmt":4645,"à¤¯à¤¯à¤¨":4646,"irl":4647,"ĠSwed":4648,"Ġ45":4649,"icro":4650,"ulty":4651,"Ġplant":4652,"Ġà¤īà¤¨à¤®":4653,"ĠOrder":4654,"Ġinvolved":4655,"à¤¤à¤ľ":4656,"irm":4657,"ĠOff":4658,"ĠFrank":4659,"Ġren":4660,"ĠCamp":4661,"ufact":4662,"Ġcountries":4663,"Ġbroadcast":4664,"Ġscored":4665,"sel":4666,"Ġà¤ĩà¤¨à¤®":4667,"Ġloss":4668,"arth":4669,"Ġsequ":4670,"PE":4671,"ĠMel":4672,"arr":4673,"Ġgold":4674,"oring":4675,"eger":4676,"AD":4677,"ca":4678,"rupt":4679,"ĠSystem":4680,"Ġlabel":4681,"Ġparams":4682,"alys":4683,"ĠBen":4684,"rial":4685,"Ġcontains":4686,"ĠNavy":4687,"ua":4688,"za":4689,"unch":4690,"ĠArts":4691,"Ġintroduced":4692,"Ġupdate":4693,"typ":4694,"ĠObject":4695,"erous":4696,"75":4697,"ĠOb":4698,"mbol":4699,"Ġste":4700,"eve":4701,"Ġpot":4702,"Ġcentral":4703,"Ġà¤ĵà¤µà¤°":4704,"Ġhousehold":4705,"find":4706,"ĠDan":4707,"ava":4708,"Ġstated":4709,"à¥Ģ'":4710,"pass":4711,"element":4712,"ĠMin":4713,"([":4714,"files":4715,"exp":4716,".'":4717,"vis":4718,"ĠHistory":4719,"rypt":4720,"asy":4721,"ibility":4722,"body":4723,"ĠScot":4724,"Ġà¤īà¤°":4725,"Ġreason":4726,"cing":4727,"ĠCast":4728,"byte":4729,"Ġcollege":4730,"à¤ĩà¤®":4731,"Ġdegree":4732,"Ġcanc":4733,"ĠMexico":4734,"ĠChicago":4735,"uj":4736,"Ġ1988":4737,"Ġtreat":4738,"ĠParliament":4739,"Ð¾":4740,"Ġactress":4741,"ĠMa":4742,"TV":4743,"Dir":4744,"istry":4745,"Ġjson":4746,"ĠĠĠĠĠĠĠĠĠĠĠĠĠ":4747,"Ġobj":4748,"MA":4749,"Ġà¤ķà¤¦à¤®":4750,"spec":4751,"king":4752,"uster":4753,"ĠRichard":4754,"block":4755,"ĠGovernment":4756,"Ġtransfer":4757,"ario":4758,"Ġchanged":4759,"ĠIll":4760,"ĠPeter":4761,"urd":4762,"Ġ1989":4763,"parse":4764,"resh":4765,"arned":4766,"ĠSecond":4767,"oo":4768,"Åį":4769,"Ġboolean":4770,"Ġwriters":4771,"ĠÂ":4772,"FL":4773,"alle":4774,"Ġtax":4775,"Ġcritic":4776,"post":4777,"MP":4778,"ĠAtl":4779,"ĠLu":4780,"Ġdraw":4781,"Ġfourth":4782,"Ã³n":4783,"Ġreached":4784,"init":4785,"oute":4786,"Ġcompetition":4787,"Ġà¤ķà¤®à¤°":4788,"Ġwrite":4789,"Bl":4790,"Ġprovide":4791,"bb":4792,"Ġ80":4793,"ting":4794,"Ġupon":4795,"Ġneg":4796,"48":4797,"Ġesc":4798,"Ġfollows":4799,"à¤°à¤¹à¤£":4800,"Ġinitial":4801,"ĠRob":4802,"Ġunit":4803,"ĠJust":4804,"ĠGeorg":4805,"à¤ķà¤®":4806,"Ġà¤Ĩà¤ł":4807,"National":4808,"ĠProvince":4809,"Call":4810,"antic":4811,"ĠOut":4812,"rics":4813,"ĠItaly":4814,"ih":4815,"Ġà¤ħà¤Ĺà¤¸":4816,"Ġens":4817,"ĠGra":4818,"Ġmultiple":4819,"Ġappend":4820,"Ġà¤¸à¤«à¤²à¤¤":4821,"Ġ36":4822,"ĠAngeles":4823,"Ġusually":4824,"ĠCommittee":4825,"Ġstep":4826,"Names":4827,"iana":4828,"ye":4829,"Version":4830,"Career":4831,"fields":4832,"Ġà¤Ľà¤¹":4833,"TP":4834,"Ġconstruct":4835,"ĠSqu":4836,"Ġprimary":4837,"urt":4838,"ades":4839,"filename":4840,"There":4841,"ĠCongress":4842,"ping":4843,"yth":4844,"ether":4845,"ĠValue":4846,"Ġbound":4847,"Ġstructure":4848,"encies":4849,"Ġfar":4850,"Item":4851,"ĠMus":4852,"à¤ĸà¤²":4853,"Ġcommer":4854,"Property":4855,"Ġhom":4856,"Ġrelated":4857,"Ġapprox":4858,"Ġ});":4859,"Ġà¤Ńà¤²":4860,"based":4861,"à¤¿-":4862,"Ġlower":4863,"aled":4864,"Char":4865,"msg":4866,"Med":4867,"Ġfav":4868,"Ġreading":4869,"'))":4870,"ĠGod":4871,"lines":4872,"ĠFestival":4873,"à¤¬à¤¦":4874,"sylv":4875,"Ġachie":4876,"Ġclos":4877,"entity":4878,"Ġà¤Īà¤¶":4879,"Ġroute":4880,"ube":4881,"ĠSoviet":4882,"Ġcomput":4883,"Ġsch":4884,"Back":4885,"apping":4886,"verse":4887,"ĠHistoric":4888,"Am":4889,"Ġmass":4890,"Ġsitu":4891,"Ġbasketball":4892,"Handler":4893,"etch":4894,"rought":4895,"ĠWales":4896,"ĠIsrael":4897,"2000":4898,"Ġplaced":4899,"ĠScience":4900,"Ġenvironment":4901,"Ġfeature":4902,"sylvania":4903,"aud":4904,"ector":4905,"Fl":4906,"Ġcut":4907,"ĠPublic":4908,"Ġ70":4909,"Ġfuture":4910,"Ġdestroy":4911,"ĠWhile":4912,"Ġlogger":4913,"adium":4914,"entry":4915,"Ð°":4916,"Ġneigh":4917,"ien":4918,"lector":4919,"Ġà¤Ĩà¤ļ":4920,"Ġà¤ķà¤¶":4921,"Ġcou":4922,"Ġresource":4923,"Ġclosed":4924,"ĠMo":4925,"Ġleader":4926,"eleb":4927,"Ġaddress":4928,"Ġreb":4929,"resource":4930,"Ġà¤¸à¤¸":4931,"38":4932,"Ġfunc":4933,"Ġabs":4934,"Ġhere":4935,"ride":4936,"Ġwhose":4937,"ĠĠĠĠĠĠĠĠĠĠĠĠ":4938,"ĠTechn":4939,"Ġfall":4940,"Ġsupported":4941,"à¤īà¤¸":4942,"gl":4943,"aring":4944,"ĠFound":4945,"Ġà¤¨à¤®":4946,"Ġsession":4947,"]);":4948,"à¤®à¤ª":4949,"URL":4950,"Ġà¤ĳà¤¸":4951,"session":4952,"Ġvocals":4953,"She":4954,"Ġtravel":4955,"ĠFlorida":4956,"where":4957,"arily":4958,"Resource":4959,"36":4960,"Ġsaw":4961,"elled":4962,"Äĩ":4963,"Read":4964,"Ġour":4965,"Ġvot":4966,"Ġactor":4967,"Ġrunning":4968,"plied":4969,"ĠCount":4970,"fficial":4971,"Ġfrequ":4972,"Ġcapital":4973,"Ġcustom":4974,"Ġ1950":4975,"num":4976,"ĠSome":4977,"Ġà¥ª":4978,"ette":4979,"ĠSk":4980,"Ġrelationship":4981,"mission":4982,"Ø§":4983,"ĠSur":4984,"well":4985,"Ġà¤®à¤ķ":4986,"à¤ħà¤²à¤Ĺ":4987,"à¤¯à¤£":4988,"47":4989,"Person":4990,"ĠAwards":4991,"ĠSaint":4992,"SON":4993,"à¤ªà¤Ł":4994,"Ġà¤Ńà¤¯":4995,"Ġnight":4996,"aying":4997,"Ġnatural":4998,"ĠDu":4999,"Ġexhib":5000,"service":5001,"bit":5002,"Ġpreviously":5003,"Ġà¤¨à¤ľ":5004,"ĠOper":5005,"ĠAccording":5006,"irection":5007,"ongs":5008,"bl":5009,"han":5010,"MS":5011,"Ġ1984":5012,"ĠIts":5013,"uation":5014,"Ġ1987":5015,"bur":5016,"à¤ĸà¤ķ":5017,"ighest":5018,"Ġmeans":5019,"Ġstre":5020,"Ġ--":5021,"Ġ*/":5022,"iro":5023,"ĠMil":5024,"ĠCarolina":5025,"chema":5026,"ĠOh":5027,"Ġhapp":5028,"Don":5029,"ĠSub":5030,"ultural":5031,"Ġdig":5032,"anced":5033,"Ġ1986":5034,"Ġinstall":5035,"Ġfiles":5036,"Ġok":5037,"Entry":5038,"Ġrailway":5039,"Ġadditional":5040,"ordin":5041,"ulture":5042,"Ġlik":5043,"à¤¡à¤ķ":5044,"Ġbelow":5045,"iano":5046,"ĠBrazil":5047,"ora":5048,"Instance":5049,"Ġtournament":5050,"Ġfloat":5051,"Ġkeep":5052,"ĠSecret":5053,"root":5054,"abit":5055,"Ab":5056,"Ġhard":5057,"aging":5058,"Ġriver":5059,"},":5060,"Ġtoo":5061,"uest":5062,"Ġ[];":5063,"Text":5064,"iant":5065,"Ġobserv":5066,"Ġà¤®à¤¤à¤¦":5067,"Ġdecided":5068,"Ġbox":5069,"ĠEv":5070,"Ġrather":5071,"ds":5072,"Ġoutside":5073,"Dis":5074,"ĠBre":5075,"Ġà¤¶à¤µ":5076,"anda":5077,"37":5078,"Ġchampionship":5079,"box":5080,"Ġprote":5081,"Ġfif":5082,"Ġ32":5083,"izations":5084,"Ġfarm":5085,"ĠBoard":5086,"ental":5087,"Ġseasons":5088,"Ġmanager":5089,"stant":5090,"Ġgun":5091,"Interface":5092,"à¤Ķ":5093,"Ġax":5094,"ati":5095,"etime":5096,"LA":5097,"ometimes":5098,"à¤«à¤²":5099,":`":5100,"Ġsex":5101,"iled":5102,"ĠRussia":5103,"Ġhit":5104,"reme":5105,"unched":5106,"Ġprior":5107,"Tem":5108,"Ġassociated":5109,"à¤¼à¥ĩà¤Ĥ":5110,"Ġcontribut":5111,"Ġchanges":5112,"à¤¬à¤¡":5113,"CH":5114,"Ġdu":5115,"Ġaccording":5116,"lying":5117,"ato":5118,"atriate":5119,"Ġminist":5120,"Ġchannel":5121,"ĠOther":5122,"Ġrad":5123,"à¤¸à¤¬":5124,"Ġfail":5125,"Ġcare":5126,"Ġorganization":5127,"Films":5128,"Ġtypes":5129,"achine":5130,"Ġà¤ħà¤µà¤¸":5131,"ĠTour":5132,"Ġscore":5133,"]))":5134,"Ġeffort":5135,"rich":5136,"Ġà¤ļà¤¢":5137,"Ġstandard":5138,"enant":5139,"ĠAssembly":5140,"Cache":5141,"Ġà¤¸à¤«à¤²":5142,"Ġtim":5143,"ĠPennsylvania":5144,"Ġreve":5145,"Ġpark":5146,"Ġcases":5147,"à¤īà¤Ł":5148,"Ġsystems":5149,"Ġà¤«à¤°à¤µà¤°":5150,"ĠEmpire":5151,"ĠSeries":5152,"Ġcrick":5153,"ampion":5154,"Ġwriting":5155,"ĠBrown":5156,"Ġselected":5157,"Ġruns":5158,"olar":5159,"à¤Ĺà¤ľ":5160,"ĠKn":5161,"Ġ1985":5162,"à¤Łà¤°à¤¨":5163,"Ġproducer":5164,"Date":5165,"utions":5166,"à¤¶à¤°":5167,"ocket":5168,"Ġfamilies":5169,"Ġgrand":5170,"ias":5171,"Valid":5172,"izer":5173,"ingu":5174,"Ġden":5175,"Ġrequire":5176,"Attribute":5177,"Ġedition":5178,"Ġsearch":5179,"39":5180,"à¤·à¤ľ":5181,"ollowing":5182,"Ġparse":5183,"Ġscient":5184,"Ġpoet":5185,"Ġremove":5186,"ĠLand":5187,"à¤¯à¤Ĺ":5188,"ao":5189,"Ġitself":5190,"Ġrepresented":5191,"Ġculture":5192,"Ġoccup":5193,"Ġwid":5194,"Ġà¤ľà¤¨à¤¸":5195,"Ġdivision":5196,"ĠBank":5197,"Ġdeal":5198,"allery":5199,"Ġmovement":5200,"ipl":5201,"Ġplays":5202,"illa":5203,"ĠAnn":5204,"ansas":5205,"lease":5206,"Ġnorthern":5207,"ĠIrish":5208,"alysis":5209,"Ġtransport":5210,"wan":5211,"ĠStar":5212,"Ġà¤ĺà¤Ł":5213,"Ġattended":5214,"Ġbank":5215,"Ġà¤Ĺà¤²":5216,"Ġdefeated":5217,"Ġcolor":5218,"Ġà¤ıà¤«":5219,"à¥ĭ-":5220,"ersey":5221,"ĉĉĉĉĉ":5222,"iller":5223,"Ġcensus":5224,"icated":5225,"Ġ500":5226,"Ġà¤ķà¤ªà¤¡":5227,"CC":5228,"à¥¦à¥¦":5229,"à¤ĸà¤¨à¤Ĭ":5230,"Ġ90":5231,"ĠSun":5232,"à¥ģà¤ĥ":5233,"Ġindustry":5234,"Argument":5235,"Ġsouthern":5236,"UN":5237,"Ġplann":5238,"Aust":5239,"server":5240,"2008":5241,"34":5242,"ĠFin":5243,"ED":5244,"Ġprop":5245,"Ġbehind":5246,"aine":5247,"uid":5248,"::$":5249,"types":5250,"ĠAtt":5251,"vention":5252,"Ġà¥§à¥¯":5253,"next":5254,"Rep":5255,"Port":5256,"Ġsat":5257,"Ġdone":5258,"2011":5259,"ĠRun":5260,"à¥Ģà¤ĥ":5261,"Ġregard":5262,"ĠTime":5263,"Ġwinning":5264,"Ġimm":5265,"Ġmusical":5266,"Ġfilter":5267,"Ġmove":5268,"ulate":5269,"à¤ħà¤°":5270,"Ġà¤ľà¤¯":5271,"Source":5272,"ĠLiber":5273,"win":5274,"Ġsingles":5275,"track":5276,"open":5277,"Ġstudio":5278,"iance":5279,"ĠSpec":5280,"Ġstore":5281,"ady":5282,"Ġbrought":5283,"Ġben":5284,"##":5285,"Ġprob":5286,"ĠResearch":5287,"Ġconnection":5288,"remove":5289,"ĠNorthern":5290,"Ġword":5291,"Ġoperations":5292,"den":5293,"ocol":5294,"Ġmonth":5295,"2007":5296,"aya":5297,"evelopment":5298,"2006":5299,"à¤īà¤¤":5300,"Ġsn":5301,"Ġcoast":5302,"Ġexc":5303,"ĠLove":5304,"ĠProfess":5305,"ĠEducation":5306,"Ġsecret":5307,"hem":5308,"Ġà¤ľà¤¤":5309,"à¤ıà¤ļ":5310,"2009":5311,"Ġà¤ķà¤¸":5312,"Ġ1983":5313,"uled":5314,"During":5315,"image":5316,"Ġà¤®à¤ļ":5317,"Ġhor":5318,"Ġelements":5319,"awa":5320,"ĠDis":5321,"yr":5322,"Ġalmost":5323,"Ġà¤¡à¤°":5324,"55":5325,"Ġtask":5326,"Ġcomplete":5327,"Ġpurch":5328,"Ġindependent":5329,"test":5330,"à¤µà¤Ń":5331,"à¤Ĥ,":5332,"ĠMah":5333,"Ġinvestig":5334,"31":5335,"Ġpolicy":5336,"Ġbeginning":5337,"Ġended":5338,"itors":5339,"ĠPac":5340,"osh":5341,"miss":5342,"Ġsus":5343,"Ġuses":5344,"RA":5345,"Ġ'/":5346,"Sup":5347,"ĠEth":5348,"Ġà¤Ľà¤¤":5349,"Ġscreen":5350,"Ġterr":5351,"isions":5352,"UL":5353,"ĠDen":5354,"ĠOpen":5355,"Per":5356,"ĠSpain":5357,"Ġmanufact":5358,"ips":5359,"à¤ħà¤ªà¤¨":5360,"Ġempty":5361,"Lock":5362,"html":5363,"top":5364,"Ġfields":5365,"older":5366,"Ġà¤ıà¤¯à¤°":5367,"span":5368,"ums":5369,"ancial":5370,"Ġoperation":5371,"Ġcell":5372,"overs":5373,"ĠField":5374,"Ġà¤¤à¤ķà¤¨":5375,"iography":5376,"Ġquest":5377,"ĠRh":5378,"Ġisland":5379,"Ġà¤ªà¤µ":5380,"Ġsaf":5381,"anks":5382,"ĠBig":5383,"acing":5384,"first":5385,"Art":5386,"Ġà¤ļà¤²à¤¨":5387,"Ġking":5388,"ĠCD":5389,"ĠBase":5390,"Ġ(!$":5391,"ĠSir":5392,"\\\\":5393,"Ġminor":5394,"ĠArab":5395,"ĠOld":5396,"mond":5397,"emor":5398,"ĠSil":5399,"oto":5400,"ĠBur":5401,"irit":5402,"Ġà¤ıà¤ķà¤¤":5403,"iga":5404,"2012":5405,"Pop":5406,"ĠMos":5407,"pat":5408,"46":5409,"Ġspecific":5410,"amic":5411,"Members":5412,"logger":5413,"background":5414,"ĠBoy":5415,"Ġmagazine":5416,"bon":5417,"pecially":5418,"Ġprison":5419,"imb":5420,"ecess":5421,"Ġissues":5422,"can":5423,"uple":5424,"Ġcomplex":5425,"ĠLong":5426,"Ġphil":5427,"Ġnewsp":5428,"Year":5429,"Ġà¤ľà¤¡":5430,"lood":5431,"Ġhigher":5432,"ĠTwo":5433,"ĠRo":5434,"inct":5435,"ĠTimes":5436,"unior":5437,"writer":5438,"Ġsort":5439,"Ġmaint":5440,"izing":5441,"ĠEngine":5442,"auth":5443,"ĠIII":5444,"Ġconn":5445,"Ref":5446,"inners":5447,"ĠFort":5448,"Ġfinally":5449,"style":5450,"Ġ65":5451,"Ġstudies":5452,"ĠPet":5453,"Ġpersonal":5454,"ĠGreek":5455,"ecute":5456,"ĠChief":5457,"ieut":5458,"à¤ħà¤¨":5459,"à¤Ńà¤ķ":5460,"Ġscience":5461,"ĠĊ":5462,"yan":5463,"Run":5464,"Ġfootballer":5465,"Ġacadem":5466,"apter":5467,"ĠParam":5468,"Ġà¤īà¤¤à¤°":5469,"rea":5470,"Ġgoals":5471,"})":5472,"wise":5473,"ĠTeam":5474,"Child":5475,"Brit":5476,"Fran":5477,"Ġ1982":5478,"ĠTom":5479,"airman":5480,"Ġ1979":5481,"BS":5482,"cel":5483,"Ġà¤īà¤ªà¤ļ":5484,"Ġtaking":5485,"Act":5486,"loat":5487,"Errorf":5488,"Ġshot":5489,"à¤¦à¤¶":5490,"Pre":5491,"à¤¨à¤¯":5492,"ĠException":5493,"Ġspecified":5494,"respond":5495,"Ġorigin":5496,"inet":5497,"à¥¥":5498,"à¤¡à¤¸":5499,"ypes":5500,"ĠColumb":5501,"flict":5502,"va":5503,"ennis":5504,"aught":5505,"Ġreplace":5506,"Ġà¥«":5507,"Ġpromot":5508,"Ð¸":5509,"Part":5510,"Ġwood":5511,"Ġhighest":5512,"ĠHindi":5513,"Ġapproximately":5514,"ĠFre":5515,"Ġ['":5516,"imal":5517,"inois":5518,"headers":5519,"Ġ1972":5520,"gn":5521,"het":5522,"Ġimplement":5523,"Ġfood":5524,"Ġtoken":5525,"à¤¸à¤®à¤¯":5526,"Ġconcern":5527,"Header":5528,"Ġowned":5529,"otal":5530,"Ġtowards":5531,"Ðµ":5532,"Ġlittle":5533,"ounds":5534,"ima":5535,"enth":5536,"Ġveh":5537,"Ġ>=":5538,"United":5539,"189":5540,"Ġà¤¤à¤Ń":5541,"ĠRos":5542,"à¤¨à¤Ĺà¤°":5543,"Ġconsider":5544,"Ġlaunched":5545,"olve":5546,"oub":5547,"SI":5548,"2013":5549,"Column":5550,"Ġexpand":5551,"à¤¾à¤Ĥ,":5552,"188":5553,"etts":5554,"Ġà¤®à¤Ĺà¤°":5555,"itiz":5556,"desc":5557,"rect":5558,"ĠValley":5559,"44":5560,"ĠWood":5561,"Ġà¤Ĩà¤Īà¤ª":5562,"Ã§":5563,"Ġcopy":5564,"ĠHot":5565,"ĠKey":5566,"2014":5567,"Ġreach":5568,"ĠBh":5569,"ĠSocial":5570,"à¥¯":5571,"ĠLife":5572,"edd":5573,"Ġissue":5574,"Ġdrama":5575,"Ne":5576,"Ġball":5577,"label":5578,"ĠAlb":5579,"SP":5580,"Ġà¤ħà¤®à¤°":5581,"lers":5582,"ĠSpace":5583,"ĠValueError":5584,"ivity":5585,"aka":5586,"Enabled":5587,"Ġsoon":5588,"Ġbig":5589,"ĠOl":5590,"ĠMichigan":5591,"à¤Ķà¤°":5592,"Ġà¤¹à¤¥":5593,"Ġgot":5594,"po":5595,"ĠPak":5596,"Ġwhether":5597,"ĠOhio":5598,"ĠYoung":5599,"Ġeditor":5600,"View":5601,"à¥Ĥà¤Ĥà¥¤":5602,"Ġemb":5603,"ĠHaw":5604,"ĠMur":5605,"Ġcompon":5606,"Ġcourse":5607,"Ġwoman":5608,"ictionary":5609,"à¤¶à¤µ":5610,"Ġcommission":5611,"Ġwhom":5612,"ko":5613,"Return":5614,"Ġ1976":5615,"inst":5616,"ĠFile":5617,"Ġâ":5618,"ĠLine":5619,"reater":5620,"ĠJoseph":5621,"omy":5622,"Ġobt":5623,"ĠMartin":5624,"Ġstaff":5625,"à¤Ĳ":5626,"greg":5627,"Ġà¤Ĺà¤¹à¤°":5628,"book":5629,"ainment":5630,"ĠHealth":5631,"Ġ180":5632,"ĠKe":5633,"ĠGar":5634,"Ġ1981":5635,"adron":5636,"ĠSo":5637,"Line":5638,"100":5639,"ĠPre":5640,"ĠCross":5641,"Ġcertain":5642,"ĠPoland":5643,"aria":5644,"link":5645,"Ġdrop":5646,"ĠInc":5647,"Ġrule":5648,"ĠDirector":5649,"Ġ\"\"":5650,"usband":5651,"Ġalways":5652,"Ġceleb":5653,"à¤ħà¤²":5654,"à¤¹à¤¬":5655,"Ġgraph":5656,"ĠCap":5657,"aks":5658,"ĠDev":5659,"ieutenant":5660,"Ġdoc":5661,"à¤·à¤°":5662,"anguages":5663,"Ġsom":5664,"Rel":5665,"dr":5666,"ĠĠĠĠĠĠĠĠĊ":5667,"Ġtraditional":5668,"Ġterms":5669,"Ġdisplay":5670,"ĠDi":5671,"ĠDemocratic":5672,"Ġà¤ļà¤¨":5673,"Ġupd":5674,"Ġespecially":5675,"Start":5676,"Ġbur":5677,"ĠRem":5678,"Ġtrain":5679,"Ġ1978":5680,"Ġadministr":5681,"ĠHow":5682,"Ġappearance":5683,"Ġstri":5684,"achus":5685,"ĠHon":5686,"2015":5687,"ĠCamb":5688,"osoph":5689,"Ġspent":5690,"Ġopening":5691,"ares":5692,"Sw":5693,"vey":5694,"itation":5695,"ĠGr":5696,"Ġà¤ĳà¤¨à¤²":5697,"Ġpattern":5698,"Ġchief":5699,"Ġ1971":5700,"Invalid":5701,"ĠBritain":5702,"Ġbetter":5703,"Ġplatform":5704,"emic":5705,"Ġcome":5706,"Ġener":5707,"2005":5708,"ensions":5709,"Ġ1968":5710,"Ġsummer":5711,"ĠVer":5712,"ttps":5713,"Ġà¤¯à¤¥":5714,"Ġcounty":5715,"house":5716,"One":5717,"close":5718,"'),":5719,"Tag":5720,"standing":5721,"Ġà¥¬":5722,"Other":5723,"Ġà¤ħà¤¸à¤°":5724,"oston":5725,"CE":5726,"Ġnoted":5727,"Ġà¤¬à¤ľà¤Ł":5728,"ĠBattle":5729,"Ġamount":5730,"Ġofficer":5731,"Ġà¤ķà¤ķ":5732,"abels":5733,"header":5734,"mm":5735,"ĠCivil":5736,"Ġarmy":5737,"Ġsoft":5738,"Ġpref":5739,"Will":5740,"Ġ1945":5741,"Number":5742,"Ġthus":5743,"DB":5744,"arriage":5745,"Ġtrade":5746,"oir":5747,"Ġà¤Ńà¤µà¤¨":5748,"Ġearlier":5749,"found":5750,"Ġà¤ħà¤°à¤¬":5751,"ĠRailway":5752,"Ġmsg":5753,"Ġserver":5754,"Ġmoney":5755,"Ġà¤Ĩà¤ªà¤¨":5756,"Ġadapt":5757,"RI":5758,"ĠWeb":5759,"Ġ1974":5760,"Ġmanagement":5761,"Params":5762,"ĠSouthern":5763,"bers":5764,"ĠDutch":5765,"pose":5766,"burgh":5767,"ĠCam":5768,"Ġbass":5769,"Ġstudent":5770,"Base":5771,"Ġunion":5772,"British":5773,"achusetts":5774,"ĠBul":5775,"Ġpercent":5776,"active":5777,"ĠLee":5778,"Ġconnect":5779,"ĠLibrary":5780,"Ġà¤Ĩà¤¹":5781,"ĠEr":5782,"Ġbattle":5783,"Ġsched":5784,"ĠFinal":5785,"Ġcomment":5786,"ÙĦ":5787,"Ġrate":5788,"Ġelections":5789,"acity":5790,"Ġmission":5791,"ĠBas":5792,"Ġà¤®à¤¤à¤²à¤¬":5793,"Ġlived":5794,"ĠHel":5795,"arden":5796,"Ġ38":5797,"Ġships":5798,"Ġ1975":5799,"ĠBelg":5800,"TY":5801,"ker":5802,"Ġrecords":5803,"Ġgenerally":5804,"Ġstructures":5805,"Ġemer":5806,"Ġentered":5807,"ĠPrem":5808,"ĠPost":5809,"à¤ķà¤¸à¤Ń":5810,"ĠMen":5811,"à¤¸à¤²à¤®":5812,"venue":5813,"Ġdecision":5814,"Oper":5815,"inds":5816,"Ġ.=":5817,"Ġinterview":5818,"hash":5819,"Ġcentre":5820,"Ġbatt":5821,"Ġgenus":5822,"ĠOx":5823,"Ġsurround":5824,"delete":5825,"Ġsometimes":5826,"ila":5827,"char":5828,"Ġroot":5829,"El":5830,"ĠFred":5831,"irectory":5832,"Ġà¤ľà¤Ĺà¤¤":5833,"Ġ1977":5834,"ĠType":5835,"iÄĩ":5836,"Ġcities":5837,"HT":5838,"OS":5839,"ja":5840,"2016":5841,"Ġimmedi":5842,"Input":5843,"indows":5844,"ĠMat":5845,"Ġsyn":5846,"Ġ1940":5847,"Ġpractice":5848,"queue":5849,"à¥ħ":5850,"ĠMP":5851,"bury":5852,"Ġgra":5853,"ĠRadio":5854,"uty":5855,"module":5856,"Ġà¤īà¤ķ":5857,"ĠWal":5858,"ĠAlthough":5859,"using":5860,"65":5861,"ela":5862,"very":5863,"ĠCro":5864,"iy":5865,"à¤ĳ":5866,"gypt":5867,"Ġactivities":5868,"pid":5869,"Ġsenior":5870,"cs":5871,"template":5872,"78":5873,"icate":5874,"ĠAdm":5875,"Ġinstr":5876,"hent":5877,"Ġpen":5878,"++)":5879,"Ġà¤®à¤¹à¤¸":5880,"essages":5881,"ucket":5882,"Sports":5883,"itter":5884,"istance":5885,"ĠIllinois":5886,"2004":5887,"ĠIran":5888,"Ġincreased":5889,"offset":5890,"force":5891,"isation":5892,"Ġolder":5893,"ĠTro":5894,"à¤ĩà¤¨à¤²":5895,":#":5896,"Ġcaused":5897,"press":5898,"eeks":5899,"ĠUnder":5900,"ĠQueen":5901,"Rem":5902,"prefix":5903,"estamp":5904,"clude":5905,"Ġraised":5906,"ĠTre":5907,"Ġbring":5908,"number":5909,"Ġther":5910,"Ġexpected":5911,"Co":5912,"Ġ((":5913,"command":5914,"width":5915,"ĠTem":5916,"ĠJersey":5917,"à¥Ĥ-":5918,"ĠOver":5919,"First":5920,"Ġ1973":5921,"ĠLord":5922,"Ġ1969":5923,"Ġgive":5924,"Ġtag":5925,"Be":5926,"ĠTw":5927,"Ġà¤¬à¤¹à¤¨":5928,"Ġà¤ļà¤¯à¤¨":5929,"pan":5930,"Ġvictory":5931,"oral":5932,"University":5933,"Ġaltern":5934,"Ġdiffic":5935,"ĠPacific":5936,"Ġmiddle":5937,"Ġà¤ıà¤¶":5938,"df":5939,"Ġhttp":5940,"Ġ75":5941,"Prov":5942,"Ġvs":5943,"Ġgrant":5944,"ador":5945,"Ġproperties":5946,"Ġcop":5947,"Ġmaterial":5948,"Ġequip":5949,"ING":5950,"irls":5951,"ĠPlaces":5952,"à¤°à¤ļà¤¨":5953,"Ġlegal":5954,"Ġdepartment":5955,"à¤¤à¤°à¤£":5956,"ucle":5957,"Ġà¤īà¤ªà¤¨":5958,"Ġremaining":5959,"inger":5960,"Ġtakes":5961,"ĠScotland":5962,"Ġtechnology":5963,"à¤²à¤ļ":5964,"Ġexisting":5965,"ĠAsian":5966,"2017":5967,"Ġwide":5968,"ĠLin":5969,"Ġretired":5970,"Ġgoing":5971,"kin":5972,"ĠAsia":5973,"ĠJewish":5974,"Ġstudied":5975,"Ġexception":5976,"Ġhusband":5977,"weight":5978,"Ġ1930":5979,"Server":5980,"Ġextra":5981,"aily":5982,"Ġmedical":5983,"ims":5984,"war":5985,"nam":5986,"Ġà¤īà¤ªà¤°":5987,"Default":5988,"Ġà¤Ĺà¤ł":5989,"à¤ħà¤¬":5990,"Ġannual":5991,"ui":5992,"2003":5993,"][":5994,"Ġremoved":5995,"ĠInf":5996,"erem":5997,"Ġà¤ħà¤µà¤¶":5998,"ĠPlay":5999,"Ag":6000,"Ġnomin":6001,"Found":6002,"grad":6003,"Ġà¤Ĭà¤°":6004,"Ġcommercial":6005,"We":6006,"Ġiter":6007,"bar":6008,"icks":6009,"Ġlegisl":6010,"itude":6011,"ĠSince":6012,"ifying":6013,"2018":6014,"Ġadopt":6015,"ĠPhilipp":6016,"Ġdefined":6017,"Ġbecoming":6018,"Ġà¤ıà¤ª":6019,"Ġtheory":6020,"izes":6021,"77":6022,"pri":6023,"Ġlove":6024,"oded":6025,"ĠMost":6026,"Ġnormal":6027,")à¥¤":6028,")))":6029,"Ġseat":6030,"Ġglobal":6031,"Ġtree":6032,"rief":6033,"ĠJack":6034,"ĠGal":6035,"rants":6036,"Ġlonger":6037,"ĠDet":6038,"ĠMassachusetts":6039,"pop":6040,"Ext":6041,"Ġsuc":6042,"adel":6043,"Ġsche":6044,"ĠConference":6045,"ledge":6046,"Ġmajority":6047,"true":6048,"Ġchart":6049,"ĠFC":6050,"Ġà¤Ĩà¤¬":6051,"ĠRepresent":6052,"ĠPo":6053,"Pos":6054,"ĠPeople":6055,"ĠCode":6056,"Ġstarting":6057,"Ġassert":6058,"ĠCO":6059,"PI":6060,"ipe":6061,"à¤ĺà¤¨":6062,"TA":6063,"ĠJud":6064,"à¤Łà¤¤":6065,"Ġ1967":6066,"Ġquarter":6067,"legal":6068,"gment":6069,"Ġwestern":6070,"Ġ1964":6071,"ĠEdward":6072,"contin":6073,"à¤¿à¤ĥ":6074,"Ġà¤ªà¤¹à¤¨":6075,"cert":6076,"Ġà¤Ĺà¤łà¤¨":6077,"title":6078,"''":6079,"Ġpoliticians":6080,"Block":6081,"ĠSoc":6082,"Ġnumerous":6083,"Jo":6084,"German":6085,"property":6086,"Ġlimited":6087,"doc":6088,"ĠIl":6089,"500":6090,"aters":6091,"Ġdiscuss":6092,"Ġcannot":6093,"ĠKent":6094,"actions":6095,"Ġactors":6096,"Ġmight":6097,"ĠSar":6098,"ech":6099,"ĠJim":6100,"Ġinteg":6101,"Ġoperated":6102,"'];":6103,"ported":6104,"Ġinitially":6105,"ĠGeorgia":6106,"Å¡":6107,"Ġminutes":6108,"eline":6109,"Ġprograms":6110,"Ġanti":6111,"Ġregist":6112,"Ġreligious":6113,"ĠIO":6114,"Ġded":6115,"ĠJournal":6116,"inem":6117,"Ġcolon":6118,"allow":6119,"ocks":6120,"Ġcollabor":6121,"Ġ1920":6122,"ees":6123,"Ġreference":6124,"Ġà¤ªà¤¨":6125,"stone":6126,"Track":6127,"ĠBow":6128,"Hel":6129,"wide":6130,"Ġthreat":6131,"ayout":6132,"Ġstrings":6133,"ĠRam":6134,"Ġeconomic":6135,"à¤ªà¤¡":6136,"à¥Ĥ,":6137,"Session":6138,"Sl":6139,"Ġclubs":6140,"Ġthought":6141,"Address":6142,"Ġnecess":6143,"West":6144,"NO":6145,"à¤Ĩà¤ľ":6146,"ĠKong":6147,"à¤¸à¤ķà¤°":6148,"Ġq":6149,"wer":6150,"ova":6151,"orporated":6152,"Ġforest":6153,"ĠOtt":6154,"ĠPortug":6155,"58":6156,"Ġ34":6157,"onia":6158,"ĠUk":6159,"ulf":6160,"Ġhours":6161,"AA":6162,"fg":6163,"Ġenergy":6164,"Ġcompeted":6165,"Ġlic":6166,"Dr":6167,"Ġà¤ħà¤¸à¤®":6168,"Ġcontest":6169,"Ġcache":6170,"UE":6171,"Ġclear":6172,"Ġparents":6173,"Ġà¤Ĩà¤¸à¤ª":6174,"Ġsettlement":6175,"Ġevidence":6176,"www":6177,"amm":6178,"Ġserving":6179,"Ġelev":6180,"ĠShow":6181,"Ġobjects":6182,"emporary":6183,"ĠCreek":6184,"Ġforced":6185,"antry":6186,"Ġestim":6187,"Ġfederal":6188,"requ":6189,"ĠAz":6190,"ulpt":6191,"enger":6192,"ĠGovernor":6193,"Ġshown":6194,"ĠThat":6195,"ĠĠĠĠĠĠĠĠĠĠ":6196,"gener":6197,"Ġhot":6198,"itting":6199,"Ġmunicipality":6200,"ĠMot":6201,"Ġincome":6202,"2001":6203,"lad":6204,"ĠLoc":6205,"cur":6206,"ĠCorps":6207,"Ġcomedy":6208,"Ġang":6209,"cmd":6210,"Ġremain":6211,"urne":6212,"ifest":6213,"Ġitems":6214,"Ġpers":6215,"ĠCentre":6216,"riz":6217,"66":6218,"(*":6219,"Ġincrease":6220,"ĠFoundation":6221,"Ġarrest":6222,"gor":6223,"Ġreturns":6224,"Ġsea":6225,"ĠBook":6226,"enge":6227,"Ġdim":6228,"à¤¡à¤®":6229,"AM":6230,"ĠOffice":6231,"ĠArray":6232,"2002":6233,"ackson":6234,"Ġcorrespond":6235,"lem":6236,"iece":6237,"Ġ1965":6238,"Mon":6239,"GB":6240,"ried":6241,"ously":6242,"Ġchall":6243,"Ġmuseum":6244,"Ġhum":6245,"ĠWilliams":6246,"Ġcommunities":6247,"Ġsister":6248,"ĠFrancisco":6249,"record":6250,"à¤¯à¤¯":6251,"Ġlarger":6252,"ĠID":6253,"PO":6254,"Ġappears":6255,"Image":6256,"ĠMiddle":6257,"Command":6258,"Ġnet":6259,"Ġà¤¦à¤°à¤ħà¤¸à¤²":6260,"arters":6261,"Ġconcept":6262,"osing":6263,"Ġcalc":6264,"Filter":6265,"onic":6266,"Ġsplit":6267,"ĠTheatre":6268,"\"),":6269,"Ġ33":6270,"ogle":6271,"rang":6272,"dest":6273,"Ġ'.":6274,"Ġlack":6275,"ĠRel":6276,"sup":6277,"Ġshoot":6278,"hire":6279,"inding":6280,"olved":6281,"Ġ37":6282,"Ġrecording":6283,"ĠScottish":6284,"Ġoccas":6285,"Ġprevent":6286,"Ġquick":6287,"Ġprincip":6288,"getName":6289,"Ġ1944":6290,"ĠOxford":6291,"sm":6292,"ĠCoast":6293,"Ã±":6294,"agn":6295,"Ġauth":6296,"aptain":6297,"Ġoverall":6298,"Official":6299,"ĠGen":6300,"mann":6301,"Point":6302,"abeth":6303,"itage":6304,"Bo":6305,"Ġmode":6306,"ĠSol":6307,"ĠCarl":6308,"Ġexists":6309,"ĠCr":6310,"Ġparticularly":6311,"Off":6312,"Ġremains":6313,"Ġrules":6314,"Ġprofessor":6315,"pool":6316,"works":6317,"Ġdyn":6318,"ĠMax":6319,"ski":6320,"Ġconditions":6321,"light":6322,"Ġign":6323,"Austral":6324,"Ġpil":6325,"Ġfle":6326,"42":6327,"Ġforeign":6328,"iring":6329,"Ġcontaining":6330,"Factory":6331,"Ġ1966":6332,"Ġ48":6333,"01":6334,"Ġofficers":6335,"Ġmostly":6336,"ĠEastern":6337,"ĠRa":6338,"ĠArgs":6339,"Ġà¤¬à¤¨à¤¤":6340,"equals":6341,"LI":6342,"Ġclaimed":6343,"ÅĤ":6344,"ibli":6345,"Ġuniversity":6346,"Ġà¤īà¤ªà¤ķà¤°à¤£":6347,"ntario":6348,"Ġgovern":6349,"Ġarm":6350,"ĠBoston":6351,"2019":6352,"una":6353,"Ġprotest":6354,"Ġà¤¸à¤ªà¤¨":6355,"Ġarguments":6356,"Ġnative":6357,"Ġpsych":6358,"abs":6359,"Ġheader":6360,"à¤¶à¤®":6361,"Ġmaster":6362,"Ġcause":6363,"If":6364,"ĠDec":6365,"ĠRaj":6366,"address":6367,"ĠBuild":6368,"Ġà¤°à¤£":6369,"ĠHung":6370,"à¥Ī;":6371,"Ġcandidate":6372,"Ġmeeting":6373,"akh":6374,"Output":6375,"Ġdise":6376,"gs":6377,"Ġpresented":6378,"à¤ľà¤¤":6379,"illed":6380,"phy":6381,"World":6382,"ĠÅ":6383,"req":6384,"vest":6385,"ĠHa":6386,"ĠJones":6387,"Ġcouncil":6388,"Association":6389,"Ġjoin":6390,"Ġroom":6391,"Buffer":6392,"zy":6393,"Ġ---------":6394,"ricts":6395,"Ġpolitics":6396,"Ġoptional":6397,"apers":6398,"Ġdirectly":6399,"ĠForm":6400,"Dec":6401,"à¥ĥà¤Ĥ":6402,"vement":6403,"uge":6404,"Ġhockey":6405,"pha":6406,"ĠSecretary":6407,"SA":6408,"Ġnine":6409,"Ġà¤²à¤Ĺà¤¨":6410,"Ġneeded":6411,"Ġbomb":6412,"95":6413,"ĠCard":6414,"à¥Īà¤ĥ":6415,"long":6416,"lections":6417,"Ġwords":6418,"Ġhistorical":6419,"Ġweeks":6420,"isk":6421,"poration":6422,"Ġà¤¹à¤¡":6423,"Ġnumbers":6424,"à¤ľà¤¨à¤ķ":6425,"ĠBet":6426,"Ġkwargs":6427,"andom":6428,"ĠMore":6429,"outheast":6430,"Ġà¤ħà¤¹":6431,"Ġast":6432,"illy":6433,"ĠPrince":6434,"ĠBang":6435,"DI":6436,"akers":6437,"Ġmention":6438,"Results":6439,"ĠJohnson":6440,"ĠEgypt":6441,"ulations":6442,"ĠTop":6443,"thur":6444,"Further":6445,"La":6446,"Ġtoday":6447,"Ġsubsequently":6448,"ĠHospital":6449,"à¥Īà¤Ĥ?":6450,"Ġforms":6451,"ensity":6452,"Ð½":6453,"à¤µà¤®":6454,"ĠĠĠĠĠĠĠĠĠĠĠĠĠĠĠĠĠĠĠĠĠĠĠĠĠĠĠĠĠĠĠ":6455,"ĠJr":6456,"Ġautom":6457,"à¤ĩà¤«":6458,"ederation":6459,"Ġoffset":6460,"Ġ<=":6461,"41":6462,"ĠWrit":6463,"Ġpain":6464,"ĠTim":6465,"umed":6466,"Ġorganizations":6467,"Ġreferred":6468,"dev":6469,"à¤µà¤¦":6470,"Ġearned":6471,"ĠOp":6472,"Ġscript":6473,"Ġadj":6474,"Ġyet":6475,"former":6476,"à¤°à¤¸à¤¨":6477,"Ġpromin":6478,"ĠLuc":6479,"Ġinsp":6480,"à¤Ĩà¤ªà¤ķ":6481,"chester":6482,"oly":6483,"Ġseparate":6484,"core":6485,"1999":6486,"Ġyield":6487,"Connection":6488,"Ġcollect":6489,"ĠSpring":6490,"enty":6491,"à¤°à¤·":6492,"wait":6493,"ĠSat":6494,"Music":6495,"Ġprep":6496,"obile":6497,"à¤¯à¤¶":6498,"Ġà¤¸à¤ĸ":6499,"Ġà¤īà¤¤à¤¨":6500,"ĠWis":6501,"Ġsurface":6502,"ĠMajor":6503,"Public":6504,"env":6505,"Length":6506,"ĠSenate":6507,"Ġmakes":6508,"flow":6509,"Ġappearances":6510,"tr":6511,"68":6512,"ceeded":6513,"real":6514,"ĠFI":6515,"Ġregional":6516,"urban":6517,"43":6518,"Ġborder":6519,"ĠStation":6520,"defer":6521,"Ġeth":6522,"Ġà¤®à¤ľà¤¦":6523,"ĠPolice":6524,"Ġlimit":6525,"ĠChild":6526,"nes":6527,"98":6528,"Ġmeaning":6529,"selves":6530,"atively":6531,"Ġthemselves":6532,"Row":6533,"Page":6534,"Ġcallback":6535,"onto":6536,"ĠLog":6537,"kins":6538,"more":6539,"copy":6540,"xml":6541,"ologist":6542,"Ġonline":6543,"usc":6544,"Ġbackground":6545,"Ġà¤¸à¤²à¤®":6546,"à¤¡à¤µ":6547,"Ġkeys":6548,"Ġacquired":6549,"ĠErr":6550,"Ġdescent":6551,"amin":6552,"']))":6553,"ĠDevelopment":6554,"South":6555,"store":6556,"Ġ1962":6557,"ĠUnivers":6558,"Ġsecurity":6559,"ĠPolish":6560,"ĠBerlin":6561,"kl":6562,"1990":6563,"Ġ64":6564,"Max":6565,"Ġà¤ħà¤¯":6566,"claim":6567,"à¤¤à¤ª":6568,"bour":6569,"Ġpick":6570,"Ġà¤¸à¤®à¤Ŀà¤¨":6571,"Ġpersonnel":6572,"ĠGood":6573,"Ġdiss":6574,"Ġleaving":6575,"send":6576,"Ġà¤Ĩà¤ªà¤¸":6577,"Ġà¤Īà¤¸":6578,"ĠLatin":6579,"ĠColumbia":6580,"zech":6581,"ully":6582,"ez":6583,"fit":6584,"à¤¤à¤°à¤°":6585,"Ġflag":6586,"INE":6587,"Ġinn":6588,"ĠSte":6589,"Ġawards":6590,"Ġtemper":6591,"ĠKar":6592,"EO":6593,"ĠMap":6594,"Ġavoid":6595,"Bytes":6596,"Hash":6597,"Ġsend":6598,"ĠBob":6599,"ĠEarth":6600,"Ġdirectory":6601,"Ġshape":6602,"Ġver":6603,"Ġhouses":6604,"Ġhospital":6605,"Ġenough":6606,"sign":6607,"Ġmodule":6608,"Ġcomposed":6609,"Ġice":6610,"Ġspeed":6611,"ribe":6612,"kh":6613,"aven":6614,"ÑĢ":6615,"Ġbaseball":6616,"Ġfaculty":6617,"mas":6618,"Ġà¤īà¤ľ":6619,"Ġarticle":6620,"icient":6621,"Ġà¤²à¤ĸà¤¨à¤Ĭ":6622,"rows":6623,"Ġmix":6624,"ĠAut":6625,"ĠVan":6626,"Ġly":6627,"Ġeastern":6628,"Ġsave":6629,"Format":6630,"Ġbelieved":6631,"à¤ªà¤¹à¤°":6632,"Ġhelped":6633,"Post":6634,"cher":6635,"emet":6636,"Ġfamous":6637,"Ġdirection":6638,"Ġà¤Ĩà¤¦à¤°":6639,"</":6640,"ĠBal":6641,"Action":6642,"à¤°à¤ķà¤Ł":6643,"Ġ__":6644,"ĠSea":6645,"ĠRegiment":6646,"Description":6647,"Ġpack":6648,"sky":6649,"attributes":6650,"Ġprogress":6651,"teen":6652,"ĠBern":6653,"Ġvote":6654,"ĠBor":6655,"Ġfinancial":6656,"Enc":6657,"cean":6658,"Ġparameters":6659,"Ġrecent":6660,"RL":6661,"aped":6662,"Ġcitiz":6663,"Ġhandle":6664,"del":6665,"ĠHor":6666,"Ġdistance":6667,"ĠUr":6668,"gu":6669,"Ġmovie":6670,"Ġ1942":6671,"ĠBroad":6672,"Ġ1963":6673,"Ã¡n":6674,"Sec":6675,"à¤¤à¤¸":6676,"Ġ-----":6677,"Ġcarried":6678,"wa":6679,"Ġprovides":6680,"Ġheavy":6681,"Ġunique":6682,"à¥Īà¤Ĥà¤ĥ":6683,"toString":6684,"ĠOntario":6685,"ĠStep":6686,"unct":6687,"ĠEll":6688,"Check":6689,"pack":6690,"Ġtracks":6691,"Ġdevice":6692,"Ġyouth":6693,"ĠNight":6694,"Ġpositive":6695,"ĠLater":6696,"Ġcorn":6697,"Ġinside":6698,"ĠLab":6699,"Ġextended":6700,"Ġyour":6701,"ĠAv":6702,"pers":6703,"break":6704,"ĠMid":6705,"']['":6706,"orter":6707,"conn":6708,"Ġheight":6709,"Ġcrew":6710,"Ġsources":6711,"ĠEnter":6712,"ropical":6713,"ĠBlue":6714,"ummary":6715,"ĠStan":6716,"Ġproposed":6717,"International":6718,"ĠVictoria":6719,"When":6720,"icine":6721,"Ġvon":6722,"ronic":6723,"Ġcounter":6724,"ĠHead":6725,"ĠJac":6726,"Ġchem":6727,"Ġsociety":6728,"Ġbranch":6729,"ydro":6730,"Ġtroops":6731,"ĠAsh":6732,"uts":6733,"ecution":6734,"à¤ķà¤¥":6735,"67":6736,"ĠIslands":6737,"Ġà¤ķà¤®à¤ľ":6738,"Ġess":6739,"olicy":6740,"Ġalleg":6741,"ĠOlympic":6742,"even":6743,"Ġcharg":6744,"ĠIsl":6745,"eed":6746,"Ġà¤¦à¤®":6747,"yer":6748,"Ġproblems":6749,"Ġ300":6750,"ĠWild":6751,"pur":6752,"Polit":6753,"peror":6754,"Ġlatter":6755,"osa":6756,"ols":6757,"Ġmodels":6758,"ĠDie":6759,"Ġ1948":6760,"ennes":6761,"adian":6762,"ĠEnd":6763,"'):":6764,"à¥ģ,":6765,"William":6766,"Ġoffered":6767,"Ġmur":6768,"ĠØ":6769,"ĠMov":6770,"Ġprofile":6771,"Ġà¤ĭà¤·":6772,"Ġcultural":6773,"Ġsum":6774,"Us":6775,"Ġbytes":6776,"tim":6777,"Ġetc":6778,"ĠArgent":6779,"sett":6780,"iger":6781,"ĠSund":6782,"à¤½":6783,"agon":6784,"Ġmechan":6785,"ogue":6786,"ĠMr":6787,"à¤ĺà¤Łà¤¨":6788,"....":6789,"uries":6790,"05":6791,"Ġunivers":6792,"watch":6793,"Ġresources":6794,"ners":6795,"hens":6796,"Ġface":6797,"Ġ;":6798,"à¤¼,":6799,"ancy":6800,"Ġpan":6801,"ervices":6802,"Tim":6803,"Ġbrand":6804,"ĠWork":6805,"uing":6806,"ĠParameters":6807,"Ġexperience":6808,"According":6809,"ĠOf":6810,"eld":6811,"ĠHong":6812,"ĠConserv":6813,"Ġà¤¹à¤«":6814,"ĠTri":6815,"Pat":6816,"Ġfort":6817,"Ġconsists":6818,"Ġbenef":6819,"NT":6820,"iform":6821,"Ġlevels":6822,"Ġwhole":6823,"oles":6824,"Ġfilename":6825,"à¤Łà¤µ":6826,"Olymp":6827,"ĠSand":6828,"Ġupper":6829,"Ġà¤ĩà¤ľ":6830,"Ġvariety":6831,"ĠKorea":6832,"erc":6833,"Ac":6834,"EC":6835,"Ġturned":6836,"ĠAlexander":6837,"Ġforward":6838,"Personal":6839,"Trace":6840,"ĠTownship":6841,"à¤¼à¤¾à¥¤":6842,"ĠTheir":6843,"Head":6844,"Ġlikely":6845,"2020":6846,"Ġpromoted":6847,"Ġ1943":6848,"ĠMatt":6849,"ellig":6850,"innes":6851,"Ġbrief":6852,"Ġindividuals":6853,"fs":6854,"ronze":6855,"08":6856,"Ġdead":6857,"Current":6858,"ĠTam":6859,"Entity":6860,"hew":6861,"Ġdemon":6862,"Ġ1961":6863,"rovers":6864,"Disc":6865,"inity":6866,"ĠJackson":6867,"Ġmanaged":6868,"iling":6869,"ione":6870,"Ġdepart":6871,"Ġ44":6872,"connection":6873,"Ñģ":6874,"ĠPop":6875,"ĠWater":6876,"ternet":6877,"à¤°à¤µà¤°":6878,"Ġserve":6879,"Ġà¤ľà¤®à¤ķà¤°":6880,"utt":6881,"ĠRef":6882,"cell":6883,"Ġparties":6884,"Ġ1956":6885,"script":6886,"lywood":6887,"ĠSpecial":6888,"inals":6889,"ĠColor":6890,"Men":6891,"à¤¨à¤¹":6892,"orge":6893,"à¤¸à¤ļ":6894,"stitution":6895,"Ġà¤¨à¤¤":6896,"Ġmainly":6897,"French":6898,"Ġ39":6899,"Biography":6900,"Ġunknown":6901,"ething":6902,"float":6903,"Ġ),":6904,"Ġdecor":6905,"aked":6906,"adelph":6907,"Ġsquare":6908,"Configuration":6909,"Ġcard":6910,"Ġmarriage":6911,"ottom":6912,"ighter":6913,"yo":6914,"rat":6915,"Ġparameter":6916,"Ġwinner":6917,"Access":6918,"Ġthr":6919,"Order":6920,"ĠVill":6921,"Values":6922,"ĠPrize":6923,"shape":6924,"ĠCorn":6925,"ĠSports":6926,"undle":6927,"uate":6928,"stein":6929,"ba":6930,"Utils":6931,"Ġleave":6932,"Ġweight":6933,"Bar":6934,"oor":6935,"Ġsymbol":6936,"Ġbridge":6937,"Ġ1947":6938,"ĠBBC":6939,"Ġconflict":6940,"weg":6941,"consin":6942,"innesota":6943,"Ġà¤Ĩà¤īà¤Ł":6944,"Ġpow":6945,"iler":6946,"irmed":6947,"ĠQueens":6948,"inder":6949,"Ġprojects":6950,"ĠUSA":6951,"Cast":6952,"Ġprovince":6953,"aved":6954,"Ġproducts":6955,"Äį":6956,"\").":6957,"Ġ('":6958,"1998":6959,"ĠTest":6960,"88":6961,"td":6962,"ĠBC":6963,"ATE":6964,"Ġà¤ħà¤¡":6965,"Ġdeep":6966,"Sing":6967,"Ġpoor":6968,"Ġinfluence":6969,"Empty":6970,"pton":6971,"CON":6972,"ĠSyd":6973,"ĠRay":6974,"Ġinterface":6975,"ĠCommand":6976,"Ġà¤¸à¤¹à¤®à¤¤":6977,"Ġà¤¸à¤®à¤Ŀà¤¤":6978,"cient":6979,"ĠRepublican":6980,"General":6981,"Ġdifficult":6982,"Women":6983,"Ġepisodes":6984,"ArgumentException":6985,"Ġà¤¤à¤Ł":6986,"Ġnewspaper":6987,"Ġlanguages":6988,"Ġproblem":6989,"Ġissued":6990,"iation":6991,"Ġinfo":6992,"Ġresponsible":6993,"ĠBatt":6994,"Ġpra":6995,"ĠGame":6996,"ĠLittle":6997,"Host":6998,"izabeth":6999,"Ġanalysis":7000,"Har":7001,"Ġfifth":7002,"May":7003,"Ġpp":7004,"Ġ55":7005,"ĠĠĠĠĠĠĠĠĠĠĠĠĠĠ":7006,"alion":7007,"Ġoption":7008,"Ġà¤«à¤¸à¤²":7009,"VER":7010,"inated":7011,"igen":7012,"à¤®à¤¶":7013,"adelphia":7014,"anth":7015,"etherlands":7016,"Ġgraduated":7017,"ĠLy":7018,"Nov":7019,"PC":7020,"Ġhar":7021,"efe":7022,"Stat":7023,"Ġ1941":7024,"idden":7025,"iral":7026,"select":7027,"Ġwait":7028,"Ġrenamed":7029,"cho":7030,"cluded":7031,"Ġconstit":7032,"Ġrat":7033,"Dav":7034,"ortheast":7035,"Lo":7036,"Ġasked":7037,"Writer":7038,"Ġelectric":7039,"Ġcovered":7040,"Ġexecutive":7041,"Ġcat":7042,"ĠBir":7043,"Ġstories":7044,"callback":7045,"Ġcycl":7046,"ĠFour":7047,"Ġfellow":7048,"ĠLim":7049,"Ġapplication":7050,"Ev":7051,"ĠRoute":7052,"Ġvan":7053,"Que":7054,"iders":7055,"Record":7056,"Ġdefeat":7057,"GE":7058,"handle":7059,"ĠProject":7060,"ĠHand":7061,"container":7062,"ĠWay":7063,"Ġà¤¦à¤¶à¤ķ":7064,"ĠWall":7065,"Ġplans":7066,"Ġdiscovered":7067,"Ġrecover":7068,"plications":7069,"ĠKenn":7070,"76":7071,"rison":7072,"Ġconstructed":7073,"Del":7074,"Ġpaper":7075,"ga":7076,"Ġathlet":7077,"success":7078,"Ġmethods":7079,"ĠHome":7080,"chang":7081,"Ġstay":7082,"ĠEp":7083,"Ġnature":7084,"Ġsculpt":7085,"Ġshare":7086,"idx":7087,"itzer":7088,"nic":7089,"ouri":7090,"formed":7091,"à¤®à¤ľ":7092,"Ġowner":7093,"ariable":7094,"iec":7095,"ĠUl":7096,"à¤ħà¤Ĺà¤°":7097,"Ġ1946":7098,"Ġfoot":7099,"ami":7100,"ĠCheck":7101,"à¤·à¤§":7102,"à¤®à¤§":7103,"Ġarrived":7104,"struction":7105,"Write":7106,"aylor":7107,"Ġcarry":7108,"Ġordered":7109,"Ġdespite":7110,"HO":7111,"Dem":7112,"Ġà¤¦à¤¶":7113,"ĠKhan":7114,"ĠMany":7115,"present":7116,"Ġà¤Ńà¤Ł":7117,"ĠMinistry":7118,"Ġ1952":7119,"09":7120,"mit":7121,"icon":7122,"term":7123,"ĠLi":7124,"ĠEconom":7125,"Ġcy":7126,"Ġbehav":7127,"Ġà¤ļà¤®":7128,"Ġguest":7129,"ĠId":7130,"Ġletter":7131,"leep":7132,"oday":7133,"Update":7134,"Cal":7135,"Red":7136,"ĠJean":7137,"ĠSpe":7138,"ĠOs":7139,"patch":7140,"Ġà¥¤\"":7141,"Ġsequence":7142,"bourne":7143,"parts":7144,"Ġlink":7145,"ĠJes":7146,"ĠJustice":7147,"ais":7148,"à¤°à¤¥":7149,"ibliography":7150,"Ġnearly":7151,"ilton":7152,"Ġdelete":7153,"Ġcondition":7154,"opts":7155,"ĠRome":7156,"secut":7157,"rolled":7158,"bed":7159,"Ġfeaturing":7160,"ications":7161,"ĠProgram":7162,"ĠSydney":7163,"ĠMedia":7164,"Ġassistant":7165,"Ġ400":7166,"1997":7167,"ucky":7168,"ĠMcC":7169,"Ġtransferred":7170,"à¤ĩà¤ı":7171,"ÑĤ":7172,"Ã¸":7173,"PT":7174,"throw":7175,"ĠPakistan":7176,"Ġtold":7177,"ror":7178,"ĠSab":7179,"Fields":7180,"push":7181,"Ġneighbor":7182,"Ġnearby":7183,"Component":7184,"Gener":7185,"']);":7186,"Ġexpatriate":7187,"mitted":7188,"Olympic":7189,"Container":7190,"ĠAff":7191,"79":7192,"ĠProfessor":7193,"sen":7194,"His":7195,"Ġapproach":7196,"Ġsilver":7197,"Ġ1958":7198,"isher":7199,"Ġrepe":7200,"Ġsaying":7201,"Ġadministrative":7202,"ening":7203,"ĠStadium":7204,"à¤²à¤Ń":7205,"ĠNations":7206,"undred":7207,"Ġconfiguration":7208,"Ġbad":7209,"Parameter":7210,"à¤£à¤¤":7211,"Store":7212,"std":7213,"Ġsu":7214,"ĠLo":7215,"Ġscene":7216,"Ġven":7217,"Ġà¤ħà¤¹à¤®à¤¦":7218,"ĠPres":7219,"Min":7220,"Ġmusicians":7221,"ĠSerb":7222,"agers":7223,"Ġassigned":7224,"ialize":7225,"ĠÂ£":7226,"NAME":7227,"Ġoil":7228,"edom":7229,"Ġhonor":7230,"Ġlisting":7231,"Ġsens":7232,"Ġquestion":7233,"Ġbasis":7234,"ĠMu":7235,"Ã©e":7236,"Ġdistribution":7237,"ji":7238,"local":7239,"Ġactivity":7240,"ĠBab":7241,"ĠSant":7242,"ĠRevolution":7243,"ĠKorean":7244,"ĠPoint":7245,"Dist":7246,"Ġancient":7247,"Ġinternal":7248,"kee":7249,"Ġfast":7250,"ifications":7251,"ĠCat":7252,"ĠFar":7253,"Ġcapacity":7254,"orship":7255,"ĠAthlet":7256,"Ġ1939":7257,"Ġclean":7258,"Ġspirit":7259,"Ġcontact":7260,"ĠCorporation":7261,"Ġ----------":7262,"Ġ1957":7263,"Ġ1959":7264,"Ġfriends":7265,"amber":7266,"ĠDN":7267,"aling":7268,"ĠElect":7269,"Des":7270,"Ġheart":7271,"rix":7272,"Ġtouch":7273,"Ġlives":7274,"Vol":7275,"Ġincreasing":7276,"bec":7277,"Ġargument":7278,"hemat":7279,"Ġsport":7280,"ĠRegion":7281,"à¤ķà¤¶":7282,"encode":7283,"Ġfirm":7284,"ĠBand":7285,"omer":7286,"Ġreflect":7287,"Ġrugby":7288,"Ġà¤ļà¤¤":7289,"perial":7290,"ributed":7291,"bro":7292,"ĠKen":7293,"ursor":7294,"ĠAirport":7295,"ĠArm":7296,"ĠTechnology":7297,"osph":7298,"BI":7299,"Best":7300,"à¤²à¤¦":7301,"Ġfish":7302,"Ġswitch":7303,"Ġdrug":7304,"eller":7305,"Ġwanted":7306,"ĠCambridge":7307,"Body":7308,"ependence":7309,"ĠNetwork":7310,"ĠPrime":7311,"Ġbus":7312,"ishes":7313,"Ġresidents":7314,"Ġmemory":7315,"EL":7316,"Ġimpact":7317,"itness":7318,"Ġrural":7319,"Ġbyte":7320,"Ġconstitu":7321,"feat":7322,"Ġworkers":7323,"à¤£à¤¸":7324,"Det":7325,"Ġdb":7326,"ĠBad":7327,"ĠMedal":7328,"à¤°à¤ķà¤°":7329,"Ġphotograph":7330,"ĠSa":7331,"Reader":7332,"ĠLem":7333,"Ġult":7334,"quarters":7335,"emetery":7336,"ĠRod":7337,"OG":7338,"CD":7339,"acc":7340,"Ġà¤®à¤£":7341,"Ġ1955":7342,"Level":7343,"olitan":7344,"wegian":7345,"Ġvoice":7346,"cest":7347,"ĠOffic":7348,"Ġsoldiers":7349,"orning":7350,"ilters":7351,"Ġà¤ıà¤°":7352,"ika":7353,"ĠBrig":7354,"1996":7355,"59":7356,"Ġà¤Ĩà¤ıà¤Ĺ":7357,"Override":7358,"Ã£":7359,"Ġchampion":7360,"Jul":7361,"chestra":7362,"umes":7363,"Ġversions":7364,"You":7365,"Ġinh":7366,"ĠFire":7367,"exception":7368,"Ġinterp":7369,"ĠGh":7370,"iced":7371,"astic":7372,"parameters":7373,"UP":7374,"ĠĠĠĠĠĠĠĠĠĠĠĠĠĠĠĠĠ":7375,"Ġmurder":7376,"establ":7377,"gar":7378,"osl":7379,"Ġarchitecture":7380,"ori":7381,"ĠAndrew":7382,"Ġrevealed":7383,"Ġdemonstr":7384,"Ġbecomes":7385,"Ġsusp":7386,"ĠAvenue":7387,"ĠMuslim":7388,"TYPE":7389,"Ġ150":7390,"Ġparish":7391,"Ġalongside":7392,"Ġroles":7393,"Ġraces":7394,"à¤Īà¤ķ":7395,"Ġtemplate":7396,"Ġcomputer":7397,"Ġimmediately":7398,"living":7399,"asks":7400,"Ġdraft":7401,"ĠToronto":7402,"ĠCommon":7403,"Ġmunicipal":7404,"rie":7405,"Ġ42":7406,"Ġnom":7407,"Ġpotential":7408,"Ġà¤§à¤®à¤ķ":7409,"69":7410,"Ġopts":7411,"Ġnation":7412,"Ġmedalists":7413,"à¥Ģà¤Ĥ.":7414,"Ġleaders":7415,"ĠPremier":7416,"ĠSciences":7417,"Ġeffects":7418,"Ġclasses":7419,"ĠPen":7420,"sex":7421,"ĠSupreme":7422,"van":7423,"Ġà¤¶à¤¹":7424,"Ġgas":7425,"Ġparticipated":7426,"========":7427,"Ġcontain":7428,"à¤ªà¤¥":7429,"Ġà¤Īà¤°":7430,"ĠPubl":7431,"Ġdra":7432,"Ġprefix":7433,"à¥Ĥà¤ģà¥¤":7434,"Ġacademic":7435,"ĠCre":7436,"owa":7437,"uct":7438,"Ġaccepted":7439,"à¥ĭ.":7440,"ĠLew":7441,"ĠBusiness":7442,"portun":7443,"à¤ħà¤§":7444,"Indian":7445,"results":7446,"igration":7447,"Ä±":7448,"Ġprimarily":7449,"Ġà¤¨à¤·":7450,"Ob":7451,"Ġfigure":7452,"1995":7453,"ĠWin":7454,"olid":7455,"Ġsmaller":7456,"à¤¯à¤¬":7457,"ĠDar":7458,"Background":7459,"Ġassociation":7460,"ĠWisconsin":7461,"Process":7462,"Ġmaximum":7463,"ĠViet":7464,"à¤ıà¤¶à¤¨":7465,"à¤¨à¤¤à¤®":7466,"Ġwinners":7467,"merge":7468,"à¤ıà¤¸à¤ª":7469,"ĠEst":7470,"Ġproduce":7471,"Ġvolume":7472,"Ġattribute":7473,"Ġadministration":7474,"ĠBol":7475,"Ġsal":7476,"Ġspread":7477,"ĠNetherlands":7478,"iate":7479,"zer":7480,"nce":7481,"fn":7482,"erved":7483,"Ġbelong":7484,"Ġ49":7485,"utton":7486,"gers":7487,"Ġidea":7488,"ĠOpt":7489,"Ġ1949":7490,"Ġsites":7491,"enna":7492,"Ġlibrary":7493,"Ġweap":7494,"ĠGuard":7495,"Ġpositions":7496,"à¤Ĩà¤ª":7497,"regon":7498,"ĠBoth":7499,"Ġmetal":7500,"Ġofficially":7501,"Ġdial":7502,"%)":7503,"à¤£à¤ķ":7504,"after":7505,"ĠBa":7506,"Ġsurn":7507,"ĠDuke":7508,"enes":7509,"Ġwalk":7510,"oes":7511,"Ġliterature":7512,"Ġlaws":7513,"Ġdescription":7514,"adow":7515,"à¤¾\"":7516,"ĠSong":7517,"lose":7518,"à¤°à¤°":7519,"ĠTok":7520,"ĠBell":7521,"zo":7522,"meta":7523,"ĠDou":7524,"Jan":7525,"07":7526,"tc":7527,"AF":7528,"bot":7529,"yard":7530,"Ġsolo":7531,"Top":7532,"rical":7533,"lower":7534,"Ġintended":7535,"Ġactually":7536,"osen":7537,"sid":7538,"kg":7539,"actor":7540,"duce":7541,"IV":7542,"pay":7543,"à¤ıà¤¡":7544,"ensis":7545,"ĠFederal":7546,"sql":7547,"urches":7548,"ĠMedical":7549,"Awards":7550,"à¤µà¤¹à¤¨":7551,"Ġdivided":7552,"Ð¾Ð":7553,"ĠOrgan":7554,"Ġà¤¹à¤¨":7555,"Ġà¤Ĳà¤¤":7556,"à¤ħà¤®":7557,"lan":7558,"Ġmixed":7559,"room":7560,"{$":7561,"à¤°à¤Ĺà¤¤":7562,"ĠData":7563,"shal":7564,"Ġpair":7565,"Ġdeclared":7566,"Ġkind":7567,"02":7568,"ĠAlso":7569,"ĠPers":7570,"ĠHan":7571,"je":7572,"ĠHy":7573,"Ġconducted":7574,"Ġoccurred":7575,"ĠMinnesota":7576,"ĠBon":7577,"Ġ-------":7578,"settings":7579,"heim":7580,"Canadian":7581,"Ġ1954":7582,"related":7583,"Ġtradition":7584,"rass":7585,"anga":7586,"Ġreq":7587,"ponents":7588,"Ġwrest":7589,"QL":7590,"Ġdedicated":7591,"ĠCa":7592,"Ġnotable":7593,"Ġarticles":7594,"Ġgreen":7595,"Ġprotect":7596,"ĠCommunity":7597,"arsed":7598,"Ġstars":7599,"ĠLight":7600,"Ġsym":7601,"ĠSom":7602,"lib":7603,"src":7604,"Ġà¤ªà¤Łà¤¨":7605,"ĠSwedish":7606,"Tr":7607,"oder":7608,"ĠEs":7609,"à¤¸à¤Ĺà¤¢":7610,"ĠIOException":7611,"job":7612,"à¤ķà¤Ń":7613,"Ġà¥Ń":7614,"1994":7615,"Ġtowns":7616,"pa":7617,"ĠIndust":7618,"Create":7619,"Ġgrowth":7620,"Gu":7621,"à¤¯à¤ľ":7622,"à¤°à¤¤à¤²à¤¬":7623,"Ġrespectively":7624,"Ġdark":7625,"mes":7626,"yal":7627,"Ġstreet":7628,"bytes":7629,"Ġfa":7630,"ĠAh":7631,"App":7632,"asty":7633,"fort":7634,"water":7635,"Prefix":7636,"Arch":7637,"Local":7638,"ĠÙ":7639,"Ġtreatment":7640,"aska":7641,"Ġà¤ĳà¤ªà¤°":7642,"Types":7643,"leted":7644,"Ġdestroyed":7645,"task":7646,"aset":7647,"buffer":7648,"Ġ1951":7649,"athan":7650,"buf":7651,"Ġquickly":7652,"Ġgrew":7653,"Ġdatabase":7654,"ĠEthics":7655,"Ġ(*":7656,"Ġrank":7657,"Ġtitles":7658,"bi":7659,"orph":7660,"Metadata":7661,"Ġphysical":7662,"Ġtimeout":7663,"Ġà¤µà¤¨à¤¡":7664,"Ġmoving":7665,"Iter":7666,"Ġamb":7667,"Ġà¤ħà¤Ł":7668,"ibly":7669,"rence":7670,"TR":7671,"Ġdomin":7672,"Ġthink":7673,"ĠUs":7674,"Ġfacilities":7675,"unn":7676,"ĠJeff":7677,"limit":7678,"Ġcreation":7679,"Ġplanned":7680,"Ġscale":7681,"ĠWinter":7682,"mode":7683,"ĠTO":7684,"ĠMarg":7685,"ĠSanta":7686,"ĠTurk":7687,"Ġà¤¦à¤¯":7688,"ĠTai":7689,"Ġsetting":7690,"ĠIndiana":7691,"Aut":7692,"rong":7693,"Ġer":7694,"Ġprobably":7695,"Ġnovels":7696,"ĠBaron":7697,"Ġsoftware":7698,"rapper":7699,"Ġnecessary":7700,"Second":7701,"Ġtal":7702,"Ġ1953":7703,"Ġera":7704,"(_":7705,"Ġdigital":7706,"edia":7707,"Ġprominent":7708,"Ġfloor":7709,"à¤¸à¤°à¤ķ":7710,"Ġlatest":7711,"ici":7712,"ĠAk":7713,"Ġcomes":7714,"Ġcombined":7715,"TO":7716,"ĠForest":7717,"Ġhouseholds":7718,"à¤ªà¤¶":7719,"dep":7720,"Ġfocus":7721,"uclear":7722,"Dat":7723,"Ġlaunch":7724,"illery":7725,"Ġotherwise":7726,"attribute":7727,"1980":7728,"season":7729,"Ġconnected":7730,"false":7731,"gorith":7732,"Ġgreater":7733,"Ġcomposer":7734,"Ġillust":7735,"Ġvotes":7736,"ervation":7737,"){":7738,"project":7739,"Ġneeds":7740,"ĠStudies":7741,"usion":7742,"SO":7743,"aki":7744,"ĠVen":7745,"85":7746,"pc":7747,"1992":7748,"Ġhosted":7749,"ĠRog":7750,"Ġfeel":7751,"Ġmut":7752,"Ġà¤°à¤¤":7753,"urer":7754,"Ġpal":7755,"Ġcam":7756,"ĠThree":7757,"Ġhistoric":7758,"Ġà¤Ĩà¤°à¤ķ":7759,"cls":7760,"icted":7761,"à¨":7762,"Ġenter":7763,"Ġnar":7764,"olis":7765,"Christ":7766,"MO":7767,"Rev":7768,"ĠPass":7769,"Ġlock":7770,"oned":7771,"Template":7772,"HP":7773,"Ġà¤µà¤ľà¤¨":7774,"which":7775,"ĠCall":7776,"Ġmountain":7777,"inson":7778,"ussian":7779,"ĠCub":7780,"Ġhighly":7781,"à¤Łà¤¬":7782,"ĠLegisl":7783,"Ġgiving":7784,"Ġequipment":7785,"lyn":7786,"organ":7787,"dist":7788,"ĠHuman":7789,"Ġprec":7790,"Ġagric":7791,"errors":7792,"Ġattend":7793,"Ġplants":7794,"ennessee":7795,"ĠAnton":7796,"Ġà¤łà¤¹à¤°":7797,"ĠSu":7798,"Ġestimated":7799,"Ġagent":7800,"raine":7801,"ĠElizabeth":7802,"Ġpremi":7803,"72":7804,"cles":7805,"Ġpurs":7806,"ĠGro":7807,"Ġà¤ħà¤¸à¤²":7808,"estic":7809,"Sources":7810,"Populated":7811,"Ġir":7812,"Ġdistricts":7813,"ĠSingh":7814,"Ġstreng":7815,"ho":7816,"Ġinstitutions":7817,"1993":7818,"Ġà¤¬à¤ļà¤¨":7819,"cow":7820,"onym":7821,"Ġfunctions":7822,"Ġwithd":7823,"Ġoperating":7824,"Ġefforts":7825,"Car":7826,"det":7827,"Ġblue":7828,"Ġminister":7829,"06":7830,"role":7831,"Function":7832,"endar":7833,"annels":7834,"Ġhash":7835,"ĠSus":7836,"Ġjoint":7837,"bs":7838,"Task":7839,"Sim":7840,"()))":7841,"Ġrecon":7842,"ruit":7843,"Ġopportun":7844,"(&":7845,"ĠMissouri":7846,"omot":7847,"Ġà¤ĩà¤°":7848,"ĠPhiladelphia":7849,"handler":7850,"ĠStand":7851,"Ġadult":7852,"Ġquality":7853,"Ġselect":7854,"sole":7855,"à¤ķà¤²à¤¨":7856,"à¤Ĥ.":7857,"ĠFollowing":7858,"Ġcharge":7859,"original":7860,"Ġability":7861,"ĠRepresentatives":7862,"Bibliography":7863,"Ġresulting":7864,"np":7865,"aug":7866,"IO":7867,"Ġedge":7868,"Ġsets":7869,"Ġmotor":7870,"Ġextension":7871,"à¤ķà¤¦à¤®":7872,"illing":7873,"Ġdepend":7874,"Ġlies":7875,"Ġswim":7876,"Ġstra":7877,"Ġbal":7878,"Ġcoordin":7879,"Sign":7880,"ĠBu":7881,"ĠMain":7882,"ĠBishop":7883,"à¤ıà¤¸à¤ıà¤¸":7884,"([]":7885,"ĠTer":7886,"à¤¦à¤¤":7887,"ansion":7888,"Cent":7889,"Ġdictionary":7890,"only":7891,"ĠBi":7892,"ĠSweden":7893,"Ġcontrovers":7894,"des":7895,"Ġchain":7896,"Ġà¥§à¥®":7897,"stat":7898,"ĠCzech":7899,"Ġdoub":7900,"ĠMemor":7901,"Ġreceive":7902,"rizona":7903,"Ġmeasure":7904,"Ġfinish":7905,"ĠCharl":7906,"ĠDaniel":7907,"ilation":7908,"Ġfemales":7909,"Ġhop":7910,"ĠTy":7911,"ĠPower":7912,"04":7913,"ĠPolicy":7914,"Japan":7915,"Ġtrial":7916,"aga":7917,"ĠDiv":7918,"ĠLady":7919,"Ġconfirmed":7920,"LS":7921,"agh":7922,"Ġseconds":7923,"<?":7924,"Ġperman":7925,"onel":7926,"Ġgirl":7927,"Ġdance":7928,"uls":7929,"ropolitan":7930,"Ġfavor":7931,"ES":7932,"Provider":7933,"metadata":7934,"Ġdeliv":7935,"Ġsimple":7936,"Ġcommonly":7937,"interface":7938,"Ġà¤ķà¤®à¤²":7939,"03":7940,"Ġaffili":7941,"ĠPeak":7942,"stop":7943,"Ġmachine":7944,"Collection":7945,"Match":7946,"Ġleaves":7947,"Ġcitizens":7948,"Ġattention":7949,"anna":7950,"Link":7951,"uous":7952,"Ġà¤Ńà¤Ĺ":7953,"Ġcorrect":7954,"Ġpeace":7955,"David":7956,"ificate":7957,"access":7958,"Ġmicro":7959,"rack":7960,"Ġvariable":7961,"56":7962,"opher":7963,"Ġà¤ıà¤ļ":7964,"Ġcategory":7965,"ĠUN":7966,"Mark":7967,"aret":7968,"Ġmedian":7969,"Ġreviews":7970,"unes":7971,"ĠRen":7972,"Ġwild":7973,"conf":7974,"Geography":7975,"Ġsemi":7976,"Ġorganized":7977,"chron":7978,"Ġà¤Ĳà¤ª":7979,"option":7980,"ython":7981,"ĠBeach":7982,"Ġ1936":7983,"ĠMaryland":7984,"Ġframe":7985,"VID":7986,"Ġà¥§à¥¬":7987,"raq":7988,"Ġstorage":7989,"à¤²à¤¡":7990,"ĠJSON":7991,"Ãº":7992,"fef":7993,"Ġtitled":7994,"expected":7995,"Ġphilosoph":7996,"pattern":7997,"Ã£o":7998,"Ġ{'":7999,"Ġcompared":8000,"eman":8001,"cluding":8002,"iat":8003,"Auth":8004,"Ġpurchased":8005,"Mode":8006,"ĠAdminist":8007,"Ġpet":8008,"ĠOregon":8009,"alo":8010,"rance":8011,"web":8012,"Ġapplied":8013,"Ġrecomm":8014,"PS":8015,"Ġà¤ĵà¤²":8016,"Ġà¤Ĩà¤¨à¤¨":8017,"ĠFer":8018,"Ġbegin":8019,"Next":8020,"à¤ľà¤¦":8021,"('/":8022,"static":8023,"ĠMaster":8024,"har":8025,"orney":8026,"Ġpiano":8027,"worth":8028,"Ġtypically":8029,"Ġ1000":8030,"ods":8031,"à¤Łà¤ķà¤°":8032,"odies":8033,"ighth":8034,"Root":8035,"Ġparliament":8036,"sey":8037,"à¤Ĺà¤¸":8038,"Ġpool":8039,"olt":8040,"CAA":8041,"Ġleadership":8042,"erick":8043,"acter":8044,"Ġdriver":8045,"Ġadopted":8046,"Sett":8047,"North":8048,"Ġcmd":8049,"ographic":8050,"ĠBridge":8051,"Ġ1918":8052,"1991":8053,"Ġcaptured":8054,"ĠWalk":8055,"Ġtherefore":8056,"Ġplot":8057,"ĠWilson":8058,"ĠBrad":8059,"ĠFe":8060,"Â°":8061,"Phil":8062,"Ġà¤¸à¤®à¤ķ":8063,"kes":8064,"Ġpressure":8065,"western":8066,"à¤ªà¤ļ":8067,"Ġwidth":8068,"Mich":8069,"ĠWars":8070,"schema":8071,"apore":8072,"Ġrot":8073,"ĠFox":8074,"Ġà¤Ķà¤·à¤§":8075,"Ġdisease":8076,"89":8077,"Ġengineer":8078,"ĠMilitary":8079,"Ġidentified":8080,"Ġallows":8081,"57":8082,"Ġiniti":8083,"ayers":8084,"oster":8085,"fefefe":8086,"ĠJoe":8087,"Ġà¤¹à¤ķ":8088,"ĠÎ":8089,"Ġcerem":8090,"udget":8091,"Ant":8092,"2021":8093,"Ġheaders":8094,"Ġgenerate":8095,"Work":8096,"à¤²à¤ª":8097,"Ġflight":8098,"Ġrul":8099,"prov":8100,"à¤¡à¤¬":8101,"Ġexperiment":8102,"riminal":8103,"PAR":8104,"Dev":8105,"second":8106,"Ġconference":8107,"Ġfounder":8108,"Ġestate":8109,"Ġactual":8110,"({":8111,"ĠFair":8112,"à¤ķà¤¤à¤®":8113,"Ġwindow":8114,"Australian":8115,"Ġ1938":8116,"Ġà¤īà¤ªà¤¦":8117,"structure":8118,"bool":8119,"Ġagreement":8120,"di":8121,"Ġfiction":8122,"Ġhousing":8123,"Ġcreating":8124,"Ġreduced":8125,"Ġterritory":8126,"ĠCastle":8127,"Ġexpanded":8128,"Ġdir":8129,"Ġreject":8130,"Ġequal":8131,"Ġinstrument":8132,"Ġ'%":8133,"Ġprogramming":8134,"Ġpresence":8135,"62":8136,"ĠCaptain":8137,"Ġconcert":8138,"Ġstone":8139,"TI":8140,"Ġteacher":8141,"Ġcells":8142,"Ġpitch":8143,"ashion":8144,"ĠTaylor":8145,"Go":8146,"\"|":8147,"Ġrestrict":8148,"Ġà¤Ĺà¤¡":8149,"61":8150,"ĠDam":8151,"ĠKir":8152,"ĠIndones":8153,"Debug":8154,"Ġdemand":8155,"SR":8156,"ĠBrook":8157,"ancing":8158,"then":8159,"Ġrare":8160,"ĠGolden":8161,"Ġmill":8162,"Ġbeat":8163,"operation":8164,"ĠKansas":8165,"à¤Ĺà¤£":8166,"mad":8167,"ĠSee":8168,"Ġ..":8169,"route":8170,"Ã¼r":8171,"Ġblood":8172,"Ġà¤¬à¤§":8173,"password":8174,"olver":8175,"Ġà¤¦à¤°à¤µ":8176,"63":8177,"Null":8178,"cha":8179,"ĠJon":8180,"Ġagreed":8181,"Ġscope":8182,"Ġhy":8183,"iplom":8184,"Ġà¥§à¥¦":8185,"Ġrepresenting":8186,"dim":8187,"Ġà¤¬à¤®":8188,"Ġdetails":8189,"Pass":8190,"à¤ıà¤Ł":8191,"unte":8192,"Ġraw":8193,"Ġà¤Ĺà¤¨":8194,"'re":8195,"Ġà¤¬à¤¦à¤²à¤¨":8196,"ĠMunicip":8197,"Ġà¤Ĳà¤²":8198,"Ġserves":8199,"Ġvisit":8200,"TC":8201,"Ġsomething":8202,"Ġcoal":8203,"Ġcars":8204,"Ġjourn":8205,"rees":8206,"à¤ļà¤ķà¤°":8207,"{},":8208,"riptor":8209,"Ġvess":8210,"Ġsoc":8211,"Ã¢":8212,"ĠLive":8213,"ĠNaz":8214,"à¤ļà¤µ":8215,"Ġcour":8216,"ĠFederation":8217,"Ġmiles":8218,"Ġpainting":8219,"Ġcritical":8220,"ĠAnth":8221,"jan":8222,"ĠGree":8223,"oration":8224,"elligence":8225,"Ġcoming":8226,"Tax":8227,"ĠReview":8228,"ambig":8229,"Ġrecognized":8230,"Ġwing":8231,"ĠHay":8232,"Option":8233,"inton":8234,"54":8235,"à¤¶à¤¯":8236,"{})":8237,"stack":8238,"step":8239,"validate":8240,"Failed":8241,"VD":8242,"atrix":8243,"Ġà¤²à¤¹à¤°":8244,"Ġ\"\\":8245,"Ġenem":8246,"Ġ'';":8247,"Ġelim":8248,"Ġspring":8249,"MI":8250,"Target":8251,"viation":8252,"Ġnewly":8253,"ĠRom":8254,"ĠDNPA":8255,"ician":8256,"ĠBaseball":8257,"à¤£à¤µà¤¤":8258,"ĠArthur":8259,"Ġindustrial":8260,"Ġstatement":8261,"olute":8262,"vard":8263,"Ġreturning":8264,"timeout":8265,"Ġregions":8266,"Ġpriest":8267,"ĠMagazine":8268,"ployment":8269,"Death":8270,"à¤ĩà¤ª":8271,"Ġsecondary":8272,"Ġactions":8273,"Ġknowledge":8274,"cal":8275,"ieces":8276,"Ġrecently":8277,"ĠRead":8278,"Ġseats":8279,"Ġtuple":8280,"vin":8281,")]":8282,"ĠBudd":8283,"Ġà¤ıà¤Ĺ":8284,"eta":8285,"strip":8286,"ĠLOG":8287,"Ġ/**":8288,"à¤Ĳà¤¸":8289,"Ġvert":8290,"Ġdocumentary":8291,"afe":8292,"Ġlabor":8293,"ears":8294,"Ġroll":8295,"\"))":8296,"Ġce":8297,"Ġ41":8298,"Definition":8299,"Ġsquad":8300,"Ġshared":8301,"ĠLes":8302,"Conn":8303,"Ġdamage":8304,"à¤¾;":8305,"Ġisset":8306,"ĠDown":8307,"Ident":8308,"Ġcontra":8309,"ĠNow":8310,"Ġengineering":8311,"Ġconverted":8312,"ni":8313,"à¤ħà¤Ń":8314,"Listener":8315,"Ġà¤Īà¤®":8316,"Properties":8317,"Ġcho":8318,"awn":8319,"aming":8320,"Ġstatistics":8321,"aph":8322,"ĠNic":8323,"ying":8324,"Ġregistered":8325,"ĠGallery":8326,"ĠNorway":8327,"Ġjournalist":8328,"71":8329,"Pol":8330,"ĠHo":8331,"Ġacting":8332,"ĠWel":8333,"ĠConnect":8334,"ĠDespite":8335,"Ġbuffer":8336,"Ġà¤ħà¤ľà¤¯":8337,"scription":8338,"74":8339,"My":8340,"ĠRad":8341,"anning":8342,"Ġà¤Ĩà¤Ń":8343,"ĠManagement":8344,"Logger":8345,"Ġcls":8346,"ambda":8347,"ĠMath":8348,"53":8349,"52":8350,"Ġoffers":8351,"ĠTennessee":8352,"ĠEP":8353,"Ġmentioned":8354,"aver":8355,"Ġwall":8356,"ĠWeek":8357,"Ġensure":8358,"ĠPhilippines":8359,"à¤°à¤¯à¤¤":8360,"ĠMic":8361,"TER":8362,"Ġà¤¶à¤ĸ":8363,"stract":8364,"Ġsalt":8365,"ĠCreate":8366,"Ġgained":8367,"Ġsuffered":8368,"Ġdistinct":8369,"Dep":8370,"Ġclassical":8371,"Ġcore":8372,"author":8373,"ĠConf":8374,"ĠAtlantic":8375,"Location":8376,"Ġwidely":8377,"Ġranked":8378,"Ġbegins":8379,"bas":8380,"ek":8381,"ÃŃa":8382,"System":8383,"KE":8384,"utional":8385,"iques":8386,"Sprintf":8387,"ĠArea":8388,"51":8389,"Ġlargely":8390,"Ġbasic":8391,"Transport":8392,"ogs":8393,"à¤Ĺà¤ķ":8394,"Ġà¤ĭà¤£":8395,"height":8396,"Ġbronze":8397,"uese":8398,"à¤Ńà¤µà¤¤":8399,"ĠCollection":8400,"Ġà¤ķà¤ļ":8401,"igrants":8402,"points":8403,"full":8404,"switch":8405,"Ġconcent":8406,"Ġmom":8407,"ĠVi":8408,"tree":8409,"Ġidentity":8410,"ĠMun":8411,"Ġresident":8412,"Ġsales":8413,"Ġcolumns":8414,"bound":8415,"Ġfailure":8416,"Ġfeed":8417,"ĠMemorial":8418,"Ġ',":8419,"Ġsevent":8420,"Ġtheme":8421,"Ġaband":8422,"matches":8423,"Sportspeople":8424,"Ġnominated":8425,"Ġpoly":8426,"while":8427,"ĠSquadron":8428,"Ġhundred":8429,"à¤¼à¥ģ":8430,"children":8431,"Ġfully":8432,"Files":8433,"ĠMike":8434,"ito":8435,"igation":8436,"Ġarts":8437,"DS":8438,"ĠColorado":8439,"ĠPu":8440,"Ġtwice":8441,"email":8442,"iny":8443,"Ġcrime":8444,"Ġresc":8445,"Major":8446,"Ġthings":8447,"iants":8448,"Ġ51":8449,"à¥¤à¥¤":8450,"James":8451,"Ġmulti":8452,"Ġenv":8453,"Ġcontemporary":8454,"ĠSon":8455,"Ġà¤ĳà¤ķ":8456,"ĠJews":8457,"php":8458,"Ġ43":8459,"Euro":8460,"ĠHighway":8461,"inus":8462,"ĠMaria":8463,"à¤¨à¤µà¤°":8464,"ĠBall":8465,"Ġ(),":8466,"fall":8467,"Ġcomponent":8468,"iang":8469,"Ġslow":8470,"Ġà¤²à¤®":8471,"Ġ};":8472,"https":8473,"ti":8474,"Ġinters":8475,"ĠBat":8476,"spect":8477,"wing":8478,"ordon":8479,"Ġà¤ĳà¤°":8480,"isa":8481,"Ġspons":8482,"irement":8483,"ĠMountain":8484,"DA":8485,"asters":8486,"ÙĨ":8487,"Ġmarked":8488,"save":8489,"pute":8490,"rÃ©":8491,"spe":8492,"ĠMoh":8493,"Ġeval":8494,"Ġà¤ĳà¤Ł":8495,"Ġresulted":8496,"Ġfell":8497,"Unlock":8498,"Ġà¤ħà¤¨à¤¨":8499,"Ġgives":8500,"ĠMill":8501,"Ġmetadata":8502,"Miss":8503,"ookie":8504,"Hon":8505,"Ġcancer":8506,"à«":8507,"joy":8508,"Ġattract":8509,"Ġperformances":8510,"fmt":8511,"Ġ1937":8512,"tocol":8513,"Since":8514,"ĠMexican":8515,"Ġvillages":8516,"à¤Łà¤µà¤°":8517,"Ġnotes":8518,"oli":8519,"Ġexpression":8520,"Ġcontainer":8521,"ban":8522,"sets":8523,"etic":8524,"scape":8525,"Ġprem":8526,"vo":8527,"incial":8528,"à¤¨à¤¬":8529,"à¤¹à¤¨à¤¤":8530,"Rail":8531,"Ġburied":8532,"ocated":8533,"Ġà¤¨à¤¶":8534,"Ġà¤īà¤ªà¤Ń":8535,"ĠEngineering":8536,"ĠJunior":8537,"Ġpropos":8538,"olec":8539,"ĠPolit":8540,"à¤¶à¤¸":8541,"ĠJoh":8542,"Ġeducated":8543,"Ġdoesn":8544,"plugin":8545,"abad":8546,"iki":8547,"Ġurban":8548,"rog":8549,"ĠPrim":8550,"Ġà¤ªà¤ļ":8551,"osis":8552,"Ġsimply":8553,"à¤µà¤¯à¤¨":8554,"1989":8555,"Ġec":8556,"tainment":8557,"connect":8558,"ĠEach":8559,"Ġcook":8560,"Sm":8561,"yles":8562,"Nor":8563,"Ġ1919":8564,"Ġfelt":8565,"Ġapply":8566,"ĉĉĊ":8567,"bin":8568,"apel":8569,"Ġclaims":8570,"Ġserial":8571,"apped":8572,"Ġgranted":8573,"ĠDer":8574,"namespace":8575,"ĠSlov":8576,"ĠDisc":8577,"à¤ªà¤Łà¤¨":8578,"Keys":8579,"Long":8580,"ĠOnly":8581,"transl":8582,"Ġscholar":8583,"Ġcommittee":8584,"Ġpict":8585,"Ġpurpose":8586,"Ġaccomp":8587,"Meta":8588,"Ġsettings":8589,"ĠLtd":8590,"à¤°à¤µà¤ķ":8591,"Ġ},":8592,"Ġbow":8593,"Ġmis":8594,"properties":8595,"ĠMember":8596,"Ġvirt":8597,"ĠTal":8598,"Life":8599,"ĠEnt":8600,"ĠDavis":8601,"Ġchairman":8602,"ĠTurkey":8603,"Ġlett":8604,"Ġboy":8605,"Ġcompl":8606,"Parent":8607,"ĠChannel":8608,"ecutive":8609,"Ġ(,":8610,"come":8611,"Ġresp":8612,"Ġfun":8613,"ĠMoscow":8614,"fred":8615,"Ġà¤°à¤®":8616,"à¤¿.":8617,"Ġrh":8618,"Ġobtained":8619,"ĠSecurity":8620,"Ġsupply":8621,"Ġthous":8622,"ĠIP":8623,"à¥ĩ?":8624,"ĠTrust":8625,"Ġkept":8626,"Ġ46":8627,"itts":8628,"Ġcarri":8629,"Ġà¤¦à¤¹":8630,"ĠIV":8631,"ĠFree":8632,"Ġencour":8633,"Ġà¤Ĺà¤łà¤¬":8634,"Ġunless":8635,"ĠServices":8636,"ĠGre":8637,"Ġdefend":8638,"73":8639,"zh":8640,"ĠCountry":8641,"Document":8642,"Ġbit":8643,"ĠStat":8644,"Ġà¤ľà¤¨à¤°à¤²":8645,"entials":8646,"rtype":8647,"icial":8648,"ĠâĢĺ":8649,"Ġreports":8650,"Ġhabit":8651,"ambiguation":8652,"ĠQueensland":8653,"div":8654,"Ġnodes":8655,"Ġattributes":8656,"Ġofficials":8657,"Ġà¤°à¤£à¤¨":8658,"ecause":8659,"ĠKel":8660,"ĠURL":8661,"Ġproviding":8662,"Mo":8663,"acent":8664,"ĠLev":8665,"Ġportray":8666,"ĠBeng":8667,"Non":8668,"Ġtheatre":8669,"Ġformation":8670,"Final":8671,"rac":8672,"à¦":8673,"ester":8674,"Ġelseif":8675,"Ġsignal":8676,"zen":8677,"Ġapi":8678,"à¤®à¤®":8679,"Ġentert":8680,"yes":8681,"ĠVo":8682,"uv":8683,"aste":8684,"à¤£à¤µ":8685,"ĠLewis":8686,"ĠDesign":8687,"decode":8688,"Ġrom":8689,"allel":8690,"Ġcompar":8691,"render":8692,"Ġstarring":8693,"96":8694,"life":8695,"1970":8696,"ints":8697,"Ġdensity":8698,"itzerland":8699,"ĠArizona":8700,"Ġsays":8701,"uality":8702,"Ġà¤ªà¤°à¤¸":8703,"Ġpriv":8704,"rum":8705,"ĠUt":8706,"SU":8707,"arnings":8708,"andy":8709,"Ġrandom":8710,"1988":8711,"Leg":8712,"Timeout":8713,"ĠWat":8714,"ello":8715,"Ġentity":8716,"Ġlosing":8717,"Ġliber":8718,"à¤¾à¤ģ,":8719,"chi":8720,"clear":8721,"Job":8722,"Ġyards":8723,"Ġ1914":8724,"Str":8725,"cat":8726,"Ġextract":8727,"Af":8728,"Ġreform":8729,"]:":8730,"location":8731,"ymn":8732,"EX":8733,"Ġtaught":8734,"Ġdrums":8735,"under":8736,"Ġ52":8737,"Ep":8738,"ĠFamily":8739,"ND":8740,"ĠMalays":8741,"Ġstrugg":8742,"Ġfactory":8743,"ĠAffairs":8744,"Ġpackage":8745,"ĠSav":8746,"Ġ\"%":8747,"Ġcouple":8748,"Ġeas":8749,"ĠYour":8750,"Television":8751,"achment":8752,"ĠColl":8753,"columns":8754,"Ġexpress":8755,"orro":8756,"Ġrecip":8757,"Ġà¤¸à¤°à¤²":8758,"Ġctx":8759,"Ġserious":8760,"Reference":8761,"High":8762,"ancer":8763,"Ġstorm":8764,"hr":8765,"Ġburn":8766,"also":8767,"Ġsurrounding":8768,"Ġcampus":8769,"Ġexchange":8770,"ois":8771,"Ġregister":8772,"API":8773,"wealth":8774,"ĠShort":8775,"Ġinstalled":8776,"ĠBalt":8777,"Ġchosen":8778,"Ġpy":8779,"HL":8780,"Ġscoring":8781,"creen":8782,"JSON":8783,"à¤Īà¤¸":8784,"plies":8785,"Ġupdated":8786,"Ġhandler":8787,"Ġmerged":8788,"à°":8789,"iÃ³n":8790,"Ġà¤¸à¤¦à¤¨":8791,"eral":8792,"Ġauthorities":8793,"ĠRang":8794,"Ġzone":8795,"Ġslight":8796,"Ġà¥®":8797,"Ġà¤µà¤ļà¤¨":8798,"ĠSri":8799,"frame":8800,"mut":8801,"Ġdomain":8802,"Ġusers":8803,"Cert":8804,"ĠElement":8805,"TS":8806,"Å«":8807,"à¤īà¤¥":8808,"weet":8809,"itled":8810,"abama":8811,"Ġtalk":8812,"Ġsuggested":8813,"Ġsynt":8814,"Ġracing":8815,"Ġyounger":8816,"Ġpaid":8817,"Ġ1917":8818,"ĠBooks":8819,"Ġà¤ĩà¤¶":8820,"aux":8821,"ĠIraq":8822,"ĠMelbourne":8823,"Ġtells":8824,"Ġcalls":8825,"Ret":8826,"ĠAnother":8827,"Ġaccident":8828,"Ġfigures":8829,"ĠOfficer":8830,"law":8831,"Ġ1929":8832,"ĠHal":8833,"Ġsure":8834,"Ġdoctor":8835,"Ġà¤¯à¤ľ":8836,"Ġunable":8837,"odd":8838,"aints":8839,"Ġ\"/":8840,"Ġ1935":8841,"Ġspect":8842,"Ġearth":8843,"ĠNY":8844,"Ġ1928":8845,"ĠKal":8846,"Ġsucceeded":8847,"Web":8848,"Mult":8849,"Ġà¤ľà¤¸":8850,"Ġà¤ķà¤¹à¤²":8851,"Ġ1934":8852,"tmp":8853,"ĠNorm":8854,"Ġcab":8855,"lets":8856,"Ġlocations":8857,"Paul":8858,"ĠCy":8859,"card":8860,"Ġ(;":8861,"ĠCle":8862,"coln":8863,"Ġà¤§à¤®":8864,"east":8865,"Ġfacility":8866,"ouses":8867,"anner":8868,"à¤Ľà¤¨":8869,"]['":8870,"ĠZh":8871,"à¤¦à¤¦":8872,"Ġ47":8873,"Ġmaterials":8874,"aus":8875,"tags":8876,"'));":8877,"Ġloan":8878,"otype":8879,"Ġproper":8880,"ĠChris":8881,"ĠSem":8882,"Ġtried":8883,"ĠStock":8884,"86":8885,"ikh":8886,"ivals":8887,"Rich":8888,"orders":8889,"Ġsituation":8890,"Ġinterpret":8891,"----------------":8892,"Ġformerly":8893,"Crit":8894,"Lim":8895,"Ġtrust":8896,"Ġimages":8897,"ĠGreg":8898,"pet":8899,"ĠCape":8900,"Ġwatch":8901,"Ġ1933":8902,"Ġattempts":8903,"Open":8904,"car":8905,"description":8906,"HE":8907,"Ġà¤¶à¤¤à¤ķ":8908,"shot":8909,"Ġremote":8910,"Tree":8911,"Ġshop":8912,"een":8913,"tar":8914,"Ġtwenty":8915,"Ġpainter":8916,"1987":8917,"Ġgovernor":8918,"Ġpartner":8919,"Ġattacks":8920,"coming":8921,"master":8922,"`.":8923,"Ġcritics":8924,"Ġadvert":8925,"Ġ1900":8926,"ĠRet":8927,"execute":8928,"ĠRober":8929,"Ġcompletely":8930,"Ġexam":8931,"Vill":8932,"resp":8933,"ublin":8934,"rency":8935,"Ġallowing":8936,"urance":8937,"disambiguation":8938,"FO":8939,"idge":8940,"ĠArk":8941,"ĠLeon":8942,"Ġvocal":8943,"Ġgoes":8944,"BO":8945,"ĠAustria":8946,"à¤®à¤°à¤£":8947,"RC":8948,"Ġ'',":8949,"Ali":8950,")\"":8951,"Ġarrested":8952,"ĠFellow":8953,"make":8954,"stants":8955,"ruce":8956,"ategories":8957,"Annot":8958,"Robert":8959,"ĠGer":8960,"Ġcaptain":8961,"ahoma":8962,"Ġà¤¬à¤°à¤¸":8963,"Ġshowed":8964,"Ġinjury":8965,"Ġoppos":8966,"Ġscientific":8967,"ĠKim":8968,"ĠĠĠĠĠĠĠĠĠĠĠĠĠĠĠĠĠĠĠĠ":8969,"ĠBarb":8970,"Ġselection":8971,"ometry":8972,"Ġsuccessfully":8973,"HTTP":8974,"Ġtraffic":8975,"ĠCas":8976,"Ġà¤ħà¤ªà¤¡":8977,"Ġaxis":8978,"Ġhall":8979,"à¥ĩà¤Ĥà¤ĥ":8980,"ĠLabor":8981,"ĠStephen":8982,"Ġthread":8983,"à¤²à¤ļà¤¸":8984,"ĠPlan":8985,"ĠDig":8986,"ĠMethod":8987,"ĠFle":8988,"Ġphase":8989,"Ġwins":8990,"ĠEmperor":8991,"Ġcontinues":8992,"ĠMiller":8993,"Ġdesignated":8994,"br":8995,"ĠRoss":8996,"atin":8997,"Me":8998,"ĠFame":8999,"document":9000,"bums":9001,"ictional":9002,"icut":9003,"ĠGener":9004,"Ġnortheast":9005,"Ġteaching":9006,"ĠCons":9007,"Ġadvanced":9008,"gest":9009,"ateur":9010,"ĠRon":9011,"section":9012,"1986":9013,"Education":9014,"à¤ķà¤¹":9015,"Ġmales":9016,"ĠPrad":9017,"ĠKitt":9018,"nership":9019,"else":9020,"ques":9021,"Ġ1932":9022,"Ġexclus":9023,"ĠEntertainment":9024,"ĠLieutenant":9025,"Ġvehicles":9026,".\")":9027,";\"|":9028,"Ġfestival":9029,"ĠSurvey":9030,"Ġà¤¬à¤Ĺ":9031,"klahoma":9032,"ureau":9033,"cm":9034,"atures":9035,"crete":9036,"Ġsail":9037,"ĠInfantry":9038,"Ġaspect":9039,"Roman":9040,"nap":9041,"ĠHard":9042,"ĠNorwegian":9043,"Ġmusician":9044,"Ġsegment":9045,"plicit":9046,"à¤¯à¤¡":9047,"Ġopposition":9048,"ĠLINE":9049,"Ġfeet":9050,"Ġlot":9051,"roit":9052,"stan":9053,"Ġjobs":9054,"Ġsurvey":9055,"Ġdisestabl":9056,"nodes":9057,"hedral":9058,"Ġheav":9059,"Ġuint":9060,"ĠBos":9061,"ĠJer":9062,"ĠCra":9063,"gorithm":9064,"Ġcandidates":9065,"ĠLank":9066,"ingham":9067,"Club":9068,"Ġ1924":9069,"engers":9070,"Ġvalidate":9071,"Ġinspired":9072,"ragon":9073,"agu":9074,"total":9075,"Ġends":9076,"Ġcommander":9077,"ption":9078,"Ġprincipal":9079,"Ġrelative":9080,"Ġà¤ĩà¤µ":9081,"ĠAst":9082,"IL":9083,"stic":9084,"Ġà¤ľà¤¯à¤ª":9085,"Ġ58":9086,"ĠSingapore":9087,"à¥Ģ?":9088,"Ġsurname":9089,"ouston":9090,"ĠEnc":9091,"Ġrespond":9092,"util":9093,"ĠError":9094,"Ġà¤°à¤¦":9095,"Ġvisited":9096,"rell":9097,"comment":9098,"Ġquant":9099,"uilt":9100,"Ġalone":9101,"asion":9102,"Ġescape":9103,"Args":9104,"ceived":9105,"Ġàª":9106,"ĠAM":9107,"ĠAuthor":9108,"istant":9109,"Ġportion":9110,"iser":9111,"Ġter":9112,"Case":9113,"graph":9114,"à¤¦à¤°à¤ħà¤¸à¤²":9115,"Ġsixth":9116,"Ġholds":9117,"qual":9118,"1985":9119,"ologists":9120,"Ġà¤Ńà¤°à¤¤":9121,"Ġmatrix":9122,"Born":9123,"CS":9124,"Ġgrowing":9125,"bra":9126,"died":9127,"isf":9128,"Ġdetermine":9129,"ugu":9130,"Ġsituated":9131,"Ġprotection":9132,"Mal":9133,"Ġsides":9134,"ĠInit":9135,"Notable":9136,"Ġrestaur":9137,"1984":9138,"ĠDor":9139,"ĠDefault":9140,"93":9141,"ĠBah":9142,"Ġtrains":9143,"Ġtransform":9144,"ERR":9145,"Ġbul":9146,"Ġ1910":9147,"Ġcart":9148,"ippi":9149,"Ġsuit":9150,"Load":9151,"Helper":9152,"Init":9153,"glas":9154,"ln":9155,"Ġà¤ĺà¤¨":9156,"Ġpublication":9157,"ĠTokyo":9158,"Ġcoaches":9159,"Ġoldest":9160,"ocation":9161,"97":9162,"Ġsample":9163,"reatest":9164,"ĠMir":9165,"94":9166,"ĠPier":9167,"Ġsafety":9168,"ĠLemmon":9169,"Ġconstant":9170,"Äĥ":9171,"ĠLINEAR":9172,"August":9173,"erts":9174,"Ġhands":9175,"bell":9176,"Ġheadquarters":9177,"Frame":9178,"ĠBillboard":9179,"scale":9180,"ĠSteve":9181,"Ġà¤Ŀà¤Łà¤ķ":9182,"East":9183,"cor":9184,"ĠSwitzerland":9185,"ĠHun":9186,"92":9187,"Ġpassword":9188,"Range":9189,"Ġmeant":9190,"inguished":9191,"essions":9192,"fully":9193,"Ġauthority":9194,"Offset":9195,"ĠBattalion":9196,"ĠHamilton":9197,"Ġaim":9198,"Ġ/*":9199,"NS":9200,"ĠChristmas":9201,"IA":9202,"George":9203,">();":9204,"icket":9205,"ĠBack":9206,"Ġvehicle":9207,"shall":9208,"Ġnorm":9209,"ĠIowa":9210,"Ġà¤¬à¤¦à¤®":9211,"ĠStaff":9212,"Ġending":9213,"Ġmetres":9214,"Ġà¤ĩà¤®à¤°":9215,"Ġrapid":9216,"ĠTerr":9217,"ĠSpacewatch":9218,"Ġsingers":9219,"Plot":9220,"Black":9221,"ĠGreece":9222,"Bel":9223,"wich":9224,"gr":9225,"rett":9226,"ĠTODO":9227,"Ġlayer":9228,"ĠRoy":9229,"ĠCOVID":9230,"Ġà¤ķà¤°à¤£":9231,"ĠForeign":9232,"Ġ1927":9233,"à¤¯à¤¥":9234,"channel":9235,"Ġtower":9236,"Ġdownload":9237,"erto":9238,"asure":9239,"Last":9240,"ĠAlbert":9241,"Ġpromotion":9242,"ĠVietnam":9243,"Ġstrip":9244,"riev":9245,"ĠMas":9246,"Ġnothing":9247,"Ġcalling":9248,"Ġparser":9249,"emory":9250,"Ġshift":9251,"Ġexact":9252,"Ġrisk":9253,"Ġsubsequent":9254,"achelor":9255,"Feat":9256,"Ġroyal":9257,"ĠSocorro":9258,"oti":9259,"Ġachieved":9260,"zone":9261,"Ðº":9262,"ĠStone":9263,"ĠHart":9264,"ĠLiter":9265,"San":9266,"Ġanimals":9267,"Ġsons":9268,"inema":9269,"Ġ1912":9270,"Controller":9271,"ĠStory":9272,"Ġbreaking":9273,"eft":9274,"ĠPict":9275,"Her":9276,"à¥ĩ)":9277,"Ġdetermined":9278,"Ġverb":9279,"omic":9280,"rations":9281,"WE":9282,"ĠTemple":9283,"Route":9284,"iva":9285,"iner":9286,"Ġfans":9287,"à¤µà¤£":9288,"Ġgeneration":9289,"incess":9290,"ĠModern":9291,"ĠAD":9292,"ĠEarl":9293,"olished":9294,"Ġtele":9295,"à¤¯à¤§":9296,"ĠKa":9297,"Ġlogging":9298,"fect":9299,"ĠTransport":9300,"ionally":9301,"words":9302,"offs":9303,"Military":9304,"collection":9305,"Video":9306,"Ġ<<":9307,"####":9308,"Ġ1925":9309,"Ġshell":9310,"Ġà¤ıà¤¡à¤®":9311,"Ġda":9312,"manager":9313,"Ġà¤ªà¤¬":9314,"prise":9315,"ĠIllegal":9316,"Do":9317,"nest":9318,"ĠHT":9319,"Ġsan":9320,"inth":9321,"ĠOcean":9322,"okens":9323,"apes":9324,"seud":9325,"Pool":9326,"ghan":9327,"nections":9328,"1983":9329,"Ġassign":9330,"Ġaired":9331,"ifically":9332,"ĠAlabama":9333,"ĠTournament":9334,"ĠMarc":9335,"ects":9336,"starts":9337,"Ġenjoy":9338,"username":9339,"Color":9340,"night":9341,"Ġcopies":9342,"ferred":9343,"Ġletters":9344,"Big":9345,"Ġpolic":9346,"91":9347,"Func":9348,"alias":9349,"adi":9350,"ĠInvalid":9351,"ĠAPI":9352,"ĠCur":9353,"ĠCook":9354,"ĠPath":9355,"Ġ1922":9356,"secutive":9357,"ĠAnderson":9358,"Ġreli":9359,"Ġmemor":9360,"ridges":9361,"mult":9362,"Ġfighting":9363,"Ġroof":9364,"Ġ1931":9365,"js":9366,"Ġbrothers":9367,"ULT":9368,"Ġnob":9369,"ĠWell":9370,"Ġopera":9371,"look":9372,"Ġseem":9373,"scope":9374,"domain":9375,"à¤¯à¤Łà¤¨":9376,"ĠManchester":9377,"normal":9378,"angle":9379,"ĠHoly":9380,"iph":9381,"Ġaudience":9382,"Ġexpansion":9383,"(\"%":9384,"Ġlyrics":9385,"Ġà¤ıà¤¸à¤ª":9386,"gency":9387,"Ġdaily":9388,"agen":9389,"uter":9390,"ĠFord":9391,"(\\":9392,"agan":9393,"olas":9394,"Ġsense":9395,"Ġlab":9396,"iments":9397,"Ġloop":9398,"March":9399,"Family":9400,"Ġ120":9401,"Directory":9402,"Ġ\"\",":9403,"Ġclimate":9404,"Ġinvent":9405,"leton":9406,"ĠCab":9407,"ĠFront":9408,"ĠChile":9409,"Ġà¤ħà¤«à¤Ĺ":9410,"à¤¸à¤Ń":9411,"Ġcompetitions":9412,"atalog":9413,"ensor":9414,"dd":9415,"Ġnarrow":9416,"Ġpiece":9417,"Ġà¤¸à¤°à¤¸":9418,"ĠTelevision":9419,"ocese":9420,"package":9421,"Ġà¤ħà¤ªà¤²":9422,"chen":9423,"ĠForces":9424,"ivalent":9425,"Ġfr":9426,"fe":9427,"Some":9428,"Ġalternative":9429,"ĠInst":9430,"Ġ1921":9431,"Ġtemple":9432,"Ġhistorian":9433,"enny":9434,"aching":9435,"ĠKentucky":9436,"risis":9437,"show":9438,"Ġbought":9439,"Ġdiplom":9440,"Ġmatter":9441,"ĠÄ":9442,"Ġtrees":9443,"ĠBarn":9444,"Ġcorner":9445,"math":9446,"ĠAud":9447,"elli":9448,"ĠJos":9449,"Ġtrying":9450,"à¤ķà¤ħà¤ª":9451,"à¤ĩà¤¬à¤°":9452,"Ġscheduled":9453,"continue":9454,"Ġà¤¸à¤®à¤¨":9455,"Op":9456,"rait":9457,"Ġyellow":9458,"Works":9459,"Ġeffective":9460,"rainian":9461,"rine":9462,"Ġdropped":9463,"Ġcharts":9464,"contains":9465,"Ġà¤¸à¤Ł":9466,"Ġ56":9467,"Ġfair":9468,"ads":9469,"Ġsay":9470,"ĠPhilip":9471,"ĠBurn":9472,"Stack":9473,"Parse":9474,"Ġrelatively":9475,"Ġtrib":9476,"ĠRose":9477,"Ġstd":9478,"Ġfrequently":9479,"ENT":9480,"Ġà¤ħà¤°à¤µ":9481,"ĠTs":9482,"Ġnegative":9483,"Ġonto":9484,"ircle":9485,"icode":9486,"à¤°à¤¦à¤¸":9487,"phas":9488,"Ġpand":9489,"Ġmand":9490,"product":9491,"Ġstraight":9492,"efined":9493,"addr":9494,"NotFound":9495,"Cre":9496,"ordan":9497,"issippi":9498,"ĠTit":9499,"Ġrefused":9500,"ĠTan":9501,"ĠVis":9502,"ĠNa":9503,"Ġà¤Ńà¤°à¤¨":9504,"Ġutil":9505,"reshold":9506,"Ġreceiving":9507,"Ġsys":9508,"Ġil":9509,"oen":9510,"Step":9511,"rule":9512,"Ġanaly":9513,"Ġdates":9514,"à¤ĩà¤¸à¤¸":9515,"ĠReal":9516,"hat":9517,"otic":9518,"rome":9519,"Ġpull":9520,"LC":9521,"oured":9522,"Ġvent":9523,"elve":9524,"Ġnote":9525,"Ġapproved":9526,"ĠGil":9527,"Ġà¤®à¤®à¤¤":9528,"Close":9529,"lon":9530,"Ġwear":9531,"hard":9532,"ĠDun":9533,"1982":9534,"Ġstarts":9535,"Ġhydro":9536,"ĠPrix":9537,"iration":9538,".\");":9539,"Ġdrive":9540,"III":9541,"]]":9542,"Attributes":9543,"à¤ļà¤®":9544,"ĠCemetery":9545,"backs":9546,"GET":9547,"Ġbillion":9548,"Ġcricket":9549,"ĠTurn":9550,"ĠNCAA":9551,"Ġmarg":9552,"igenous":9553,"parser":9554,"Following":9555,"Ġperforming":9556,"Ġsoutheast":9557,"ĠGi":9558,"onomy":9559,"Ġcommit":9560,"Ġbuf":9561,"à¤Ĺà¤ª":9562,"ships":9563,"mont":9564,"Ġsettled":9565,"Ġà¤ķà¤·":9566,"ĠWhe":9567,"uy":9568,"Ġà¤¹à¤¦":9569,"Ġlect":9570,"Ġ53":9571,"Delete":9572,"ĠSenior":9573,"Ġsexual":9574,"Ġpages":9575,"custom":9576,"ĠNev":9577,"Ġsrc":9578,"Ġexternal":9579,"ĠUkraine":9580,"Ġtrim":9581,"Ġhorse":9582,"icians":9583,"Ġà¤¨à¤¸":9584,"cut":9585,"à¥ĩ'":9586,"Ġbeaut":9587,"eric":9588,"otes":9589,"Ġ];":9590,"While":9591,"Ġve":9592,"directory":9593,"Ġdepth":9594,"eler":9595,"Ġà¤°à¤ļ":9596,"olo":9597,"Ġring":9598,"system":9599,"Ġago":9600,"Ġattempted":9601,"ĠSimon":9602,"boy":9603,"ĠDom":9604,"à¤Łà¤¸":9605,"ferences":9606,"84":9607,"ĠAli":9608,"Ġadvance":9609,"à¤¼à¤¾,":9610,"ante":9611,"Ġiron":9612,"Ġmile":9613,"ĠToday":9614,"itories":9615,"Ġ1926":9616,"outs":9617,"Ġcommissioned":9618,"ĠDiego":9619,"Ġschema":9620,"anes":9621,"CI":9622,"Pay":9623,"prop":9624,"wall":9625,"Ġcontained":9626,"Ġschol":9627,"Ġinher":9628,"Parser":9629,"Ġarms":9630,"iversary":9631,"dam":9632,"nie":9633,"uma":9634,"Ġbey":9635,"Ġple":9636,"Ġstock":9637,"Ġpilot":9638,"ourses":9639,"rt":9640,"Ġ1923":9641,"Seg":9642,"Ġeconomy":9643,"Sam":9644,"DF":9645,"Ġqualified":9646,"oni":9647,"Ġbill":9648,"idget":9649,"ĠWorks":9650,"zi":9651,"Ġtennis":9652,"Ġà¤Łà¤ķ":9653,"Ġentitled":9654,"Ġmayor":9655,"ĠSunday":9656,"Mount":9657,"Ġprice":9658,"inces":9659,"Ġdoing":9660,"iami":9661,"oslav":9662,"83":9663,"ieval":9664,"VAL":9665,"ista":9666,"Schema":9667,"Ġlocomot":9668,"Italian":9669,"sv":9670,"contents":9671,"Michael":9672,"ardo":9673,"Buildings":9674,"Parameters":9675,"Http":9676,"Width":9677,"Ġchalleng":9678,"Ġoccurs":9679,"upl":9680,"panic":9681,"Ġgirls":9682,"DP":9683,"isters":9684,"Ġlabels":9685,"Ġlake":9686,"à¤ĸà¤¦":9687,"Ġ\",":9688,"Ġpred":9689,"Ġfolk":9690,"Ġthir":9691,"ĠConnecticut":9692,"Ġcovers":9693,"Ġharm":9694,"ĠTa":9695,"ĠAmericans":9696,"getValue":9697,"Ġlists":9698,"Songs":9699,"Ġneighborhood":9700,"Ġlearning":9701,"ĠBuilding":9702,"Ġhers":9703,"ĠNap":9704,"ĠHamp":9705,"ĠLincoln":9706,"Ġfounding":9707,"Ġ54":9708,"ĠQuebec":9709,"ĠSound":9710,"Ġexhibition":9711,"âĢł":9712,"enez":9713,"Ġderived":9714,"Operation":9715,"à¤ĩà¤¬":9716,"Ġpassing":9717,"Ã©t":9718,"Ġ1916":9719,"Ġdefinition":9720,"').":9721,"Ġà¤ĩà¤§à¤°":9722,"ĠJane":9723,"Ġrain":9724,"Ġtemperature":9725,"kov":9726,"hop":9727,"Ġtranslation":9728,"ĠJacob":9729,"Bra":9730,"appe":9731,"pare":9732,"chant":9733,"ĠRegional":9734,"à¥Ī-":9735,"Ġdecre":9736,"evin":9737,"ĠShar":9738,"ĠTar":9739,"ĠCroat":9740,"Ġtrig":9741,"ective":9742,"opes":9743,"Ġconsult":9744,"à¤°à¤ķà¤¤":9745,"87":9746,"ĠNote":9747,"ĠRecord":9748,"Ġcombat":9749,"Ġ250":9750,"à¥Ĥà¤Ĥ,":9751,"Ġconsecutive":9752,"ecture":9753,"ĠTurkish":9754,"Ġà¤Ńà¤°à¤ª":9755,"HA":9756,"Ġrear":9757,"ceptions":9758,"ĠOklahoma":9759,"Ġbroke":9760,"Label":9761,"grade":9762,"Ġmanagers":9763,"uties":9764,"Reception":9765,"ĠBulg":9766,"ĠHeart":9767,"ĠExecutive":9768,"Ġexpect":9769,"ĠMarine":9770,"Cor":9771,"trim":9772,"Ġprepar":9773,"BU":9774,"Ã©s":9775,"Ġopposed":9776,"Ġdomestic":9777,"Dom":9778,"Ġà¤ķà¤¥à¤¨":9779,"ĠTel":9780,"vol":9781,"Ġbeyond":9782,"Ġjudge":9783,"Ġemployed":9784,"ĠSher":9785,"ĠHoward":9786,"ĠPhys":9787,"non":9788,"à¤µà¤¡":9789,"ĠArmen":9790,"Ġbra":9791,"Ġincident":9792,"à¤¦à¤ª":9793,"Ġ1915":9794,"Len":9795,"ĠSix":9796,"ĠPradesh":9797,"Ġacts":9798,"dig":9799,"Ġattacked":9800,"friend":9801,"note":9802,"Ġpermanent":9803,"Av":9804,"Ġwinter":9805,"TH":9806,"ittsburgh":9807,"resources":9808,"Ġliterary":9809,"1960":9810,"Ġà¤ķà¤µà¤°":9811,"chell":9812,"uted":9813,"ĠPortuguese":9814,"ĠDream":9815,"Ġbehavior":9816,"Europe":9817,"imore":9818,"Ġà¤ħà¤«à¤¸à¤°":9819,"à¤¸à¤¹":9820,"Any":9821,"CP":9822,"azon":9823,"Ġà¤°à¤«":9824,"Ġpresidential":9825,"Ġfocused":9826,"wick":9827,"Ġhyp":9828,"utils":9829,"Ġcollected":9830,"irus":9831,"ĠWhit":9832,"ĠAllen":9833,"Ġactresses":9834,"anton":9835,"anger":9836,"Ġapparent":9837,"Ġjazz":9838,"anned":9839,"Ġinhabit":9840,"Ġà¤ĵà¤ªà¤¨":9841,"Ġà¤Ķà¤¦":9842,"Ġprotected":9843,"Ġlif":9844,"Ġkilling":9845,"Ġguard":9846,"Ang":9847,"Football":9848,"Ġfactor":9849,"star":9850,"Ġà¤ķà¤¦":9851,"Ġmorning":9852,"Ġà¥§à¥¨":9853,"plode":9854,"Ġvisual":9855,"person":9856,"ught":9857,"Ġdefense":9858,"Ġviews":9859,"raction":9860,"ologies":9861,"Ġsector":9862,"ĠNative":9863,"Ġ57":9864,"Ġreasons":9865,"sum":9866,"oa":9867,"fin":9868,"à¥ģ-":9869,"Ġvice":9870,"ĠLabour":9871,"ĠHash":9872,"à¤£à¤®":9873,"alia":9874,"Ġlearn":9875,"Ġaged":9876,"abilities":9877,"à¤ıà¤µ":9878,"Ġ1911":9879,"Ġà¤®à¤¶à¤¹":9880,"Ġfought":9881,"Ġconsisted":9882,"Ġbottom":9883,"hatt":9884,"Ġseed":9885,"Ġcomponents":9886,"ĠĠĠĠĠĠĠĠĠĠĠĠĠĠĠĠĠĠĠĠĠ":9887,"ĠCost":9888,"ci":9889,"Ġrepresentative":9890,"ĠGall":9891,"gov":9892,"ĠGordon":9893,"Ġà¤ıà¤ķà¤®":9894,"ĠBrun":9895,"ĠSever":9896,"incorporated":9897,"PRO":9898,"profile":9899,"ĠGram":9900,"ĠHarry":9901,"Sk":9902,"controller":9903,"iley":9904,"Ġextensive":9905,"Ġinsert":9906,"PAT":9907,"Ġmask":9908,"Ġways":9909,"Ġshortly":9910,"Ġoccupied":9911,"ĠAdministration":9912,"Ġarran":9913,"1981":9914,"Ġholding":9915,"Ġfunding":9916,"à¤īà¤¦":9917,"ruth":9918,"ĠTher":9919,"à¤²à¤ľ":9920,"Ġtor":9921,"inate":9922,"Ġmidfield":9923,"roke":9924,"Ġrefers":9925,"ĠChildren":9926,"she":9927,"Ġpieces":9928,"urric":9929,"Ġdelay":9930,"axis":9931,"try":9932,"Each":9933,"-+":9934,"aml":9935,"ĠTony":9936,"ĠPun":9937,"ĠGib":9938,"andra":9939,"orough":9940,"Ġpowerful":9941,"ĠArgentina":9942,"ĠSwiss":9943,"Ġchurches":9944,"ĠVice":9945,"Ġmo":9946,"ĠAge":9947,"Ġspeech":9948,"Ġtc":9949,"ĠNaval":9950,"component":9951,"Ġrequires":9952,"82":9953,"Ġbr":9954,"isms":9955,"ĠHockey":9956,"Storage":9957,"ĠDomin":9958,"ĠAdv":9959,"elle":9960,"Ġlib":9961,"1979":9962,"ĠLike":9963,"_,":9964,"June":9965,"ĠBureau":9966,"ĠDyn":9967,"bind":9968,"nergy":9969,"ĠWalter":9970,"ategy":9971,"emble":9972,"Sch":9973,"ĠEc":9974,"ĠĠĠĠĠĠĠĠĠĠĠĠĠĠĠĠĠĠ":9975,"usal":9976,"ĠDate":9977,"going":9978,"ĠKat":9979,"issance":9980,"Ġenvironmental":9981,"Ġà¤Ķà¤¸à¤¤":9982,"à¤¸à¤«":9983,"Ġà¤īà¤Ĺ":9984,"Ġcontrast":9985,"Ġretirement":9986,"Ġsust":9987,"ĠFinn":9988,"ĠNag":9989,"GER":9990,"Po":9991,"ĠLind":9992,"Japanese":9993,"ĠTable":9994,"Box":9995,"ĠNFL":9996,"ĠArrayList":9997,"Ġdirectors":9998,"Ġherself":9999,"Ġkick":10000,"Ġsportspeople":10001,"stances":10002,"ĠTen":10003,"Ġ'\"":10004,"Ġ72":10005,"dale":10006,"Ġgetting":10007,"à¤Łà¤°à¤µ":10008,"Ġvac":10009,"Ġoffices":10010,"à¤¯à¤Łà¤ķ":10011,"Role":10012,"ĠBrigade":10013,"Ġà¤¨à¤®à¤ķ":10014,"Ġgene":10015,"rieve":10016,"Ġfresh":10017,"ographical":10018,"Ġalleged":10019,"Ġnuclear":10020,"Rule":10021,"ĠGard":10022,"Gen":10023,"ayan":10024,"ĠDoctor":10025,"Ġanimated":10026,"Ġtouchdown":10027,"aby":10028,"Ġkil":10029,"Channel":10030,"July":10031,"ĠPM":10032,"ownt":10033,"ĠNich":10034,"Ġflat":10035,"ĠSquare":10036,"ĠMit":10037,"Ġreduce":10038,"ools":10039,"'m":10040,"unit":10041,"arry":10042,"Ġfashion":10043,"opter":10044,"cheme":10045,"`,":10046,"Ġwound":10047,"Ġsand":10048,"arest":10049,"Ġà¥§à¥«":10050,"ĠFund":10051,"oved":10052,"ĠLow":10053,"Pe":10054,"ĠLouisiana":10055,"à¥Ĥà¤ģ,":10056,"Ġfuel":10057,"pm":10058,"uns":10059,"ĠNO":10060,"locale":10061,"SER":10062,"paths":10063,"ĠLiberal":10064,"ĠHonor":10065,"ĠĠĠĠĊ":10066,"ĠEvent":10067,"Ġpatients":10068,"ĠModel":10069,"ĠLegislative":10070,"ailand":10071,"ĠHouston":10072,"ipping":10073,"ragment":10074,"Ġrecognition":10075,"Ġ1908":10076,"ooth":10077,"Flor":10078,"Ġrough":10079,"Ġtechnical":10080,"uris":10081,"Ġinvalid":10082,"Ġreally":10083,"Ġultimately":10084,"acts":10085,"aza":10086,"Ġcontributed":10087,"Expatriate":10088,"81":10089,"ĠYouth":10090,"ĠSky":10091,"Railway":10092,"Histor":10093,"ĠWy":10094,"Policy":10095,"ĠKy":10096,"icide":10097,"Ġexpressed":10098,"Ġreligion":10099,"Ġsupporting":10100,"Ġà¤¤à¤¹à¤¸":10101,"Ġpasses":10102,"Ġsoccer":10103,"1978":10104,"BLE":10105,"don":10106,"Ġchoice":10107,"poses":10108,"Height":10109,"alled":10110,"Ġà¤¬à¤ķ":10111,"elson":10112,"Ġansw":10113,"à¥Ģ\"":10114,"Ġweapons":10115,"iful":10116,"Scott":10117,"uda":10118,"Ġslightly":10119,"Ġhighway":10120,"Ġ1913":10121,"redited":10122,"register":10123,"ĠInformation":10124,"Ġà¤ľà¤¬à¤°à¤¦à¤¸":10125,"Ġà¤®à¤Ľà¤²":10126,"à¤ªà¤¹à¤²":10127,"à¸":10128,"otte":10129,"azines":10130,"Ġinaug":10131,"ussion":10132,"ĠEnvironment":10133,"Ġobserved":10134,"ryst":10135,"à¤¿'":10136,"Ã¥":10137,"ĠClark":10138,"groups":10139,"agues":10140,"Ġà¤ķà¤¤":10141,"Ġcompris":10142,"aro":10143,"trace":10144,"Ġinvestigation":10145,"à¤ªà¤°à¤µ":10146,"ĠExt":10147,"ĠVillage":10148,"hentication":10149,"ĠRol":10150,"Before":10151,"ĠTaiwan":10152,"Ġrequested":10153,"%.":10154,"Ã´":10155,"ĠBrand":10156,"Ġchampions":10157,"ĠRow":10158,"RS":10159,"Json":10160,"Pan":10161,"Ġairport":10162,"Ġstack":10163,"white":10164,"Medal":10165,"hematics":10166,"odox":10167,"ĠHeritage":10168,"Ġsteel":10169,"Ġappropri":10170,"exit":10171,"Ġdynasty":10172,"ework":10173,"Villages":10174,"Former":10175,"ĠCirc":10176,"Short":10177,"ampl":10178,"ĠMississippi":10179,"inburgh":10180,"rane":10181,"ĠExpress":10182,"Ġfinds":10183,"Ġbudget":10184,"Ġeducational":10185,"Namespace":10186,"ĠGirl":10187,"ĠEag":10188,"Position":10189,"Ġones":10190,"Ġfaced":10191,"Ġorders":10192,"clusion":10193,"Ġtropical":10194,"à¤ıà¤Ĩà¤Ī":10195,"ovo":10196,"Ġcenturies":10197,"ĠKam":10198,"arner":10199,"ĠChampions":10200,"Ġ\".":10201,"Space":10202,"aration":10203,"Ġviolence":10204,"Ġrender":10205,"ĠAlber":10206,"ĠPot":10207,"ĠDublin":10208,"ository":10209,"Ð»":10210,"account":10211,"rik":10212,"ĠCommonwealth":10213,"Vis":10214,"atically":10215,"Module":10216,"ĠAnne":10217,"à¤µà¤¤à¤¨":10218,"Ġsubstr":10219,"pository":10220,"rot":10221,"Ġpayload":10222,"Ġestablishment":10223,"ĠLocal":10224,"ĠPope":10225,"ĠNick":10226,"ĠFa":10227,"Ġ<-":10228,"Ġskip":10229,"Ġ'\\":10230,"Ġà¥¨à¥¦":10231,"Ġ59":10232,"0000":10233,"UM":10234,"ĠCEO":10235,"ĠBelgium":10236,"ĠWolf":10237,"ĠChall":10238,"Ġà¤¬à¤¨à¤ķà¤°":10239,"Ġà¤°à¤ĸà¤ķà¤°":10240,"Ġà¤ķà¤²à¤°":10241,"member":10242,"Events":10243,"April":10244,"Most":10245,"ĠApp":10246,"relation":10247,"alog":10248,"ĠDC":10249,"Ġcastle":10250,"uh":10251,"ĠTerm":10252,"ĠBou":10253,"Ġà¤Ĩà¤ĩà¤ı":10254,"ĠPa":10255,"ĠStr":10256,"ĠIr":10257,"high":10258,"Ġio":10259,"ĠReb":10260,"sync":10261,"Cond":10262,"ĠPlace":10263,"ĠGab":10264,"Ġwalls":10265,"space":10266,"Ġpaintings":10267,"oser":10268,"cfg":10269,"Ġfunds":10270,"lang":10271,"ÙĬ":10272,"ĠJay":10273,"ĠGlobal":10274,"hedule":10275,"Ġscheme":10276,"antasy":10277,"Ġà¤Ľà¤ł":10278,"ĠDur":10279,"ĠThen":10280,"Ġ99":10281,"ĠAmong":10282,"ĠBrazilian":10283,"Search":10284,"nia":10285,"à¤¼à¥Ī":10286,"Ġà¤¦à¤«":10287,"Ġfavour":10288,"ĠHawai":10289,"Ġà¤ļà¤®à¤ķ":10290,"MC":10291,"Ġfranch":10292,"ĠStew":10293,"ĠProm":10294,"die":10295,"ĠShah":10296,"'.$":10297,"Ġdeleg":10298,"Ġexistence":10299,"à¤Ŀà¤¸":10300,"Ids":10301,"finals":10302,"ĠInternet":10303,"Ġgets":10304,"Ġfix":10305,"ocker":10306,"gments":10307,"cas":10308,"loyd":10309,"Ġenemy":10310,"Star":10311,"Hen":10312,"Ġà¤Ńà¤¡":10313,"Ġsac":10314,"1975":10315,"Ġminimum":10316,"1977":10317,"ĠBuff":10318,"Two":10319,"ushed":10320,"à¤Ľà¤¡":10321,"Ġplanning":10322,"jection":10323,"ĠValid":10324,"Ġà¤ľà¤Ł":10325,"faces":10326,"Print":10327,"Ġ66":10328,"Ġpoetry":10329,"Ġrival":10330,"ĠDouglas":10331,"sect":10332,"racy":10333,"à¤ĸà¤Ń":10334,"Tit":10335,"Ġprogramme":10336,"Ġwind":10337,"Charles":10338,"Ġpowers":10339,"September":10340,"Ġemphas":10341,"ĠInn":10342,"ĠBan":10343,"Ġstadium":10344,"1950":10345,"getMessage":10346,"Ġlawyer":10347,"Ġdocuments":10348,"Settings":10349,"à¥ĭà¤Ĥà¥¤":10350,"Ġreign":10351,"Ġà¤¬à¤¨à¤µ":10352,"Ġà¤®à¤¹à¤ľ":10353,"Ġcollections":10354,"à¤®à¤¹à¤¤":10355,"ĠHotel":10356,"ega":10357,"Ġregarding":10358,"ĠSilver":10359,"à¤°à¤ķà¤°à¤£":10360,"ricket":10361,"Ġwealth":10362,"Ġbands":10363,"October":10364,"ĠRound":10365,"ellite":10366,"Ġindependence":10367,"Ġcrow":10368,"Ùħ":10369,"iary":10370,"amo":10371,"Identifier":10372,"nil":10373,"Ġshut":10374,"Ġabandoned":10375,"Ġà¤Ĩà¤ªà¤¤":10376,"Ġà¤°à¤¹à¤¸":10377,"Ġadvant":10378,"Ġvalley":10379,"Ġarrang":10380,"hol":10381,"essed":10382,"apy":10383,"Ġprev":10384,"ĠTamil":10385,"Ġglass":10386,"each":10387,"leges":10388,"Ġsought":10389,"course":10390,"Ġbinary":10391,"category":10392,"sing":10393,"Ġformal":10394,"Ġdeveloping":10395,"Ġguns":10396,"ĠFace":10397,"Ġ85":10398,"Ġhotel":10399,"Copy":10400,"rav":10401,"argo":10402,"Ġà¤ĵà¤®":10403,"ĠMA":10404,"Ġencoding":10405,"ĠLanc":10406,"ĠReserve":10407,"à¤¤à¤ķà¤°":10408,"ATION":10409,"ĠPortugal":10410,"Scope":10411,"Ġtx":10412,"Ġà¤īà¤§à¤°":10413,"ĠSin":10414,"FAULT":10415,"jab":10416,"Ġà¤¦à¤¤":10417,"Ġtranslated":10418,"ĠBecause":10419,"Ġcas":10420,"Ġà¤Ľà¤µ":10421,"borough":10422,"Ġinfluenced":10423,"Ġvariables":10424,"Ġgrade":10425,"umar":10426,"Ã«":10427,"missions":10428,"Ġcricketers":10429,"Ġà¤®à¤¨à¤®":10430,"ĠDa":10431,"arguments":10432,"à¤ıà¤®à¤¸":10433,"Ø§ÙĦ":10434,"Ġislands":10435,"ĠKer":10436,"ifer":10437,"application":10438,"Ġbuilder":10439,"ĠAfghan":10440,"Ġrepresentation":10441,"ounce":10442,"ĠOperation":10443,"Ġpartnership":10444,"Ġclin":10445,"ĠPatrick":10446,"Ġdiam":10447,"Ġeg":10448,"Ġà¤ľà¤¨à¤ªà¤¦":10449,"Ġaffected":10450,"Perm":10451,"oda":10452,"identifier":10453,"Ġrequests":10454,"Ã³w":10455,"ĠLeb":10456,"Unit":10457,"burn":10458,"DC":10459,"zip":10460,"Ġgar":10461,"inks":10462,"Ġargued":10463,"Ġidx":10464,"ĠConfig":10465,"Ġbond":10466,"ĠFrederick":10467,"Ġsections":10468,"ĠDetroit":10469,"Down":10470,"Ġmessages":10471,"Msg":10472,"à¤¯à¤Ń":10473,"Ġpeak":10474,"isting":10475,"Ġfixed":10476,"ĠMand":10477,"eners":10478,"Ġcorpor":10479,"million":10480,"Ġancest":10481,"Ġchannels":10482,"Ġtrace":10483,"Ġwor":10484,"ĠNig":10485,"Ġà¥¤'":10486,"Ġcausing":10487,"Ġconsisting":10488,"rent":10489,"Ġfinishing":10490,"ĠDanish":10491,"ĠNet":10492,"Ġà¤ªà¤¦à¤ķ":10493,"orf":10494,"à¤Ńà¤¦":10495,"UID":10496,"Ġbrown":10497,"Ġsomeone":10498,"vals":10499,"ĠCensus":10500,"ĠLast":10501,"Ġpoll":10502,"phone":10503,"Ġrap":10504,"à¤³":10505,"Cap":10506,"aren":10507,"Ġworldwide":10508,"mail":10509,"Ġblocks":10510,"1976":10511,"ĠHarvard":10512,"Ġmoment":10513,"onder":10514,")):":10515,"Expression":10516,"mouth":10517,"ĠDal":10518,"ĠNav":10519,"ĠBox":10520,"January":10521,"Ġpredict":10522,"Ġinjured":10523,"ĠPerform":10524,"bean":10525,"Ġextrem":10526,"ĠCrit":10527,"ĠTig":10528,"Ġcauses":10529,"ĠHarris":10530,"Ġsolid":10531,"à¤¾à¥ħ":10532,"ĠCop":10533,"ĠDVD":10534,"ĠAbout":10535,"Russian":10536,"Var":10537,"Ġà¤¤à¤ª":10538,"ĠNik":10539,"Ġreserv":10540,"Pri":10541,"ĠRuntime":10542,"Ġaid":10543,"publ":10544,"ĠMoore":10545,"1974":10546,"Ġattached":10547,"Ġdecades":10548,"ĠDenmark":10549,")),":10550,"Ġspot":10551,"Ġhttps":10552,"Ġceremony":10553,"ugar":10554,"ĠIndonesia":10555,"ĠHills":10556,"tty":10557,"Ġà¤ľà¤¨à¤ľ":10558,"ĠKaz":10559,"KEY":10560,"Ġà¤¯à¤ķ":10561,"Ġà¤¬à¤¤à¤²":10562,"leveland":10563,"mask":10564,"Ġfleet":10565,"ĠSport":10566,"igin":10567,"isEmpty":10568,"Ġprocessing":10569,"Dan":10570,"Ġ\"'":10571,"Ġhour":10572,"ĠDark":10573,"URI":10574,"Ġinvited":10575,"WS":10576,"ãĥ":10577,"ĠIN":10578,"className":10579,"Ġboat":10580,"ĠJesus":10581,"ĠGarden":10582,"ĠAdam":10583,"rapped":10584,"Core":10585,"Ġtail":10586,"Ġbodies":10587,"Ġpun":10588,"ĠDak":10589,"adh":10590,"roid":10591,"ige":10592,"Ġstrike":10593,"Ġmind":10594,"Ġcru":10595,"Ġà¤īà¤łà¤¤":10596,"Ġment":10597,"angel":10598,"ĠImperial":10599,"owntown":10600,"keep":10601,"ERROR":10602,"Ġpublications":10603,"Ġreferences":10604,"Has":10605,"Ġsteam":10606,"Ġpup":10607,"Mat":10608,"Ġà¤Ĩà¤ľà¤®":10609,"owner":10610,"ĠColomb":10611,"Ġrise":10612,"à¤ķà¤²à¤¤":10613,"ĠDelhi":10614,"Uri":10615,"ority":10616,"itals":10617,"Ġcriminal":10618,"ÅŁ":10619,"Ġproced":10620,"ugins":10621,"ws":10622,"nold":10623,"ĠBefore":10624,"ashi":10625,"à¤łà¤Ń":10626,"Ġresigned":10627,"cf":10628,"[-":10629,"Ġstating":10630,"anian":10631,"rama":10632,"Ġà¤¬à¤Ł":10633,"Ġdry":10634,"1972":10635,"ĠMicro":10636,"Ġvoted":10637,"Organ":10638,"Ġip":10639,"rena":10640,"Ġtransition":10641,"ĠÃī":10642,"ĠVideo":10643,"Ġà¤Ĺà¤¢":10644,"Ġzero":10645,"So":10646,"ĠDh":10647,"Ä«":10648,"ĠNumber":10649,"Doc":10650,"vements":10651,"Ben":10652,"ĠCare":10653,"ĠHu":10654,"Ġà¤Ĺà¤µà¤°":10655,"Ġpassenger":10656,"Ġgenerated":10657,"uki":10658,"ĠPage":10659,"ando":10660,"Ġincorporated":10661,"Ġanimal":10662,"Ġhappen":10663,"soft":10664,"à¤ķà¤¤à¤°":10665,"Ġ1890":10666,"Ġà¤Łà¤°":10667,"à¤¿à¥¤":10668,"à¤¹à¤Ł":10669,"Ġcorresponding":10670,"ĠRights":10671,"Ġstandards":10672,"Ġà¤²à¤ķà¤¡":10673,"ĠRey":10674,"Ġengines":10675,"ĠCommander":10676,"Ġinhabitants":10677,"Ġproceed":10678,"Ġpromote":10679,"Ġpossibly":10680,"ĠArkansas":10681,"Ġvo":10682,"Place":10683,"emen":10684,"Ġtend":10685,"UK":10686,"ĠBrian":10687,"Ġmodified":10688,"1973":10689,"ĠPsych":10690,"ĠThird":10691,"ĠDeputy":10692,"ĠRest":10693,"Ġdepict":10694,"edding":10695,"Ġà¤ĭà¤¤":10696,"ĠBowl":10697,"resents":10698,"allas":10699,"Ġethnic":10700,"Ġentrance":10701,"ifiers":10702,"à¤¶à¤¬":10703,"igious":10704,"Ġà¤ļà¤ª":10705,"Ġtrav":10706,"asa":10707,"Ġimportance":10708,"ĠAntonio":10709,"ĠRab":10710,"aire":10711,"ystem":10712,"à¤Ĺà¤ķà¤°":10713,"overy":10714,"Ġsoci":10715,"itionally":10716,"Ġ63":10717,"father":10718,"storage":10719,"hips":10720,"iri":10721,"apolis":10722,"ĠPref":10723,"Although":10724,"Ġinvolving":10725,"ĠName":10726,"Ġmoth":10727,"ĠSel":10728,"December":10729,"entially":10730,"ĠOd":10731,"Ġreserve":10732,"ĠEric":10733,"Ġà¤Ĩà¤Īà¤¸":10734,"CB":10735,"ĠThrough":10736,"Ġà¤ªà¤¥":10737,"Ġnick":10738,"Ġjunior":10739,"ishops":10740,"Ġ})":10741,"Project":10742,"November":10743,"Ġmac":10744,"á»":10745,"ĠRoberts":10746,"ĠPhill":10747,"ĠEdinburgh":10748,"rak":10749,"Ġbacking":10750,"acher":10751,"Ġrows":10752,"ĠIslamic":10753,"idel":10754,"Network":10755,"ĠChairman":10756,"Ġchemical":10757,"1971":10758,"Api":10759,"Ġhired":10760,"ĠStudios":10761,"Ġà¤Ľà¤ķ":10762,"Ġdevices":10763,"Ġdeput":10764,"ibl":10765,"Ġimprove":10766,"à¤ĩà¤µà¤°":10767,"Thomas":10768,"bey":10769,"Ġconstituency":10770,"yers":10771,"Ġseems":10772,"Ġà¤ľà¤ľ":10773,"ĠCow":10774,"ĠTreat":10775,"ĠDisney":10776,"ĠThailand":10777,"fetch":10778,"plot":10779,"ĠAnthony":10780,"Ġroutes":10781,"Ġà¤ĸà¤¨":10782,"aded":10783,"Loader":10784,"ĠFM":10785,"Ġsignature":10786,"Ġheavily":10787,"isted":10788,"Ġequivalent":10789,"Byte":10790,"Ġanth":10791,"ĠMiami":10792,"Ġapplications":10793,"Ġcapture":10794,"Ġopin":10795,"stats":10796,"ĠIndependent":10797,"à¤¸à¤ªà¤°":10798,"eland":10799,"olph":10800,"ĠFarm":10801,"ocate":10802,"Ġbroken":10803,"ĠRural":10804,"returns":10805,"Ġà¤ľà¤²à¤µ":10806,"EP":10807,"Ġsorted":10808,"issions":10809,"à¤Īà¤ĵ":10810,"Ġspecifically":10811,"Ġentirely":10812,"IG":10813,"ĠWrest":10814,"Ġà¤ıà¤¯à¤°à¤ª":10815,"ĠAssoci":10816,"uscript":10817,"ĠHunt":10818,"Ġprotein":10819,"thodox":10820,"Ġstrateg":10821,"Ġsb":10822,"mu":10823,"temp":10824,"ĠAmb":10825,"eties":10826,"archy":10827,"Ġextends":10828,"Ġà¤¯à¤¶":10829,"Ġped":10830,"Ġcycle":10831,"à¤¨à¤Ĺ":10832,"Ġdoct":10833,"à¤ıà¤¸à¤¸":10834,"Ġlicens":10835,"ĠCru":10836,"Ġlaid":10837,"boards":10838,"Ġ'_":10839,"Ġà¤¶à¤°à¤£":10840,"ĠPap":10841,"ÃŃn":10842,"eful":10843,"chain":10844,"ĠWindows":10845,"Ġignore":10846,"Ġ'')":10847,"ĠMalaysia":10848,"Ġexecuted":10849,"Ġnamespace":10850,"ĠBry":10851,"mph":10852,"Ġà¤·":10853,"atherine":10854,"Ġà¤Łà¤¨":10855,"ĠĠĠĠĠĠĠĠĠĠĠĠĠĠĠĠĠĠĠĠĠĠĠĠĠĠĠĠĠĠĠĠĠĠĠ":10856,"ĠMult":10857,"Ġexamples":10858,"including":10859,"Ġemployees":10860,"ĠCommunist":10861,"Ġacid":10862,"Political":10863,"Ġsprintf":10864,"mers":10865,"edge":10866,"Ġrecordings":10867,"Ġdidn":10868,"?\"":10869,"à¤ıà¤¸à¤Ł":10870,"Alex":10871,"Ġsafe":10872,"Ġqueue":10873,"Ġpione":10874,"ĠPalest":10875,"rin":10876,"oca":10877,"Ġinner":10878,"Ġdescribes":10879,"song":10880,"ĠDat":10881,"Ġà¤Ĺà¤µ":10882,"Ġmaintained":10883,"Ġfine":10884,"disc":10885,"Ġsquadron":10886,"Iterator":10887,"ĠAbd":10888,"Ġà¤ħà¤ªà¤®":10889,"unnel":10890,"getId":10891,"Headers":10892,"wen":10893,"urday":10894,"Only":10895,"Ġconcluded":10896,"enezuel":10897,"ctic":10898,"Ġstores":10899,"1968":10900,"ramework":10901,"Ġcomposition":10902,"'].":10903,"Main":10904,"Ġcluster":10905,"Obj":10906,"network":10907,"utf":10908,"ĠMayor":10909,"Ġpip":10910,"ULL":10911,"ĠBus":10912,"ĠPalace":10913,"ĠAustrian":10914,"Ġscenes":10915,"ĠMoon":10916,"ompson":10917,"itched":10918,"ĠHungary":10919,"Application":10920,"rastructure":10921,"'ll":10922,"tol":10923,"à¤ĩà¤ľà¤°":10924,"Join":10925,"eron":10926,"Ġà¤²à¤µ":10927,"irds":10928,"ĠHug":10929,"ĠBart":10930,"raf":10931,"Ġ68":10932,"Ġ1905":10933,"ĠPuerto":10934,"avi":10935,"ĠMarket":10936,"Ġcombination":10937,"Ġ67":10938,"Ġban":10939,"Ġarchae":10940,"Ġbirds":10941,"leyball":10942,"Ġtrained":10943,"Ġedited":10944,"inv":10945,"ĠRugby":10946,"ĠResult":10947,"Ġ95":10948,"Ġengaged":10949,"Ġrend":10950,"!\"":10951,"IM":10952,"ĠLas":10953,"Ġsuperv":10954,"ĠFall":10955,"Cred":10956,"ĠMrs":10957,"Lou":10958,"Ġbatch":10959,"roc":10960,"Ġà¤ıà¤Ł":10961,"ĠWelsh":10962,"Ġgain":10963,"Ġentries":10964,"Mer":10965,"Ġà¤Ĩà¤«":10966,"âĢ¢":10967,"Ġadvent":10968,"Richard":10969,"Ġwitness":10970,"à¤łà¤¤":10971,"ĠIsraeli":10972,"Ġpraised":10973,"anny":10974,"ĠAlan":10975,"HS":10976,"Ġà¤īà¤¦à¤¯":10977,"Ġrepresents":10978,"Ġuniform":10979,"hetic":10980,"à¤°à¤®à¤¶":10981,"à¤Ĺà¤ł":10982,"Ġbelieve":10983,"uis":10984,"Ġjoining":10985,"Ġdestination":10986,"à¤ķà¤Ī":10987,"1969":10988,"ĉĉĉĉĉĉ":10989,"Ø±":10990,"Ġattr":10991,"Ġcomic":10992,"ideos":10993,"Ġfoundation":10994,"ĠOrchestra":10995,"payload":10996,"Ġmurd":10997,"ĠSign":10998,"intend":10999,"sim":11000,"Ġstrength":11001,"Ġwhy":11002,"ĠRomania":11003,"Ġinform":11004,"Ġproved":11005,"Ġdifference":11006,"Ġweather":11007,"Ġ1906":11008,"rase":11009,"haps":11010,"eless":11011,"ĠMcG":11012,"ocratic":11013,"Ġconversion":11014,"Ġreaching":11015,"Ġrepeated":11016,"okes":11017,"ĠLam":11018,"Mag":11019,"Peter":11020,"ĠMedicine":11021,"Ġcompete":11022,"foreach":11023,"Ġà¤¸à¤¹à¤ľ":11024,"Ġproducing":11025,"classes":11026,"Ġ1907":11027,"Ġhair":11028,"Pal":11029,"++;":11030,"GBT":11031,"Ġideas":11032,"Ġ62":11033,"Ġtoward":11034,"coh":11035,"Ġà¤®à¤°à¤¨":11036,"IST":11037,"Ġagency":11038,"...)":11039,"Ġadapted":11040,"GA":11041,"Ġà¤Ĺà¤¦":11042,"ĠOak":11043,"ĠRailroad":11044,"ĠMake":11045,"ĠMountains":11046,"Ġsynchron":11047,"ĠGon":11048,"Ġexperi":11049,"Ġà¤ĸà¤¤à¤°à¤¨":11050,"batch":11051,"Ġparallel":11052,"Ġsecretary":11053,"ĠMaur":11054,"Ġtemporary":11055,"Ġahead":11056,"Ġmel":11057,"ĠMcK":11058,"Ġexped":11059,"puter":11060,".âĢĿ":11061,"Ġmach":11062,"Ġheard":11063,"Ġpaths":11064,"Ġentertainment":11065,"bal":11066,"wig":11067,"election":11068,"Ġaccused":11069,"named":11070,"Ġintroduction":11071,"ested":11072,"Ġsale":11073,"Mc":11074,"Ġbishop":11075,"Ġhomes":11076,"inking":11077,"ranches":11078,"ĠDeath":11079,"ĠUtah":11080,"Ġ1909":11081,"Ġmolec":11082,"ĠCatal":11083,".',":11084,"Production":11085,"Ġruled":11086,"ĠFern":11087,"?(":11088,"ĠJordan":11089,"ĠVienna":11090,"ĠTrump":11091,"à¥Īà¥¤\"":11092,"orus":11093,"gate":11094,"Ġhits":11095,"Ġsubsid":11096,"ĠBaltimore":11097,"Ġpremiered":11098,"Ġtwelve":11099,"vant":11100,"Ġ'-":11101,"Ġnumpy":11102,"race":11103,"Ġreality":11104,"ĠIndex":11105,"()));":11106,"Queue":11107,"CR":11108,"ouch":11109,"Ġrating":11110,"sequence":11111,"Ġtries":11112,"device":11113,"Struct":11114,"Series":11115,"à¤¾à¥ĩ":11116,"Ġgenera":11117,"Ġmart":11118,"ĠNar":11119,"ĠWalker":11120,"leased":11121,"essment":11122,"ĠAre":11123,"resolve":11124,"Ġdegrees":11125,".(":11126,"ĠChampion":11127,"Selected":11128,"Ġtesting":11129,"Ġresolve":11130,"ĠVin":11131,"uer":11132,"à¤¯à¤°à¤®":11133,"ugoslav":11134,"Ġunset":11135,"Day":11136,"Ġà¤¯à¤¤":11137,"plement":11138,"ĠLyn":11139,"Ġclosely":11140,"poss":11141,"LOG":11142,"ĠGoogle":11143,"FM":11144,"ĠGa":11145,"ĠJuan":11146,"Ġquite":11147,"Ġopportunity":11148,"Ġà¤Ĩà¤®à¤¤":11149,"ĠCond":11150,"ĠReport":11151,"Ġexit":11152,"ĠDefense":11153,"Ġlooking":11154,"istent":11155,"OK":11156,"ĠFriend":11157,"Ġinvasion":11158,"Ġhosts":11159,"ĠPur":11160,"Prim":11161,"ĠMontreal":11162,"Fore":11163,"direct":11164,"Script":11165,"ocracy":11166,"dated":11167,"Ġmilit":11168,"ĠBuddh":11169,"onom":11170,"Ġhunt":11171,"Duration":11172,"ĠFA":11173,"ĠWho":11174,"inian":11175,"Ġ1904":11176,"Profess":11177,"oche":11178,"ĠOriginal":11179,"Ġinterior":11180,"sson":11181,"month":11182,"orer":11183,"Ġalter":11184,"Ġpod":11185,"Ġà¤¶à¤ªà¤¥":11186,"ahn":11187,"ĠArchitect":11188,"ĠPeters":11189,"Account":11190,"Ġreplacement":11191,"Ġprotocol":11192,"Ġadding":11193,"Ġseventh":11194,"main":11195,"ĠHistorical":11196,"closed":11197,"Ġà¤ıà¤¡à¤µ":11198,"Ġcommitted":11199,"dy":11200,"attery":11201,"Ġaggreg":11202,"Ġbriefly":11203,"avel":11204,"Ġemot":11205,"nan":11206,"BE":11207,"Ġà¤¸à¤«à¤°":11208,"ĠMPs":11209,"Profile":11210,"admin":11211,"ifies":11212,"ogether":11213,"ĠPed":11214,"ĠDance":11215,"ĠLawrence":11216,"ĠAtlanta":11217,"ĠPlayer":11218,"umin":11219,"Ġresidence":11220,"Ġà¤ĺà¤¡":11221,"Ġimproved":11222,"umps":11223,"arma":11224,"Ġoperator":11225,"Air":11226,"ĠĠĠĠĠĠĠĠĠĠĠĠĠĠĠĠĠĠĠĠĠĠ":11227,"Ġrequirements":11228,"ading":11229,"ĠFurther":11230,"ovation":11231,"à¤ªà¤°à¤¸":11232,"ĠRace":11233,"Ġlands":11234,"ÅĦ":11235,"ĠHollywood":11236,"Ġcompilation":11237,"ĠFal":11238,"Ġcontrolled":11239,"ĠFil":11240,"Ġmist":11241,"ĠNode":11242,"Pattern":11243,"Ġprize":11244,"FS":11245,"Ġadjacent":11246,"Integer":11247,"ĠAgency":11248,"Ġfill":11249,"include":11250,"ĠAle":11251,"Ġrelation":11252,"Ġvolunte":11253,"fire":11254,"ĠFight":11255,"ĠPittsburgh":11256,"Ġleads":11257,"usted":11258,"Ġà¤¥à¤ķ":11259,"Ġdivisions":11260,"ĠHampshire":11261,"Ġconvent":11262,"bridge":11263,"ĠSamuel":11264,"Ġanything":11265,"Ġque":11266,"Town":11267,"erbai":11268,"Ġassumed":11269,"POST":11270,"ĠConstitution":11271,"Ġtank":11272,"vas":11273,"Ġà¤ĳà¤«à¤°":11274,"300":11275,"Ġdoor":11276,"Ġcontributions":11277,"Ġtemp":11278,"olly":11279,"Ġarmed":11280,"ernel":11281,"rev":11282,"Ġaccur":11283,"ĠStewart":11284,"ĠHans":11285,"insert":11286,"ĠFinland":11287,"Ġsun":11288,"onial":11289,"ĠPeace":11290,"Many":11291,"ladesh":11292,"Ġchose":11293,"Author":11294,"Mart":11295,"ĠBasketball":11296,"ĠFac":11297,"Ġoperate":11298,"Ġsurg":11299,"ĠSS":11300,"ĠIron":11301,"Ġreaction":11302,"Ġisol":11303,"Style":11304,"ĠTraining":11305,"Ġstopped":11306,"ĠDeb":11307,"Handle":11308,"ĠLang":11309,"Ġbelief":11310,"locks":11311,"Ġtechniques":11312,"Ġsummary":11313,"Ġclassification":11314,"Ġdrawn":11315,"Ġfactors":11316,"Callback":11317,"assador":11318,"parameter":11319,"Ġgoods":11320,"hai":11321,"Ġ78":11322,"insula":11323,"media":11324,"ĠUse":11325,"Ġ600":11326,"Ġrevolution":11327,"Ġagricultural":11328,"irates":11329,"ĠYan":11330,"chor":11331,"Ġfly":11332,"Ġdivers":11333,"Ġphilosophy":11334,"erring":11335,"nik":11336,"ĠJam":11337,"Ġpainters":11338,"avalry":11339,"generate":11340,"Ġapart":11341,"ĠWhat":11342,"Old":11343,"cht":11344,"ogen":11345,"ishment":11346,"à®":11347,"Ġgrounds":11348,"aughters":11349,"wd":11350,"Ġrich":11351,"iverpool":11352,"Ġearliest":11353,"iac":11354,"ĠHorn":11355,"Ġboundary":11356,"ĠKings":11357,"inea":11358,"Ġtags":11359,"ivated":11360,"Ġdistributed":11361,"Ġregarded":11362,"ĠMaine":11363,"400":11364,"Ġcosts":11365,"Ġpurposes":11366,"1967":11367,"Items":11368,"Afric":11369,"Ġnorthwest":11370,"Bur":11371,"was":11372,"ĠLanka":11373,"encing":11374,"Mill":11375,"Ġdeploy":11376,"esa":11377,"inch":11378,"lat":11379,"Ġresistance":11380,"Ġauto":11381,"sha":11382,"ĠPublishing":11383,"oba":11384,"Ġcollaboration":11385,"ĠPad":11386,"Ġsamples":11387,"Ġbed":11388,"Ġmotion":11389,"ĉĠĠĠ":11390,"Ġbrain":11391,"ĠEarly":11392,"apply":11393,"ĠAgric":11394,"Ġcharges":11395,"Ġminute":11396,"%,":11397,"rowser":11398,"Ġmedicine":11399,"ĠPow":11400,"ĠLet":11401,"Ġcomposers":11402,"Ġrejected":11403,"objects":11404,"ĠSeason":11405,"Ġinterests":11406,"ĠTypeError":11407,"Ġmeta":11408,"Ġ1880":11409,"Week":11410,"ĠHungarian":11411,"ĠDE":11412,"Ġdtype":11413,"(\"\\":11414,"Ġgraduate":11415,"Ġhumans":11416,"ĠRan":11417,"iah":11418,"lig":11419,"February":11420,"arks":11421,"ĠEven":11422,"ĠOri":11423,"Ġproducers":11424,"convert":11425,"Ġrunner":11426,"Volume":11427,".')":11428,"itable":11429,"ĠRap":11430,"Ġcler":11431,"à¤¯à¤¸à¤Ń":11432,"Spanish":11433,"Ġsole":11434,"Ġà¤¸à¤Ĺ":11435,"à¤¼à¥Ģ,":11436,"-+-+":11437,")(":11438,"Tube":11439,"sprintf":11440,"ĠDue":11441,"Ġlegend":11442,"Ġdismiss":11443,"Ġtrip":11444,"alty":11445,"Ġtmp":11446,"ÈĻ":11447,"Ġà¤ıà¤¨à¤¸":11448,"arp":11449,"othes":11450,"Ġchair":11451,"Now":11452,"Ġwaters":11453,"Ġshowing":11454,"hibition":11455,"ĠWright":11456,"Ġpolicies":11457,"ĠSud":11458,"ĠMission":11459,"Ġscholars":11460,"Ġà¤¬à¤°à¤¤":11461,"Ġà¤¯à¤®":11462,"ĠInvest":11463,"timestamp":11464,"isode":11465,"Ġ61":11466,"Ġroads":11467,"Dig":11468,"Cons":11469,"Ġelectronic":11470,"Ġeasily":11471,"fast":11472,"à¤¯à¤²à¤Ł":11473,"Donald":11474,"']:":11475,"Ġ1901":11476,"gon":11477,"Ġbin":11478,"Ġmort":11479,"Ġheat":11480,"Ġere":11481,"=\"#":11482,"ivation":11483,"Ġathletes":11484,"ducing":11485,"Change":11486,"Ġdie":11487,"agram":11488,"ĠNob":11489,"Ġstrategy":11490,"Ġpreced":11491,"Ġprocesses":11492,"Ġaccompan":11493,"adr":11494,"ulus":11495,"à¤ķà¤ķ":11496,"Gl":11497,"Ġprompt":11498,"ĠGrant":11499,"bach":11500,"ĠSi":11501,"supported":11502,"Term":11503,"Nodes":11504,"Ġ?\"":11505,"Ġà¤Ŀà¤Ĺà¤¡":11506,"European":11507,"annon":11508,"Ġsurvived":11509,"Ġtf":11510,"Ġseparated":11511,"Ġaware":11512,"Ġfreedom":11513,"Ġmapping":11514,"Ġmeasures":11515,"Ġà¥§à¥Ń":11516,"#{":11517,"Ġnone":11518,"ĠAdvent":11519,"Ġdrivers":11520,"ÙĪ":11521,"ranean":11522,"Tx":11523,"Ġparticipate":11524,"Ġuniversities":11525,"Ġexecute":11526,"Release":11527,"osm":11528,"ĠAlliance":11529,"Ġsolution":11530,"ographics":11531,"ĠBed":11532,"arant":11533,"ĠSeattle":11534,"Ġnarr":11535,"cap":11536,"Ġ76":11537,"ilk":11538,"Ġcoverage":11539,"ĠMi":11540,"ĠIslam":11541,"Ġovers":11542,"Ġ[])":11543,"country":11544,"ĠLib":11545,"Ġsubstant":11546,"ĠTag":11547,"ĠMetropolitan":11548,"builder":11549,"rus":11550,"tenance":11551,"Ġrailroad":11552,"aware":11553,"Ġeverything":11554,"Ġmedium":11555,"ĠCrown":11556,"ĠDaily":11557,"Ġà¤ĳà¤ª":11558,"Ġpersons":11559,"gow":11560,"uzz":11561,"Raw":11562,"Ġfn":11563,"diff":11564,"à¤ļà¤°à¤£":11565,"ĠLaure":11566,"Ġplugin":11567,"Ġplane":11568,"acon":11569,"definition":11570,"warning":11571,"ĠNon":11572,"ĠBomb":11573,"Ġru":11574,"double":11575,"iop":11576,"Ġtok":11577,"Ġtransaction":11578,"Ġà¤§à¤°à¤¨":11579,"Ġlinked":11580,"alymp":11581,"aired":11582,"Ġcrown":11583,"reset":11584,"ĠRio":11585,"ĠVik":11586,"iot":11587,"ĠAction":11588,"Ġà¤Łà¤ķà¤°":11589,"Ġdelivered":11590,"Ġskills":11591,"Ġcourses":11592,"Ġmaintain":11593,"Ġopposite":11594,"clean":11595,"mingham":11596,"Bet":11597,"AG":11598,"Ġà¤ķà¤¹à¤ķà¤°":11599,"Ġgreatest":11600,"ĠLith":11601,"Ġmarine":11602,"ĠĠĠĠĠĠĠĠĠĠĠĠĠĠĠĠĠĠĠĠĠĠĠĠĠ":11603,"Ġdamaged":11604,"ĠKennedy":11605,")->":11606,"Ġfrequency":11607,"Ġflying":11608,"atar":11609,":]":11610,"Ġsinging":11611,"ĠRobinson":11612,"prison":11613,"Ġintelligence":11614,"arus":11615,"ĠHas":11616,"warn":11617,"inae":11618,"ĠKB":11619,"adding":11620,"Ġà¤Ĺà¤®":11621,"illo":11622,"Direct":11623,"ĠBuck":11624,"Ġvenues":11625,"Repository":11626,"ariables":11627,"anim":11628,"à¤µà¤¸à¤¨":11629,"ĠĠĠĠĠĠĠĠĠĠĠĠĠĠĠĠĠĠĠĠĠĠĠĠĠĠĠĠ":11630,"abet":11631,"Ġà¤®à¤¤à¤Ń":11632,"sch":11633,"Ġà¤²à¤²":11634,"Graph":11635,"vars":11636,"ĠAthletic":11637,"ĠHom":11638,"ups":11639,"ĠMorgan":11640,"ĠMetro":11641,"Ġà¤īà¤ªà¤®":11642,"atters":11643,"Ġowners":11644,"Constants":11645,"Ġà¤ıà¤¸à¤¡":11646,"overty":11647,"merce":11648,"ĠOrd":11649,"umption":11650,"Ġ69":11651,"Ġà¤¬à¤¨à¤°":11652,"Royal":11653,"Ġprepared":11654,"Ġrescue":11655,"Package":11656,"à¤¾!":11657,"Ġà¤ªà¤°à¤¤":11658,"umbent":11659,"Ġresign":11660,"Alumni":11661,"ĠBeat":11662,"Ġjump":11663,"oka":11664,"Ġ74":11665,"Team":11666,"EE":11667,"à¤īà¤²":11668,"Ã¨re":11669,"ĠOttoman":11670,"Ġà¤Ĩà¤°à¤®":11671,"Ġox":11672,"ĠCulture":11673,"failed":11674,"Ġstanding":11675,"ĠGran":11676,"Ġà¤ĵà¤¡":11677,"Ġshooting":11678,"Ġreception":11679,"ĠImp":11680,"ĠCole":11681,"Ġ1903":11682,"Ã©n":11683,"Ġastron":11684,"hab":11685,"Ġworth":11686,"ĠEnergy":11687,"Ġà¤Ńà¤¤":11688,"ĠDakota":11689,"'ve":11690,"Ġwindows":11691,"à¤ħà¤ķ":11692,"à¤¹à¤µ":11693,"ĠNeb":11694,"ucks":11695,"CF":11696,"Num":11697,"Ġaf":11698,"ugs":11699,"Ġundert":11700,"Ġ1902":11701,"ĠJun":11702,"ĠRy":11703,"Bad":11704,"Ġpassengers":11705,"Ġlegislation":11706,"ĠGirls":11707,"Ġgender":11708,"Ġcolonial":11709,"pred":11710,"Ġà¤ªà¤µà¤¨":11711,"à¤¯à¤Ł":11712,"ducer":11713,"Ġenumer":11714,"ĠRot":11715,"socket":11716,"Ġconsole":11717,"cover":11718,"ĠPas":11719,"ĠOur":11720,"pective":11721,"ented":11722,"ĠABC":11723,"ĠOm":11724,"1966":11725,"ango":11726,"Ġcriticized":11727,"ĠOpera":11728,"Ġcommunication":11729,"ĠChamber":11730,"ĠThompson":11731,"ĠIns":11732,"folder":11733,"ĪĴ":11734,"Ġpublishing":11735,"commun":11736,"ĠSenator":11737,"Ġcaught":11738,"Ġregularly":11739,"ĠKo":11740,"Ġchallenge":11741,"Ġupdates":11742,"Ġà¤ħà¤µà¤¤":11743,"School":11744,"1964":11745,"/%":11746,"Sal":11747,"Ġpreg":11748,"CLA":11749,"crit":11750,"à¤Łà¤¨à¤°":11751,"Ġmyth":11752,"Ġdefensive":11753,"PL":11754,"Ġexplode":11755,"Ġstored":11756,"odge":11757,"aptist":11758,"aments":11759,"amps":11760,"short":11761,"ĠBull":11762,"ĠOfficial":11763,"ĠHop":11764,"rating":11765,"Limit":11766,"Super":11767,"olia":11768,"ĠFried":11769,"Ġimplemented":11770,"ĠKarl":11771,"Ġà¥§à¥ª":11772,"cp":11773,"Ġactivist":11774,"ribed":11775,"``.":11776,"phan":11777,"ĠUpdate":11778,"uffix":11779,"leans":11780,"who":11781,"Ġhero":11782,"CL":11783,"ĠBroadcast":11784,"family":11785,"Children":11786,"free":11787,"(!":11788,"ĠCricket":11789,"antly":11790,"Ġgrid":11791,"1965":11792,"grid":11793,"ĠCleveland":11794,"eding":11795,"asi":11796,"Ġtack":11797,"ouver":11798,"ATA":11799,"ĠAuthority":11800,"Ġham":11801,"ĠDonald":11802,"Ãł":11803,"Ġaudio":11804,"Ġfranchise":11805,"ĠSax":11806,"Ġrout":11807,"hu":11808,"Ġnegoti":11809,"proxy":11810,"Ġmerge":11811,"ĠDick":11812,"ĠBetween":11813,"Ġfan":11814,"Ġstands":11815,"itorial":11816,"ĠKan":11817,"ĠUnit":11818,"}/":11819,"arat":11820,"Ġwrong":11821,"rupted":11822,"ythm":11823,"lie":11824,"ommod":11825,"Ġlat":11826,"Ġvariant":11827,"Ġrivers":11828,"à¤Ĺà¤¯":11829,"Ġcolour":11830,"Jew":11831,"ĠRub":11832,"oves":11833,"ĠTrade":11834,"ĠOblast":11835,"Ġlocality":11836,"Ġfit":11837,"ĠPatri":11838,"orrow":11839,"common":11840,"Ġnaval":11841,"Ġinvestment":11842,"ĠDave":11843,"Ġtheore":11844,"plates":11845,"Mac":11846,"Ġduty":11847,"à¤īà¤¨à¤ķ":11848,"à¤Ĩà¤§":11849,"Ġrenew":11850,"Ġsumm":11851,"Ġadvantage":11852,"à¥ĩà¤ĥ":11853,"ĠResponse":11854,"Ġà¤°à¤ķà¤®":11855,"Sir":11856,"Ġà¤¸à¤¦à¤°":11857,"ĠRussell":11858,"orton":11859,"Ġdesigns":11860,"Thread":11861,"Ġsomew":11862,"tha":11863,"Ġretail":11864,"aman":11865,"Ġfaith":11866,"Ġdf":11867,"1945":11868,"Ġdesigner":11869,"ĠArena":11870,"Later":11871,"Ġrooms":11872,"ĠBoys":11873,"ĠUkrainian":11874,"ĠMong":11875,"ĠPear":11876,"Ġà¤§à¤°à¤¤":11877,"Ġtests":11878,"ĠKap":11879,"Ġcommune":11880,"Ġaer":11881,"ishments":11882,"ĠBrothers":11883,"Ġjourney":11884,"required":11885,"(['":11886,"Season":11887,"à¥Ģ/":11888,"iche":11889,"ĠCase":11890,"Ġgetattr":11891,"ĠBengal":11892,"Alias":11893,"Ġclimb":11894,"ĠWing":11895,"Ġdebuted":11896,"Den":11897,"ĠBlo":11898,"bishop":11899,"ĠNep":11900,"ĠNatural":11901,"ĠKl":11902,"Ġ77":11903,"ĠCampbell":11904,".:":11905,"ĠTol":11906,"Ġoperates":11907,"Ġboys":11908,"ĠAgain":11909,"orkshire":11910,"Ġà¤¨à¤¨":11911,"issue":11912,"Ver":11913,"tokens":11914,"Descriptor":11915,"Ġ71":11916,"ĠSaf":11917,"Ġbusinesses":11918,"Ġmeters":11919,"});":11920,"ĠNord":11921,"Ġvictims":11922,"Ġstages":11923,"variable":11924,"ĠVerm":11925,"Ġhill":11926,"ĠAnna":11927,"Ġpurchase":11928,"Impl":11929,"Ġsell":11930,"Ġcompletion":11931,"NE":11932,"Ġ'<":11933,"ĠGlas":11934,"igo":11935,"fiction":11936,"ĠWard":11937,"ĠThus":11938,"à¤¼à¥Ĥ":11939,"prim":11940,"ĠVolume":11941,"iterranean":11942,"Ġneighbour":11943,"Ġretained":11944,"Ġcircum":11945,"quence":11946,"Ġannot":11947,"Ġsouthwest":11948,".');":11949,"Ġpush":11950,"called":11951,"Ġà¤ĳà¤¡":11952,"Ġpandemic":11953,"agar":11954,"ĠStart":11955,"Ġà¤¬à¤¹à¤¸":11956,"Ġà¥§à¥©":11957,"Recip":11958,"Chang":11959,"labels":11960,"ilst":11961,"Ġbusinessman":11962,"ĠMatthew":11963,"ĠChen":11964,"Engine":11965,"ĠColonel":11966,"Ġanniversary":11967,"Ġ73":11968,"Ġà¤Ĺà¤£à¤¨":11969,"marine":11970,"Ġcharged":11971,"ĠBush":11972,"ĠKon":11973,"Ġreader":11974,"Ġdies":11975,"ĠKnight":11976,"ĠComb":11977,"ĠReform":11978,"Ġveter":11979,"Ġà¤ªà¤°à¤«":11980,"Ġencounter":11981,"Ġmanuscript":11982,"ĠChem":11983,"Jose":11984,"à¤¼-":11985,"hattan":11986,"à¤§à¤ª":11987,"Ke":11988,"eenth":11989,"ĠAlfred":11990,"Albums":11991,"ĠView":11992,"Sem":11993,"ĠHend":11994,"Ġnotably":11995,"Registry":11996,"usk":11997,"aba":11998,"ancell":11999,"ĠMunicipality":12000,"ĠNash":12001,"Ġmembership":12002,"bul":12003,"Ġdecade":12004,"Ġindicate":12005,"jamin":12006,"Station":12007,"à¤·à¤¸":12008,"Control":12009,"ndarray":12010,"ĠRu":12011,")$":12012,"à¤¼à¥ĩà¥¤":12013,"astery":12014,"Ġcredited":12015,"ĠPrefecture":12016,"ristol":12017,"ursive":12018,"Ġdefeating":12019,"Ġfinals":12020,"Ġà¤ĩà¤ķà¤Ł":12021,"Ġà¤µà¤ľ":12022,"Ġinteger":12023,"database":12024,"Ġtypical":12025,"ographer":12026,"wright":12027,"datetime":12028,"Ġimprison":12029,"DR":12030,"Requ":12031,"à¤¬à¤ķ":12032,"events":12033,"à¤Ĩà¤Īà¤ı":12034,"|}":12035,"Ġfired":12036,"ĠAdams":12037,")[":12038,"Ġmonitor":12039,"PM":12040,"writers":12041,"away":12042,")-":12043,"ĠControl":12044,"Ġprepare":12045,"Ġsuburb":12046,"FILE":12047,"ĠMargaret":12048,"Ġendpoint":12049,"à¤¯à¤¨à¤¶":12050,"\\/":12051,"Ġà¤ªà¤°à¤µ":12052,"Personnel":12053,"Ġinstruments":12054,"Ùĩ":12055,"Ġdescend":12056,"Ġterror":12057,"ĠNA":12058,"opal":12059,"à¥į,":12060,"gressive":12061,"à¤§à¤®":12062,"Ġregiment":12063,"Ġpainted":12064,"ĠSn":12065,"ĠOrleans":12066,"Ġ[$":12067,"ĠâĤ":12068,"ĠDead":12069,"BB":12070,"ĠAS":12071,"Ġscientists":12072,"Ġevolution":12073,"display":12074,"à¤¼à¥ĩ-":12075,"netic":12076,"Secret":12077,"Ġà¤ĩà¤¸à¤¨":12078,"Common":12079,"1940":12080,"Å¾":12081,"initions":12082,"Ġrestored":12083,"Custom":12084,"à¤¨à¤¶":12085,"Ġimplementation":12086,"Ġvector":12087,"extension":12088,"ductions":12089,"ĠRequest":12090,"ĠMess":12091,"Ġdog":12092,"listed":12093,"ĠEconomic":12094,"à¤Ĭà¤¦":12095,"ĠSerbia":12096,"Ġthick":12097,"getClass":12098,"ĠAy":12099,"Ġresidential":12100,"ĠKelly":12101,"ĠSac":12102,"ĠAny":12103,"ĠWoman":12104,"ĠMarie":12105,"ĠCarter":12106,"Ã¶r":12107,"ĠBrooklyn":12108,"1962":12109,"NG":12110,"WA":12111,"ĠBruce":12112,"Ġexecution":12113,"How":12114,"Ġà¤Ĩà¤¦à¤¤":12115,"League":12116,"Ġsurre":12117,"Ġselling":12118,"ĠDub":12119,"ĠPy":12120,"ĠLiverpool":12121,"Ġprovincial":12122,"ĠMotor":12123,"Ġadmitted":12124,"rices":12125,"Ġtownship":12126,"ĠEvery":12127,"Ġguitarist":12128,"ĠĠĠĠĠĠĠĠĠĠĠĠĠĠĠĠĠĠĠĠĠĠĠĠĠĠ":12129,"sur":12130,"Ġspl":12131,"Ġstreets":12132,"atern":12133,"cussion":12134,"Ġà¤µà¤²":12135,"ĠEver":12136,"ĠApple":12137,"Moths":12138,"Ġstarred":12139,"ĠFood":12140,"ĠScient":12141,"Medalists":12142,"Ġcontents":12143,"Ġuri":12144,"urricane":12145,"Ġassault":12146,"Ġhtml":12147,"oses":12148,"Ġsubjects":12149,"ĠComics":12150,"ĠPay":12151,"ĠDean":12152,"ĠAthletics":12153,"SQL":12154,"à¤Łà¤ĩ":12155,"Ġà¤¸à¤¤à¤¹":12156,"à¤¹à¤ľ":12157,"Ġsuccessor":12158,"Ġgarden":12159,"à¤°à¤ļà¤²":12160,"Ġkid":12161,"oming":12162,"Ġsynd":12163,"Ġrates":12164,"Ġdriving":12165,"Ġcomed":12166,"ĠRyan":12167,"Ġincorpor":12168,"ĠGuide":12169,"ĠOrthodox":12170,"osc":12171,"Transaction":12172,"Ġusage":12173,"Ġmagn":12174,"ĠJohann":12175,"ÃŁ":12176,"region":12177,"Ġaccommod":12178,"iry":12179,"Ġà¤ĸà¤Ł":12180,"Select":12181,"itro":12182,"ĠVenezuel":12183,"Ġà¤īà¤ªà¤ľ":12184,"Ġendemic":12185,"mo":12186,"Ġtall":12187,"Ġà¤ªà¤¹à¤¨à¤¨":12188,"ĠConservative":12189,"Ġinterested":12190,"Ġworker":12191,"Ġerect":12192,"profit":12193,"Bro":12194,"Ġà¤²à¤ĺ":12195,"Ġcrisis":12196,"ĠKnow":12197,"ĠNelson":12198,"ĠCarib":12199,"Ġà¤²à¤¤":12200,"Ġreput":12201,"ducational":12202,"ĠBangladesh":12203,"story":12204,"eli":12205,"ĠSchools":12206,"Ġdifferences":12207,"ĠGulf":12208,"à¤Ĩà¤¨":12209,"Ġconserv":12210,"Ġenabled":12211,"ĠTrophy":12212,"Ġorient":12213,"ĠDigital":12214,"ĠRud":12215,"<?>":12216,"Ġdeputy":12217,"aran":12218,"Ġprime":12219,"enia":12220,"Ġamar":12221,"Ġarranged":12222,"Member":12223,"ĠInteger":12224,"ifle":12225,"Ġgrass":12226,"Ġphen":12227,"fa":12228,"Ġà¤¶à¤®":12229,"ĠCarn":12230,"ĠAqu":12231,"Ġstood":12232,"Ġteen":12233,"Ġschedule":12234,"Ġmining":12235,"Ġsaved":12236,"ĠArtillery":12237,"enz":12238,"Ġ98":12239,"ĠPortland":12240,"ĠCentury":12241,"ĠOnce":12242,"orses":12243,"Ġadvis":12244,"neur":12245,"ĠAssistant":12246,"oviÄĩ":12247,"endment":12248,"Ġuseful":12249,"Ñĥ":12250,"ĠLane":12251,"ancel":12252,"ĠAustin":12253,"Ġdiagn":12254,"ĠChart":12255,"Ġ1898":12256,"ashed":12257,"à¤īà¤¨à¤²":12258,"à¤¡à¤ķà¤°":12259,"ĠRick":12260,"Ġplus":12261,"Ġvisible":12262,"Ġunus":12263,"ĠBud":12264,"Ġprisoners":12265,"Ġvideos":12266,".$":12267,"Variable":12268,"configuration":12269,"Ġrect":12270,"Ġwa":12271,"pher":12272,"ju":12273,"Ġdating":12274,"ĠBranch":12275,"Ġappropriate":12276,"Ġ82":12277,"Ġjustice":12278,"Ġmagazines":12279,"Ġreleg":12280,"ĠJosÃ©":12281,"Ġknock":12282,"ĠEmer":12283,"town":12284,"ĠTrib":12285,"Ġrose":12286,"Ġjudges":12287,"Media":12288,"Frank":12289,"Ġpermission":12290,"Ġà¤Ĩà¤ľà¤ķà¤²":12291,"hour":12292,"policy":12293,"osure":12294,"Di":12295,"Ġà¤ħà¤ĸà¤¬":12296,"ĠJudge":12297,"King":12298,"Ġturns":12299,"Ġwave":12300,"ĠLower":12301,"Ġintent":12302,"Ġmatching":12303,"Ġà¤¸à¤°à¤¦":12304,"Ġchance":12305,"cia":12306,"stad":12307,"async":12308,"Ġexplos":12309,"Ġwings":12310,"ĠCooper":12311,"ĠYorkshire":12312,"ĠUpper":12313,"report":12314,"à¤Ĩà¤Īà¤Ł":12315,"random":12316,"Plugin":12317,"ujala":12318,"ĠSeveral":12319,"Bre":12320,"Ġgang":12321,"Ġassistance":12322,"Ġhabitat":12323,"Ġrein":12324,"ĠGill":12325,"Ġfiled":12326,"ĠRain":12327,"ĠMadrid":12328,"ĠHindu":12329,"ellect":12330,"ĠFive":12331,"Ġunsuccess":12332,"Ġà¤ĸà¤£":12333,"Ġready":12334,"Ġlicense":12335,"Demographics":12336,"gi":12337,"Ġstrict":12338,"Ġsatisf":12339,"ĠContin":12340,"ĠSerge":12341,"Ġsignificantly":12342,"Ġamarujala":12343,"Ġ800":12344,"Cam":12345,"alar":12346,"itime":12347,"igma":12348,"1963":12349,"Ġjournalists":12350,"ompl":12351,"Ġconcerns":12352,"Ġoverl":12353,"Ġmedals":12354,"Rest":12355,"à¤²à¤ĸà¤¨à¤Ĭ":12356,"driver":12357,"à¤¸à¤ľ":12358,"Ġ[],":12359,"Ġauthors":12360,"à¤¿à¤¼":12361,"à¤ĸà¤£":12362,"ĠBernard":12363,"Internal":12364,"Ġratio":12365,"Ġsleep":12366,"Ġà¤¤à¤¦":12367,"Ġeye":12368,"Ġheaded":12369,"mediate":12370,"Ġspaces":12371,"eva":12372,"INT":12373,"ĠYouTube":12374,"Tur":12375,"rity":12376,"à¤ıà¤ª":12377,"loaded":12378,"rops":12379,"mosph":12380,"ĠMaj":12381,"Ġbiggest":12382,"seq":12383,"slice":12384,"ĠYears":12385,"Active":12386,"hor":12387,"mac":12388,"Ġà¤µà¤¶":12389,"Ġdoll":12390,"Ġcarrying":12391,"ancouver":12392,"cr":12393,"changed":12394,"brid":12395,"Addr":12396,"Ġà¤Ĩà¤ªà¤¦":12397,"ĠAzerbai":12398,"astrop":12399,"Ġsupports":12400,"Ġfilled":12401,"Ġfest":12402,"Ġ88":12403,"ĠMovement":12404,"eno":12405,"Ġpian":12406,"bad":12407,"substring":12408,"ĠLimited":12409,"ĠPrincess":12410,"Total":12411,"Ġparsed":12412,"Ġ1870":12413,"Ġvary":12414,"endpoint":12415,"CM":12416,"ĠIndians":12417,"ulu":12418,"ĠHell":12419,"]*":12420,"Ġrefuge":12421,"Ġsigning":12422,"Ġtools":12423,"Ġ96":12424,"orce":12425,"Ġorganisation":12426,"ĠDefence":12427,"Ġcited":12428,"Ġaccounts":12429,"enses":12430,"Ġcourts":12431,"kt":12432,"mund":12433,"1961":12434,"Stud":12435,"Ġassembly":12436,"Ġà¤Ĩà¤Ĺà¤°":12437,"emon":12438,"ĠMorris":12439,"hy":12440,"door":12441,"ivan":12442,"Ġracial":12443,"Ġdatetime":12444,"à¤Ĺà¤°à¤£":12445,"(\"/":12446,"ĠConvention":12447,"Transl":12448,"Ġinstitution":12449,"Ġaspects":12450,"Ġsteps":12451,"depth":12452,"tery":12453,"à¤¤à¤¬":12454,"Ġresid":12455,"ĠCollins":12456,"Ġemail":12457,"hex":12458,"PER":12459,"Ġwounded":12460,"lean":12461,"atted":12462,"à¤ªà¤µ":12463,"513":12464,"ĠCapital":12465,"evens":12466,"Under":12467,"ĠNazi":12468,"si":12469,"ãģ":12470,"ĠOrganization":12471,"Ġ81":12472,"Ġqualifying":12473,"Endpoint":12474,"Ġlit":12475,"ivodes":12476,"Ġresolution":12477,"Title":12478,"Ġlayout":12479,"cludes":12480,"à¤¶à¤Ńà¤°":12481,"Ġnewspapers":12482,"ĠSoccer":12483,".\",":12484,"à¤ħà¤¤":12485,"Mah":12486,"ĠElectric":12487,"othing":12488,"Own":12489,"Ġduties":12490,"css":12491,"ĠNad":12492,"ĠUser":12493,"ĠSaturday":12494,"Ġaccompanied":12495,"otan":12496,"Full":12497,"Ġsuggests":12498,"Ġcous":12499,"Ġpractices":12500,"Pod":12501,"sea":12502,"Original":12503,"Ġà¤¨à¤ľà¤¦":12504,"Ġimag":12505,"Ġusername":12506,"ĠStandard":12507,"Little":12508,"raska":12509,"inations":12510,"istical":12511,"Category":12512,"oi":12513,"ĠRomanian":12514,"ĠThough":12515,"egas":12516,"Ġflags":12517,"à¤Ĩà¤Īà¤Ĩà¤°":12518,"Ġcrossing":12519,"ĠNam":12520,"Ð²":12521,"Ġbrick":12522,"ĠYugoslav":12523,"Bundle":12524,"Device":12525,"secret":12526,"Ġexperienced":12527,"ĠLanguage":12528,"IF":12529,"Proxy":12530,"ruption":12531,"Ġà¤¬à¤ĸ":12532,"ijing":12533,"Ġpanel":12534,"Ġjuris":12535,"Ġwheel":12536,"Ġdisappe":12537,"ĠGray":12538,"usalem":12539,"pi":12540,"ĠCour":12541,"ĠBlock":12542,"shift":12543,"Ġelectron":12544,"remote":12545,"unks":12546,"Ġawait":12547,"etta":12548,"Ġ1899":12549,"Bob":12550,"ĠPerson":12551,"Private":12552,"ĠMarshall":12553,"incipal":12554,"ĠMurray":12555,"Ġpairs":12556,"Ġcredit":12557,"Fin":12558,"lett":12559,"Ġuns":12560,"Ġ1896":12561,"Gold":12562,"mid":12563,"}}":12564,"ifestyle":12565,"Note":12566,"Rob":12567,"import":12568,"ĠJazz":12569,"ĠWrestling":12570,"OM":12571,"reference":12572,"riel":12573,"Ġà¤¬à¤ļà¤ªà¤¨":12574,"ĠParish":12575,"Ġweekly":12576,"Ġownership":12577,"Ġteachers":12578,"Sync":12579,"Ġvessels":12580,"ĠChang":12581,"uke":12582,"oenix":12583,"Ġbanks":12584,"Saint":12585,"Ġsecure":12586,"à¤¸à¤¨à¤²":12587,"Database":12588,"Pack":12589,"à¤ľà¤¶":12590,"Ġdepos":12591,"Ġmouth":12592,"ĠDallas":12593,"ultan":12594,"Ġglob":12595,"Ġstats":12596,"Ġsevere":12597,"Extension":12598,"iko":12599,"cred":12600,"Ġresponsibility":12601,"Ġbringing":12602,"ĠRoger":12603,"forcement":12604,"emale":12605,"ĠFel":12606,"Ġcloud":12607,"ĠWebsite":12608,"argument":12609,"Ġ84":12610,"indexOf":12611,"Ġflows":12612,"ĠConfeder":12613,"Ġpicture":12614,"Ġthing":12615,"ulating":12616,"Ġmobile":12617,"ivodeship":12618,"Ġtheater":12619,"ĠGraham":12620,"Ġmine":12621,"ĠTak":12622,"udes":12623,"ĠProtest":12624,"ĠKu":12625,"cd":12626,"ĠAngl":12627,"à¤Ĺà¤£à¤¨":12628,"ĠHere":12629,"ĠMond":12630,"Ġheads":12631,"ĠOptional":12632,"Ġà¤Ĩà¤ªà¤°":12633,"Ġunderstanding":12634,"Ġclassified":12635,"uru":12636,"Mapping":12637,"mount":12638,"Ġchunk":12639,"ĠStanley":12640,"Ġexpert":12641,"encoding":12642,"Language":12643,"Ġplate":12644,"startswith":12645,"din":12646,"Ġsed":12647,"Ġvolumes":12648,"fare":12649,"Tom":12650,"Ġfetch":12651,"entine":12652,"Ġreverse":12653,"holder":12654,"Ġà¤Ĺà¤¹à¤²":12655,"ĠBirmingham":12656,"Ġcamera":12657,"iya":12658,"FOR":12659,"Db":12660,"ĠTigers":12661,"Ġenh":12662,"folk":12663,"isition":12664,"alis":12665,"1930":12666,"flags":12667,"Remove":12668,"Ġpeer":12669,"Ġà¥¯":12670,"Ġarrival":12671,"à¤¶à¤¦":12672,"Dest":12673,"ĠBeck":12674,"claimed":12675,"ĠKevin":12676,"ĠPunjab":12677,"}'.":12678,"Ġnav":12679,"ĠFranklin":12680,"Ġmig":12681,"ĠDog":12682,"condition":12683,"Ġcarbon":12684,"Ġtasks":12685,"à¤ķà¤ľ":12686,"ĠPriv":12687,"filters":12688,"itations":12689,"Ġà¤°à¤¹à¤ķà¤°":12690,"isations":12691,"subject":12692,"Ġveget":12693,"ste":12694,"Ġpenalty":12695,"Ġdepending":12696,"Ġsuicide":12697,"global":12698,"yll":12699,"ĠSupport":12700,"Discography":12701,"uction":12702,"avan":12703,"Ġfalls":12704,"Ġcriticism":12705,"}\"":12706,"onian":12707,"Ġmunicipalities":12708,"raham":12709,"ĠUpon":12710,"Ġheritage":12711,"(',":12712,"ĠSC":12713,"ĠSid":12714,"Ġmedieval":12715,"ĠRico":12716,"Ġreset":12717,"Ġimplode":12718,"ĠVoivodeship":12719,"Ġextremely":12720,"Ġfictional":12721,"à¤ľà¤«":12722,"fish":12723,"à¤°à¤ł":12724,"Ġcategories":12725,"ĠPhot":12726,"Ġindicates":12727,"Ġthousands":12728,"before":12729,"extend":12730,"à¤§à¤¶":12731,"ĠEston":12732,"Ġshel":12733,"TT":12734,"Ġà¤®à¤¯":12735,"ĠTower":12736,"à¤ħà¤¸":12737,"ĠIllegalArgumentException":12738,"Ġclassic":12739,"Ġcolleges":12740,"Cluster":12741,"Jim":12742,"foot":12743,"Could":12744,"Ġoffensive":12745,"aron":12746,"Ġlearned":12747,"Ġbranches":12748,"ĠCass":12749,"ĠManhattan":12750,"oj":12751,"Ġformally":12752,"Ġtool":12753,"ĠDNA":12754,"audi":12755,"ĠNova":12756,"ĠSite":12757,"Ġlift":12758,"ssai":12759,"ĠIv":12760,"ĠKit":12761,"Univers":12762,"à¤¸à¤Ł":12763,"Ġpublish":12764,"Ġadaptation":12765,"iege":12766,"Decl":12767,"Ġmanufacturing":12768,"ĠPictures":12769,"Prom":12770,"ĠPack":12771,"ĠStorm":12772,"isen":12773,"osition":12774,"Ġbrig":12775,"Ġfinding":12776,"ĠCert":12777,"Ġelectoral":12778,"Ġindigenous":12779,"à¤ĩà¤¨à¤°":12780,"rategy":12781,"Ġà¤¸à¤¹à¤ķ":12782,"Ġaffect":12783,"Ġemergency":12784,"ĠSA":12785,"yclop":12786,"sa":12787,"ntil":12788,"à¤°à¤ĸà¤ª":12789,"Ġà¤ªà¤ł":12790,"eded":12791,"users":12792,"Ġsupposed":12793,"Ġcoastal":12794,"ĠCultural":12795,"Password":12796,"Ġtied":12797,"Ġdaughters":12798,"Ġchampionships":12799,"à¤¹à¤ª":12800,"ĠCathedral":12801,"Lower":12802,"Ġprovider":12803,"ĠNigeria":12804,"oustic":12805,"Ġevening":12806,"team":12807,"ties":12808,"Ġà¤®à¤¹à¤²":12809,"orne":12810,"verter":12811,"akia":12812,"Ġchildhood":12813,"Ġmental":12814,"Ġpoets":12815,"Ur":12816,"Unable":12817,"Ġpopularity":12818,"uce":12819,"Ign":12820,"Ġ1860":12821,"iciency":12822,"ĠLink":12823,"à¤Ĩà¤Īà¤¸":12824,"ĠBorough":12825,"rove":12826,"ĠFIFA":12827,"uart":12828,"Ãª":12829,"Ġcolors":12830,"à¤µà¤°à¤ķ":12831,"{\"":12832,"Ġà¤¥à¤°":12833,"Ġsynthes":12834,"factory":12835,"Ġcolspan":12836,"Ġcommemor":12837,"Ġpoem":12838,"alph":12839,"Ġstret":12840,"ĠSib":12841,"ĠGuinea":12842,"Henry":12843,"ĠAfghanistan":12844,"Ġpeaked":12845,"Ġrestaurant":12846,"Ġcrowd":12847,"Ġà¤¨à¤Ĺ":12848,"ĠLeban":12849,"Ġà¤Ķà¤°à¤¤":12850,"Ġri":12851,"oro":12852,"à¥Ĵ":12853,"à¤ıà¤¸à¤ıà¤¸à¤ıà¤Ĩà¤Ī":12854,"Stand":12855,"à¤¦à¤¨à¤¶":12856,"repre":12857,"ĠVel":12858,"Ġlanding":12859,"Ġproxy":12860,"auge":12861,"ĠHit":12862,"Ġhip":12863,"umi":12864,"Ġrob":12865,"ĠChallenge":12866,"Ġpapers":12867,"ĠText":12868,"but":12869,"Fac":12870,"messages":12871,"ĠHttp":12872,"oga":12873,"Ġpoverty":12874,"ĠEdition":12875,"Ġxml":12876,"Ġaccompl":12877,"Radio":12878,"Ġcovering":12879,"Ġnomination":12880,"Ġobtain":12881,"Ġgr":12882,"Ġmanner":12883,"ĠPeru":12884,"Statement":12885,"ĠMitchell":12886,"Ġack":12887,"DEFAULT":12888,"ipher":12889,"Resources":12890,"oup":12891,"Ġduration":12892,"rehens":12893,"ĠMem":12894,"ĠZone":12895,"à¤łà¤ķà¤°":12896,"repo":12897,"ogram":12898,"cos":12899,"ĠEvans":12900,"prom":12901,"eton":12902,"ĠConstant":12903,"1958":12904,"ierra":12905,"BL":12906,"à¤Ĺà¤¶":12907,"à¤¯à¤°à¤¤":12908,"Ġlob":12909,"amental":12910,"otion":12911,"Ġweak":12912,"Honours":12913,"ĠVic":12914,"à¤¤à¤¦":12915,"What":12916,"keeper":12917,"Ġ1895":12918,"Ġà¤ıà¤«à¤ıà¤¸à¤ıà¤¸à¤ıà¤Ĩà¤Ī":12919,"Ġassass":12920,"Ġstruck":12921,"1957":12922,"ĠFleet":12923,"Ġmeets":12924,"EM":12925,"Ġrent":12926,"Ġexplicit":12927,"1959":12928,"Ġà¤°à¤ĺ":12929,"Ġindicated":12930,"Ġcb":12931,"erse":12932,"Ġcapable":12933,"Just":12934,"Ġmovements":12935,"Ġ1897":12936,"elaide":12937,"Ġà¤µà¤¡":12938,"Ġleaf":12939,"Ġlosses":12940,"Chinese":12941,"à¤¬à¤ļ":12942,"Ġartistic":12943,"ĠMean":12944,"Ġidentifier":12945,"Inv":12946,"metric":12947,"Ġcounties":12948,"Ġroughly":12949,"Athlet":12950,"maker":12951,"ĠCurrent":12952,"Ġà¤¬à¤ļà¤¤":12953,"riday":12954,"Ġzip":12955,"ĠElementary":12956,"Ġspin":12957,"Ġprotests":12958,"apse":12959,"uka":12960,"ĠBelgian":12961,"Ġalgorithm":12962,"Ġfilmed":12963,"ĠBible":12964,"ĠJe":12965,"Ġquestions":12966,"graduate":12967,"ĠMust":12968,"porter":12969,"ĠJu":12970,"Ġtie":12971,"phere":12972,"Ġnetworks":12973,"provider":12974,"à¤¤à¤Ĺ":12975,"Grand":12976,"Ġalcoh":12977,"à¤Ĩà¤īà¤Ł":12978,"ĠProcess":12979,"ĠTrail":12980,"bucket":12981,"Round":12982,"Flora":12983,"xi":12984,"Ġdated":12985,"Ġhistorians":12986,"inf":12987,"Ġproposal":12988,"BM":12989,"ractions":12990,"Ġtopic":12991,"Defunct":12992,"ĠCA":12993,"ĠNi":12994,"Ġstayed":12995,"ncient":12996,"ĠCart":12997,"fly":12998,"Ġoverse":12999,"Bas":13000,"eval":13001,"aja":13002,"Elements":13003,"Ġtub":13004,"Ġà¤ĸà¤²":13005,"hammad":13006,"ĠDemocrats":13007,"game":13008,"ĠEgyptian":13009,"encer":13010,"Ġneut":13011,"otted":13012,"Ġbucket":13013,"1956":13014,"gio":13015,"ĠDerby":13016,"sts":13017,"Ġsocket":13018,"kar":13019,"Ġà¤£":13020,"ĠCaribbean":13021,"urers":13022,"1939":13023,"mel":13024,"owski":13025,"Conf":13026,"Mel":13027,"ĠâĢ¢":13028,"Ġopinion":13029,"Ġpartial":13030,"later":13031,"ĠProte":13032,"Imp":13033,"Ġdenied":13034,">(":13035,"RT":13036,"ĠBeg":13037,"ĠLate":13038,"Ġconcrete":13039,"Ġexpos":13040,"resses":13041,"Government":13042,"ĠGuy":13043,"ĠStra":13044,"Ġsoil":13045,"Ġtechnique":13046,"Ġoccupation":13047,"celand":13048,"ĠRangers":13049,"ĠFssai":13050,"ickets":13051,"à¤Ĩà¤Īà¤ª":13052,"Ġ#{":13053,"Ġà¤¸à¤¹à¤¨":13054,"boolean":13055,"acht":13056,"1955":13057,"à¤ıà¤¨à¤¯":13058,"à¤Łà¤ª":13059,"Ġperfect":13060,"Ġreplacing":13061,"ĠFacebook":13062,"Ġsoundtrack":13063,"thread":13064,"Wrap":13065,"ĠStage":13066,"Ġsnow":13067,"Ġ1893":13068,"initial":13069,"ĠEqu":13070,"ĠMS":13071,"ync":13072,"Ġwarm":13073,"Ġcancel":13074,"Driver":13075,"ĠPolitical":13076,"ĠNorman":13077,"à¤Ĺà¤Łà¤¨":13078,"ãĤ":13079,"Ġ83":13080,"kind":13081,"dates":13082,"rov":13083,"Section":13084,"stown":13085,"Ġà¤ħà¤£":13086,"ĠHTTP":13087,"ĠTele":13088,"Ġlay":13089,"Ġhang":13090,"Ġà¤Ĩà¤Īà¤Ł":13091,"Mont":13092,"Ġunderstand":13093,"uli":13094,"Ġdiscovery":13095,"ĠRemove":13096,"ĠNeg":13097,"ogy":13098,"oples":13099,"ĠJerusalem":13100,"Ġpatterns":13101,"ĠGlasgow":13102,"Ġà¤ıà¤¨à¤¡":13103,"available":13104,"sequently":13105,"idad":13106,"Ġtargets":13107,"Ġterritories":13108,"istani":13109,"hook":13110,"à¥Ī!":13111,"Ġappearing":13112,"ĠLiga":13113,"engine":13114,"Ġkingdom":13115,"Ġexpedition":13116,"CK":13117,"rez":13118,"Ġrecru":13119,"Ġattorney":13120,"othy":13121,"ĠFlore":13122,"àª¾":13123,"\"):":13124,"Ġ$_":13125,"Ġoffering":13126,"Jean":13127,"bow":13128,"flag":13129,"ĠHunter":13130,"Ġà¤¤à¤¹":13131,"LL":13132,"Stats":13133,"à¤Īà¤µ":13134,"ĠTheater":13135,"Ins":13136,"castle":13137,"Ġforests":13138,"à¥ĭà¤Ĥ-":13139,"ĠNation":13140,"ĠNE":13141,"ĠNever":13142,"Ġintersection":13143,"Ġseek":13144,"Ġsentence":13145,"Ġphone":13146,"Ġaffairs":13147,"coll":13148,"Ġcold":13149,"ĠMilan":13150,"Ġswimming":13151,"marshal":13152,"ĠLud":13153,"Ġmonument":13154,"Ġsupplied":13155,"Ġdescribe":13156,"udden":13157,"ĠFinnish":13158,"Net":13159,"Ġgate":13160,"Scottish":13161,"Ġtreated":13162,"African":13163,"ĠFab":13164,"Ġexport":13165,"iffer":13166,"ĠNBA":13167,"Ġlongest":13168,"assign":13169,"Ġnations":13170,"Ġachieve":13171,"ĠChristopher":13172,"Sat":13173,"ĠFine":13174,"Green":13175,"Ġperhaps":13176,"XX":13177,"Inst":13178,"Ġ1889":13179,"distance":13180,"ĠFalls":13181,"Chain":13182,"Ġinfrastructure":13183,"aws":13184,"Ġ79":13185,"Ġ87":13186,"Game":13187,"ĠMall":13188,"arrier":13189,"Ġdiscip":13190,"Ġdataset":13191,"Global":13192,"ĠPA":13193,"Kind":13194,"Tracing":13195,"kw":13196,"Ġromantic":13197,"Ġstyles":13198,"Ġflowers":13199,"QU":13200,"Ġvirtual":13201,"elected":13202,"mag":13203,"ture":13204,"Ġcards":13205,"Ġcenters":13206,"Real":13207,"Ġdebug":13208,"oked":13209,"aha":13210,"ĠStars":13211,"Ġà¤§à¤µà¤¨":13212,"Ġgather":13213,"arked":13214,"ĠOS":13215,"ĠVictorian":13216,"à¤Īà¤²":13217,"à¤Īà¤Ł":13218,"zz":13219,"oria":13220,"Ġchanging":13221,"invalid":13222,"ailure":13223,"Ġ86":13224,"Ġundefined":13225,"ĠConvert":13226,"Runtime":13227,".*":13228,"ĠMahar":13229,"Ġforming":13230,"ĠBlues":13231,"Ġabort":13232,"Ġ92":13233,"Ġassociate":13234,"JP":13235,"ĠBristol":13236,"eri":13237,"Ġà¤Ĩà¤Ł":13238,"ĠProfessional":13239,"VI":13240,"Ġconnections":13241,"Tags":13242,"MENT":13243,"Ġtransc":13244,"extra":13245,"ĠExample":13246,"Ġsax":13247,"stery":13248,"Ġpray":13249,"ĠBroadway":13250,"Ġà¤ħà¤®à¤²":13251,"Ġà¤Ĳà¤¶":13252,"=%":13253,"Ġamateur":13254,"Ġfruit":13255,"ouncill":13256,"ilia":13257,"ĠTob":13258,"ĠTerritory":13259,"Ġorg":13260,"Ġ97":13261,"aze":13262,"Ġà¤®à¤®":13263,"etition":13264,"Ġliqu":13265,"ĠAmazon":13266,"Ġapproval":13267,"ĠTun":13268,"ĠKr":13269,"ĠGun":13270,"Agent":13271,"Pers":13272,"Ġchapter":13273,"Ġà¤Ľà¤ª":13274,"Ġdebate":13275,"Ġà¤²à¤Łà¤ķ":13276,"ĠNevada":13277,"rigger":13278,"Ġhappened":13279,"inction":13280,"Recipients":13281,"ATOR":13282,"pb":13283,"ĠMeg":13284,"incinn":13285,"Ġagencies":13286,"ilarly":13287,"Ġtokens":13288,"Annotation":13289,"Ġexplained":13290,"celona":13291,"rator":13292,"etry":13293,"logy":13294,"Ġplanet":13295,"Ġwithdraw":13296,"à¤Ĩà¤°à¤ª":13297,"Ġpatron":13298,"Ġremainder":13299,"ĠSongs":13300,"agre":13301,"ĠOt":13302,"ĠĠĠĠĠĠĠĠĠĠĠĠĊ":13303,"Ġeliminated":13304,"ĠVas":13305,"ĠRichmond":13306,"]+":13307,"sters":13308,"ĠAlberta":13309,"drop":13310,"zant":13311,"Ġdisestablished":13312,"ĠĠĠĠĠĠĠĠĠĠĠĠĠĠĠĠĠĠĠĠĠĠĠĠĠĠĠĠĠ":13313,"Ġlocomotives":13314,"à¥§à¥¦":13315,"Commun":13316,"Ġconstra":13317,"Ġà¤¨à¤ķà¤²":13318,"otton":13319,"Ġpublisher":13320,"ĠJimmy":13321,"dtype":13322,"Ġ'{":13323,"ceptor":13324,"Ġur":13325,"Ġbenefit":13326,"Ġmal":13327,"Ġmarkets":13328,"Ġsuspended":13329,"ĠVI":13330,"Ġmountains":13331,"bel":13332,"rules":13333,"Ġinstruct":13334,"serial":13335,"Live":13336,"ĠAld":13337,"score":13338,"Ġcircuit":13339,"ĠMalt":13340,"Mary":13341,"Ġappeal":13342,"Ġà¤ĳà¤²":13343,"Ġparliamentary":13344,"Tour":13345,"Ġsit":13346,"Ġbon":13347,"Ġeyes":13348,"Jewish":13349,"XML":13350,"gun":13351,"Ġ89":13352,"Ġcelebrated":13353,"oven":13354,"Christian":13355,"White":13356,"ĠSalv":13357,"Ġwooden":13358,"iors":13359,"ĠFitz":13360,"à¥Īà¤Ĥ;":13361,"Ġorchestra":13362,"1953":13363,"achi":13364,"Ġentering":13365,"================":13366,"Ġinstances":13367,"Ġprinted":13368,"elements":13369,"Use":13370,"ACE":13371,"incinnati":13372,"Ġ(\\":13373,"ĠBron":13374,")\",":13375,"Ġrelief":13376,"ounsel":13377,"à¤¥à¤Ĺ":13378,"music":13379,"Ġ1892":13380,"Ġbat":13381,"Ġmob":13382,"ĠST":13383,"appy":13384,"verb":13385,"Ġdoubles":13386,"ĠFull":13387,"Ġdisk":13388,"Ġcontroversy":13389,"ĠHawaii":13390,"Ġà¤ļà¤°à¤®":13391,"Ġinduct":13392,"ĠAdditionally":13393,"omon":13394,"à¤ĸà¤¡":13395,"ĠEss":13396,"ophone":13397,"front":13398,"models":13399,"Ġsatellite":13400,"Ġà¤Ĺà¤¹à¤¨":13401,"Ġ1885":13402,"Musical":13403,"OP":13404,"1920":13405,"ĠSarah":13406,"udson":13407,"ĠSaints":13408,"Ġremember":13409,"Ġtimestamp":13410,"Ġà¤ķà¤£":13411,"à¤¼à¥Ģà¥¤":13412,"uler":13413,"1949":13414,"ĠØ§ÙĦ":13415,"anti":13416,"Ġpoems":13417,"ĠVancouver":13418,"ĠIS":13419,"ĠTech":13420,"ibraries":13421,"wal":13422,"ĠRand":13423,"Ġ&$":13424,"Ġdefence":13425,"ĠImage":13426,"Hz":13427,"izont":13428,".),":13429,"PRE":13430,"ĠCer":13431,"Product":13432,"Ġà¤¬à¤¦à¤²à¤¤":13433,"ĠStudio":13434,"Ġhasattr":13435,"asp":13436,"igs":13437,"minute":13438,"Ġsufficient":13439,"lambda":13440,"ĠMack":13441,"Ġskin":13442,"Es":13443,"Ġcool":13444,"Hung":13445,"Ġhelping":13446,"ivia":13447,"geon":13448,"ĠBenn":13449,"Ġà¤ĩà¤¨à¤¸":13450,"à¤īà¤ª":13451,"mean":13452,"Ġactivists":13453,"font":13454,"redirect":13455,"just":13456,"Ġfold":13457,"ignated":13458,"ĠSteel":13459,"Ber":13460,"Ġpartition":13461,"1954":13462,"ĠDouble":13463,"conv":13464,"India":13465,"attrs":13466,"Ġconsc":13467,"Ġexisted":13468,"Ġgraduating":13469,"PATH":13470,"depend":13471,"iology":13472,"Ġparticipation":13473,"ĠWayne":13474,"Ġdowntown":13475,"menu":13476,"unique":13477,"exc":13478,"Ġdeclined":13479,"ĠPil":13480,"Ġinterval":13481,"Where":13482,"Ġvessel":13483,"MM":13484,"à¤µà¤Ĺ":13485,"Ġinfluential":13486,"ĠNebraska":13487,"ĠDJ":13488,"Ġshall":13489,"Play":13490,"Camp":13491,"irk":13492,"borne":13493,"à¤§à¤ķà¤°":13494,"Ġpercentage":13495,"Ġtell":13496,"ashes":13497,"imir":13498,"urling":13499,"ĠParker":13500,"ĠColombia":13501,"tz":13502,"Wal":13503,"Ġ([]":13504,"Ġà¤Ĺà¤°à¤®":13505,"Ġcrash":13506,"sis":13507,"Ġtempor":13508,"install":13509,"à¥ĭ'":13510,"Ġà¤ªà¤£":13511,"ROM":13512,"Unknown":13513,"ĠCBS":13514,"helm":13515,"Ġstrongly":13516,"à¤ķà¤¬":13517,"ĠSection":13518,"Ġangle":13519,"pine":13520,"Ġnominations":13521,"PR":13522,"iamond":13523,"Ġinvolvement":13524,"ĠGhana":13525,"Bucket":13526,"beat":13527,"edit":13528,"teenth":13529,"Ġspoken":13530,"Ġ93":13531,"ubb":13532,"Ġenumerate":13533,"ixel":13534,"ĠLead":13535,"ĠParse":13536,"1952":13537,"ĠAdmiral":13538,"Ġles":13539,"Ġà¤ıà¤ķà¤¦à¤®":13540,"ellectual":13541,"mate":13542,"umbai":13543,"gom":13544,"Ġouter":13545,"Environment":13546,"Ġmissions":13547,"iterator":13548,"ĠShang":13549,"ĠGreater":13550,"These":13551,"Ġappointment":13552,"ĠClassic":13553,"enter":13554,"Ġconvention":13555,"urst":13556,"Ġchecks":13557,"Ġfear":13558,"Ġdetect":13559,"Ġgovernments":13560,"Ġrecommended":13561,"Ġranking":13562,"written":13563,"ĠAntar":13564,"apsed":13565,"ĠUg":13566,"Ġclosing":13567,"possible":13568,"ĠStringBuilder":13569,"Ġpersonality":13570,"Ġrounds":13571,"Ġthreatened":13572,"(**":13573,"Ġsurrounded":13574,"Ġchoose":13575,"ĠJama":13576,"Convert":13577,"Ġphotography":13578,"Columns":13579,"Ġà¤ĵà¤Ł":13580,"Land":13581,"à¤ĺà¤µ":13582,"Ġ1891":13583,"à¤Łà¤¡":13584,"Econom":13585,"Ġconvers":13586,"ĠTrad":13587,"changes":13588,"à¤¼à¥ĩ,":13589,"1948":13590,"Ġà¤®à¤¥":13591,"Ġ1894":13592,"Ġconfront":13593,"uez":13594,"Swed":13595,"layer":13596,"ĠHum":13597,"Ġcompeting":13598,"Ġstudying":13599,"ĠHold":13600,"Ġà¤µà¤°à¤¨":13601,"ĠAttorney":13602,"Ġidentify":13603,"ĠSalt":13604,"ĠMediterranean":13605,"bus":13606,"ĠOk":13607,"Ġsynchronized":13608,"strong":13609,"Jack":13610,"ĠFr":13611,"ĠWind":13612,"à¤ıà¤¨à¤ıà¤¸":13613,"Ġplatforms":13614,"angerous":13615,"ĠMessage":13616,"gam":13617,"shaped":13618,"ussia":13619,"ĠOrange":13620,"gregation":13621,"ĠSerbian":13622,"ulum":13623,"Ġreleases":13624,"1946":13625,"imation":13626,"ĠCommissioner":13627,"ete":13628,"Cloud":13629,"Ox":13630,"à¤Ĺà¤¦à¤°":13631,"ulator":13632,"ultane":13633,"ĠPra":13634,"Ġà¤ĵà¤¬":13635,"Cur":13636,"Ġfishing":13637,"Ġmus":13638,"avor":13639,"GP":13640,"Ġ!$":13641,"Ġagents":13642,"Ġlandscape":13643,"ĠCarlos":13644,"Sil":13645,"Ġpercussion":13646,"Ġà¤ľà¤¹à¤°":13647,"aceae":13648,"1947":13649,"LD":13650,"ospitals":13651,"Stop":13652,"ĠSr":13653,"ĠGiants":13654,"Brazil":13655,"Î±":13656,"Ġswe":13657,"Ġelder":13658,"ĠAR":13659,"War":13660,"1951":13661,"Ġhonour":13662,"Ġenable":13663,"ĠLuther":13664,"à¤°à¤¬à¤¨":13665,"Ġsql":13666,"ĠFind":13667,"Social":13668,"acre":13669,"ensional":13670,"Ġty":13671,"Ġà¤¸à¤®à¤Ĺ":13672,"Ġprof":13673,"Ġsucceed":13674,"napshot":13675,"fill":13676,"Ġwrites":13677,"domin":13678,"Ġillegal":13679,"ĠBund":13680,"rieved":13681,"Ġà¤°à¤¥":13682,"Ġneuro":13683,"uated":13684,"ampton":13685,"ĠEug":13686,":\"":13687,"à¤Ĩà¤®":13688,"sterdam":13689,"Ġthemes":13690,"ĠLiving":13691,"quer":13692,"iable":13693,"igible":13694,"Ġ91":13695,"ollywood":13696,"ĠBey":13697,"Ġà¤¸à¤¹à¤¸":13698,"enberg":13699,"getKey":13700,"XT":13701,"ĠMars":13702,"Ġterminal":13703,"Ġministers":13704,"uble":13705,"Ġexperiences":13706,"ĠBilly":13707,"Wait":13708,"loop":13709,"ĠBeijing":13710,"hematic":13711,"created":13712,"Ġcancelled":13713,"Bean":13714,"ĠBachelor":13715,"Ġtheat":13716,"Ġ[\"":13717,"Ġphoto":13718,"Qual":13719,"appro":13720,"aho":13721,"Ñı":13722,"Ġdecline":13723,"ĠLag":13724,"oren":13725,"Aud":13726,"ĠSoutheast":13727,"Ġecho":13728,"Ġ1888":13729,"Ġbattles":13730,"Ġwrestling":13731,"ĠCrime":13732,"Ġabsolute":13733,"ĠSR":13734,"Ġdrawing":13735,"Ġlifestyle":13736,"Ġexerc":13737,"Ġrelationships":13738,"hus":13739,"Ġsilent":13740,"Ġsentenced":13741,"umeric":13742,"ĠParalymp":13743,"Ġhorror":13744,"Ġwire":13745,"à¤īà¤¸à¤ķ":13746,"ĠVersion":13747,"ĠGrad":13748,"Professional":13749,"Ġhighlight":13750,"ĠLad":13751,"Ġshares":13752,"Est":13753,"Ġcfg":13754,"ĠChron":13755,"Ġwhereas":13756,"usters":13757,"ĠSingles":13758,"ĠNBC":13759,"ĠClar":13760,"ĠBaker":13761,"ĠDeep":13762,"Ġabsor":13763,"binary":13764,"Ġarc":13765,"atible":13766,"Ġeleven":13767,"ĠAlaska":13768,"Ġpron":13769,"Ġprofession":13770,"sample":13771,"ĠHarrison":13772,"hill":13773,"à¤ĭ":13774,"Ġdispl":13775,"Ġà¤ħà¤²à¤°":13776,"Ġreun":13777,"Bal":13778,"atche":13779,"STR":13780,"Validation":13781,"Ġassets":13782,"ĠIter":13783,"ĠSymph":13784,"Ġeighth":13785,"ipped":13786,"Exists":13787,"ĠRacing":13788,"Ġvisitors":13789,"Left":13790,"ĠMD":13791,"Ġà¤Ĺà¤ľ":13792,"uckland":13793,"Ġà¤¹à¤°à¤ķà¤¤":13794,"Flag":13795,"Ġconvicted":13796,"quote":13797,"vm":13798,"world":13799,"ĠAP":13800,"Ġsurviving":13801,"layout":13802,"ĠIce":13803,"ĠBarbara":13804,"Ġelevation":13805,"Ġloaded":13806,"via":13807,"Ġextent":13808,"Ġportrayed":13809,"ĠYam":13810,"à¤¶à¤¨à¤ķ":13811,"anne":13812,"ĠRaw":13813,"ĠTrinity":13814,"Filmography":13815,"à¤ªà¤¹":13816,"Ġtexts":13817,"Ġfs":13818,"ĠLions":13819,"Ġcorporate":13820,"lee":13821,"Ġrecre":13822,"ĠAdelaide":13823,"Ġequipped":13824,"ACT":13825,"1942":13826,"Ġgenre":13827,"iden":13828,"Ġprovision":13829,"Ġhuge":13830,"andal":13831,"Ġspecim":13832,"Inf":13833,"ĠRE":13834,"iper":13835,"Ġlinear":13836,"Joseph":13837,"ned":13838,"More":13839,"Ġdisplayed":13840,"Ġwarning":13841,"Ġbes":13842,"Ġtransportation":13843,"Ġmanga":13844,"Ġmaintenance":13845,"Ġà¤¸à¤¶à¤ķ":13846,"ĠCov":13847,"Ġmetric":13848,"area":13849,"Ġvic":13850,"Ġspeak":13851,"Ġdonated":13852,"\\\"":13853,"')->":13854,"USER":13855,"LP":13856,"ĠPut":13857,"lier":13858,"Ġinjuries":13859,"getType":13860,"itarian":13861,"Ġholid":13862,"Ġpredec":13863,"Ġcrimes":13864,"Mass":13865,"ĠMaced":13866,"()),":13867,"Ġlimits":13868,"Ġcousin":13869,"winning":13870,"Ġfoss":13871,"aku":13872,"aser":13873,"Ġcontribution":13874,"ĠPhilosoph":13875,"Ġpredecess":13876,"rub":13877,"zeg":13878,"Ġoptim":13879,"power":13880,"ennial":13881,"hum":13882,"ĠLP":13883,"oshi":13884,"cloud":13885,"Ġasc":13886,"Ġà¤ħà¤Łà¤²":13887,"ente":13888,"ĠTree":13889,"ĠFuture":13890,"ahl":13891,"Ġannually":13892,"Rivers":13893,"à¥Ģ;":13894,"ĠAppe":13895,"Ġreputation":13896,"à¤Ĩà¤¯":13897,"pread":13898,"println":13899,"ĠSett":13900,"Sur":13901,"Ġ{};":13902,"Ġ94":13903,"series":13904,"ĠSystems":13905,"Ġatmosph":13906,"archive":13907,"Ġperiods":13908,"Ġearthqu":13909,"ellion":13910,"à¤°à¤¹à¤µ":13911,"Ġproport":13912,"login":13913,"Ġpreserved":13914,"fam":13915,"ĠDra":13916,"Ġpregn":13917,"Ġà¤¸à¤¤à¤°":13918,"Ġjunction":13919,"Ġlasted":13920,"President":13921,"roph":13922,"omi":13923,"Ġdetail":13924,"ĠBarry":13925,"ĠGot":13926,"ĠBaptist":13927,"agent":13928,"ĠOnline":13929,"Connect":13930,"ĠGriff":13931,"ĠCuba":13932,"Elect":13933,"bes":13934,"áº":13935,"Ġà¤īà¤ªà¤ķ":13936,"icker":13937,"asset":13938,"ĠCommunications":13939,"sys":13940,"Ġutils":13941,"matrix":13942,"Timestamp":13943,"Ġmoder":13944,"ĠPoly":13945,"utter":13946,"TracingEnabled":13947,"Ġ(_":13948,"Ġele":13949,"Ma":13950,"nb":13951,"reck":13952,"inos":13953,"ĠFreedom":13954,"Ġincreasingly":13955,"ĠSpirit":13956,"ĠKumar":13957,"ĠAlexand":13958,"Ġcod":13959,"Ġà¥§à¥§":13960,"ĠJason":13961,"parsed":13962,"Ã¦":13963,"Ġà¤ľà¤Ĺà¤¦":13964,"à¤Īà¤¡":13965,"ĠAlbum":13966,"idespread":13967,"Ġbroadcasting":13968,"Ġmargin":13969,"ĠUE":13970,"Ġà¤łà¤Ĺ":13971,"Ġconsiderable":13972,"Ġcomments":13973,"isAny":13974,"Ġvenue":13975,"hs":13976,"transform":13977,"Fred":13978,"Ġà¤Ńà¤¦":13979,"ĠMoroc":13980,"Ġgrown":13981,"Ġcompiled":13982,"Ġdistinguished":13983,"Test":13984,"ĠJohnny":13985,"Ġagriculture":13986,"onies":13987,"âĢľ":13988,"ĠConn":13989,"Ġbenefits":13990,"1944":13991,"ĠLiterature":13992,"asts":13993,"structor":13994,"mapping":13995,"Ġartillery":13996,"Male":13997,"fr":13998,"ĠGary":13999,"ĠWarner":14000,"exec":14001,"Ġ[]*":14002,"ĠXML":14003,"Ġdetailed":14004,"typeof":14005,"Ġwants":14006,"ĠAdvis":14007,"Ġbelonging":14008,"Double":14009,"Ġà¤¡à¤¬":14010,"Free":14011,"Ġimmediate":14012,"Ġà¤¶à¤°à¤¦":14013,"Ġ1850":14014,"Ġboats":14015,"ĠDocument":14016,"Ġunderground":14017,"Taxa":14018,"SION":14019,"Ġmaps":14020,"Ġsomewhat":14021,"('%":14022,"symbol":14023,"Ġacknow":14024,"ingen":14025,"Ġdream":14026,"ĠĠĠĠĠĠĠĠĠĠĠĠĠĠĠĠĠĠĠĠĠĠĠĠĠĠĠĠĠĠ":14027,"(?":14028,"ĠFather":14029,"elfare":14030,"1941":14031,"Ġencoded":14032,"ĠSocialist":14033,"mercial":14034,"Ġ1864":14035,"ĠBroadcasting":14036,"Ġpseud":14037,"Ġconsumer":14038,"Ġedges":14039,"ĠPierre":14040,"rock":14041,"ĠInv":14042,"Ã¡s":14043,"Academ":14044,"GO":14045,"Ġcalendar":14046,"lu":14047,"ĠMak":14048,"Ġarchitectural":14049,"isAnyTracingEnabled":14050,"à¤ĩà¤Ĺà¤°":14051,"phal":14052,"Returns":14053,"lift":14054,"Details":14055,"oker":14056,")));":14057,"Ġbear":14058,"Ġcontroller":14059,"wrap":14060,"Ãī":14061,"à¤®à¤Ń":14062,"Ann":14063,"Ġcinema":14064,"à¤µà¤¥":14065,"Ġà¤§à¤ķ":14066,"ĠCosta":14067,"Folder":14068,"ĠAlger":14069,"Louis":14070,"Ġgolf":14071,"Ġconservation":14072,"à¥ĭ?":14073,"erset":14074,"ĠKath":14075,"Ġparticipants":14076,"ĠBert":14077,"enos":14078,"Ġdefine":14079,"Gallery":14080,"Ġarchive":14081,"Ġalias":14082,"ĠBris":14083,"Ġcredits":14084,"ĠDB":14085,"ĠMontana":14086,"ĠJa":14087,"Ġsoldier":14088,"1936":14089,"1938":14090,"iw":14091,"ĠDrag":14092,"ĠFrances":14093,"Ġcontinuing":14094,"expr":14095,"ĠChap":14096,"Health":14097,"Ġtrigger":14098,"ĠTrack":14099,"Ġmarry":14100,"Er":14101,"anni":14102,"Ġannounc":14103,"holm":14104,"Ġfighter":14105,"ĠPhilippine":14106,"à¥ĩ;":14107,"Ġsuffix":14108,"ĠJava":14109,"ĠZe":14110,"edded":14111,"ttar":14112,"ĠPlant":14113,"dt":14114,"itis":14115,"Ġmanifest":14116,"ĠBarcelona":14117,"defaults":14118,"Ġworship":14119,"Ġdemolished":14120,"notes":14121,"uuid":14122,"ĠTib":14123,"ĠStore":14124,"Segment":14125,"care":14126,"Ġscores":14127,"rystal":14128,"ĠGand":14129,"Errors":14130,"Ġ1886":14131,"asha":14132,"Ġà¤Īà¤¡":14133,"video":14134,"Ġextend":14135,"iti":14136,"1943":14137,"gart":14138,"urring":14139,"Ġcabinet":14140,"Ly":14141,"Rock":14142,"****":14143,"'''":14144,"Ġwhilst":14145,"Ġcongress":14146,"Ã¶n":14147,"Ġconcerned":14148,"ĠGonz":14149,"}.":14150,"Ġ~":14151,"ĠIvan":14152,"Ġpopulations":14153,"Allow":14154,"previous":14155,"Atl":14156,"alam":14157,"Sequence":14158,"Ġsessions":14159,"ido":14160,"Ġeasy":14161,"slug":14162,"DateTime":14163,"Ġdrew":14164,"ourg":14165,"Ġà¤ļà¤Ł":14166,"ĠYe":14167,"Ã¼n":14168,"ĠBenjamin":14169,"orp":14170,"Liter":14171,"Ġtribut":14172,"Ġmeetings":14173,"ĠWarren":14174,"Single":14175,"terior":14176,"ĠElection":14177,"Ġsegments":14178,"Ġpub":14179,"Ġtow":14180,"scar":14181,"Ġà¤īà¤Ń":14182,"odore":14183,"Ġfriendly":14184,"ĠStre":14185,"stdout":14186,"Ġsurgery":14187,"ĠDraft":14188,"Ġ1865":14189,"City":14190,"Ġpropag":14191,"ĠMichel":14192,"'d":14193,"Ġannounce":14194,"LECT":14195,"icus":14196,"ĠCS":14197,"They":14198,"Ġà¤¨à¤ķà¤¦":14199,"Ġ().":14200,"ĠPhoenix":14201,"ĠKeyError":14202,"Ġeffectively":14203,"Ġoccasionally":14204,"ĠRAF":14205,"substr":14206,"Generator":14207,"ĠObserv":14208,"Master":14209,"Ġbird":14210,"interval":14211,"ĠTurner":14212,"ignore":14213,"atcher":14214,"Home":14215,"Ġsees":14216,"Ġuncle":14217,"feature":14218,"ichi":14219,"à¤²à¤Ŀ":14220,"allowed":14221,"ĠBA":14222,"Ġrecovered":14223,"Ġà¤¸à¤ķà¤²":14224,"ĠGrey":14225,"keley":14226,"Ġshore":14227,"ĠEncyclop":14228,"emit":14229,"Ġwine":14230,"Ġ1887":14231,"Ġcoordinates":14232,"Ġprinc":14233,"bane":14234,"ĠTreaty":14235,"Ġattributed":14236,"arc":14237,"ĠSE":14238,"ĠLis":14239,"ĠMonte":14240,"Locale":14241,"Ġcharter":14242,"Ġ1863":14243,"allest":14244,"onical":14245,"enabled":14246,"ĠWWE":14247,"Ġruling":14248,"ĠMol":14249,"Central":14250,"inters":14251,"Distribution":14252,"aton":14253,"Ġstable":14254,"ĠDays":14255,"Ġcolle":14256,"Ġà¤ĺà¤Łà¤ķ":14257,"Ġbeach":14258,"ĠPrior":14259,"ĠPrice":14260,"Ġà¤®à¤°à¤®":14261,"cb":14262,"à¤¿)":14263,"ĠVari":14264,"ĠPatt":14265,"Ġautomatically":14266,"tolower":14267,"ashtra":14268,"Ġà¤¨à¤µà¤®":14269,"ĠArtist":14270,"Pres":14271,"Ġvisiting":14272,"isch":14273,"ĠGrade":14274,"ingly":14275,"ĠInput":14276,"Ġmerchant":14277,"Ġdiameter":14278,"ĨĴ":14279,"ilty":14280,"Draw":14281,"Ġbuy":14282,"600":14283,"800":14284,"two":14285,"Ġrecommend":14286,"Ġgone":14287,"Ġcharacteristics":14288,"AGE":14289,"widget":14290,"ections":14291,"ĠMembers":14292,"ACK":14293,"Ġcontroversial":14294,"Ġillness":14295,"Ġspiritual":14296,"olves":14297,"onda":14298,"Ġnearest":14299,"ĠAttribute":14300,"Ġacted":14301,"ĠIndustry":14302,"Layout":14303,"bank":14304,"OT":14305,"ĠDivis":14306,"ben":14307,"Ġcup":14308,"Ġà¤Ĩà¤¸à¤®":14309,"Bill":14310,"Ġgallery":14311,"ĠMuhammad":14312,"Serv":14313,"ĠAND":14314,"agger":14315,"ClassName":14316,"Ġ1861":14317,"Ġretry":14318,"ema":14319,"Ġkeyboards":14320,"Sort":14321,"iu":14322,"aco":14323,"Ġtribe":14324,"Ġlistener":14325,"Ġfurn":14326,"Ġcreative":14327,"ĠMunicipal":14328,"occ":14329,"Ġlap":14330,"Critical":14331,"Domain":14332,"}'":14333,"Ġpython":14334,"Ġthirty":14335,"Ġtab":14336,"ĠHeb":14337,"accept":14338,"à¥Īà¤Ĥ-":14339,"ĠFish":14340,"upper":14341,"ĠGoth":14342,"Ġ':":14343,"axy":14344,"ĠMunich":14345,"Ġvoting":14346,"GS":14347,"reader":14348,"ĠSha":14349,"1935":14350,"Ġexperimental":14351,"ancellor":14352,"Ġpure":14353,"legiate":14354,"Ġflu":14355,"Books":14356,"Ġtribes":14357,"Ġdesired":14358,"best":14359,"ĠRaises":14360,"ĠUrban":14361,"forEach":14362,"Ġmartial":14363,"Parts":14364,"HER":14365,"ĠGermans":14366,"Ġposted":14367,"Ġwaiting":14368,"Ġhex":14369,"Missing":14370,"Ġ1884":14371,"1937":14372,"ĠPrimary":14373,"iji":14374,"Ġbridges":14375,"Ġresearchers":14376,"ĠManager":14377,"FFFF":14378,"pin":14379,"Ġabroad":14380,"ĠUniversal":14381,"ĠDictionary":14382,"Ġafterwards":14383,"ĠAndre":14384,"ommy":14385,"Ġ700":14386,"Ġ1881":14387,"gt":14388,"ĠMind":14389,"ĠPython":14390,"eway":14391,"à¤¨à¤ľà¤°":14392,"istence":14393,"Ġyoungest":14394,"Ġscientist":14395,"mill":14396,"onymous":14397,"SW":14398,"à¤Łà¤°à¤¸":14399,"à¤ħà¤ļ":14400,"Ġà¤¦à¤£":14401,"ethe":14402,"Ġrepresentatives":14403,"ĠIranian":14404,"ĠChand":14405,"Ġtact":14406,"prev":14407,"Ġà¤īà¤¬":14408,"ĠWa":14409,"Ġtrading":14410,"ĠMuslims":14411,"Ġcolony":14412,"uits":14413,"Ġabuse":14414,"Mad":14415,"ĠUtil":14416,"Ġsupporters":14417,"that":14418,"Communes":14419,"Ġjournals":14420,"days":14421,"Ġchapel":14422,"control":14423,"ONE":14424,"ipur":14425,"Ġrapidly":14426,"zes":14427,"preg":14428,"Another":14429,"Special":14430,"InputStream":14431,"Ġanswer":14432,"Ġhonors":14433,"âĢİ":14434,"Ġemployment":14435,"urse":14436,"Ġcricketer":14437,"()]":14438,"atra":14439,"Ġà¤®à¤¸à¤²":14440,"ĠResource":14441,"dirname":14442,"Ġgram":14443,"Ġà¤¬à¤¸à¤ª":14444,"Future":14445,"Ġlieutenant":14446,"chunk":14447,"ORY":14448,"Ð´":14449,"Success":14450,"ĠEsp":14451,"Ġtorn":14452,"extract":14453,"modules":14454,"ĠLook":14455,"Ġspan":14456,"Ġdrugs":14457,"SH":14458,"separ":14459,"released":14460,"ĠMans":14461,"ĠWang":14462,"Ġsubt":14463,"ĠNorfolk":14464,"Ġloyal":14465,"roat":14466,"Ġwidespread":14467,"Ġ110":14468,"Ġincidents":14469,"Ġhidden":14470,"ĠBuch":14471,"Ġà¤®à¤Ĺ":14472,"Ġexcell":14473,"Ġphysics":14474,"Sen":14475,"ĠIceland":14476,"ĠPand":14477,"Ġknew":14478,"ĠExchange":14479,"Ġunusual":14480,"256":14481,"Ġversus":14482,"à¤Ĺà¤®à¤¨":14483,"Ġmathematics":14484,"ĠCroatia":14485,"Ġstatue":14486,"Ġrecipient":14487,"such":14488,"Ġpatrol":14489,"Dutch":14490,"ĠExp":14491,"Ġsuffering":14492,"athon":14493,"ĠClare":14494,"ĠML":14495,"Ġ'*":14496,"ÄŁ":14497,"rv":14498,"Ġspending":14499,"Ġdelta":14500,"Ġvision":14501,"Ġlawyers":14502,"ĠCharlotte":14503,
[...]
